node {
  name: "input_input"
  op: "Placeholder"
  attr {
    key: "dtype"
    value {
      type: DT_FLOAT
    }
  }
  attr {
    key: "shape"
    value {
      shape {
        dim {
          size: -1
        }
        dim {
          size: 12
        }
      }
    }
  }
}
node {
  name: "FCN/input/MatMul/ReadVariableOp/resource"
  op: "Const"
  attr {
    key: "dtype"
    value {
      type: DT_FLOAT
    }
  }
  attr {
    key: "value"
    value {
      tensor {
        dtype: DT_FLOAT
        tensor_shape {
          dim {
            size: 12
          }
          dim {
            size: 64
          }
        }
        tensor_content: "\205\023\344\274L\234=\276\'\022->\316\270\334\274\354\354U\276>\3345\277\331\024\303\275\362j\207\275\374@(\276:Oy\276\025c\265\274\375\315\202\276\226\232\306=S\037\330<I\326\301=\270\377\214\276D?\246\274{5\227\276D%~;\006:\206<F;\347=\226`\354=,\222\322\2758\302\233\275\177I\n=\203\242\005\276\232\344M9\035\033\034\276\261\253\016<\236_\371\274h\261\\\273syT<\217\256\246<\233\245\023\276\222\220\t=\325\203,=\001\014\274\275\215\313\321;\353\225\212\276d\343\342\275\217S\271<DT\276\276\177\222\253\276\247\2034\275\344\252\n\275)\220f\275\261\2360>\341c\033\276\244o\367<\347^5\275\341\217}\276\340\277\265\276\235\234\272<Vjh\275*\236A<=\271\273<\263\241L<\344SU\275\214\347\033\276\260\r\304\275\254\373b\275\036\327b=N\n\211\276l\277\327<\262\3473>\350*\007>V4u\277\021o\033>:\313\266=\006\355\330>e\307\377=@3q=\222\034\235=\276\253s\276\314s\231\274^\212{\276\334]6\276T\312\217=\r\001\313\275\002\337g=\027lP\272fT\016=X\334\006\275\'0)=\230\306T\277\336\222\034\277y\356\201\276ak0\274\305!b\276<d\301>\277M\237\275vh\341\275\177_\362=\347f\211>\007?B<\216\005{=\371\025\235\274\254\246j\275\334i\357=\302\376+=I^\r>\264\237\027>-\227\177\276,\3730\276\247\230F=\331\262\000<:m\367\275\246Q\214=c\316\017\276\301\271N>t\265q\276\014\237\"\276\373\203\007\277.b\246=\377\326\342\275\220B\327>\232\016\006>W\344\355<\276\312+\277/i\253=\227\367\255=\263\223g\275\020)\227\275x\355\341\276i\323@>\225\010\224\276\017?\177\276\004\205\226\274e\234\202\275_\252\212=\032\003\324=\215\375\321\274C\310b>l\217+>\343>\262\275{\222\340>|\005u\276#+,\276\'\330O<f0$\276s\343\022?\024\023q\277\314\274\030\276 g\003\276\371\025\347<\337\323/\276\207W\203\277\350\373\265\277\331o\034>\347b\017\2758\034\225\275%H\322=\332v^\277\007\0372>;\330\014?X\311]\276\021y\014\277F\324\354>\324\014\214?\310\033k\277\367\311\0369\005\202\320>\2256\227>\3574\231<\245\300\010\277\233\001\310\277m\221>\275\274CF>\370)/?\030\377E>\352\246\252=u\344U\277\010\371V=J\"\240\277^\0231\276\242\360\273=\245\276\036?\353\032/?\363\364|>\006\360\206\275\205,\251>\024\235y>\335\314-?\334\323m>\253L0\277\217A\261\277w\261U\2757\230W?\221\354\315\276S|b\275E\027k\276\311\250\210?Q\007d\276\300)\007\2767%\377\276\037\002\377\276\301\373\243\275H\201z>\225\315>\276\263\"\350\276Z,\207\276Y\272\242\274mi\017\277\322\325\206\274:\240[\276,\033#?\246\3144\275\n\"h\276\235\t\230>Sl\207>\330$\323\277\351\311E?\020\362Q\277\014\222\351\275+\204\212\276\004D\021\276g\376\004?\022\354\312=@\031\010@\002E\211\275\301S\352\276\373\363\240\276\306oD?\033b\226\276\353\257\276\277\n\337\202>\022\316h\275\242\016j?\336\032\231\277l\250\330=\337\r9=\023\237\274=\022M\014?T^\327\276\301\214.>\225\340(?D\350\354=\322\343\000\277\001\232\262\276\023m\202\276\345\213\000>\204e\002\277n|\\\276\tuA=q\215u>\256\301)?\317\231_\2760\242\240\277\204Iw\277\005\343-\277\3029\304\275\306W\004?|\363\315>\231\003&\276\021Q\203=\2157\014@\364\003i\275\027XV\276e^==g\023\202\275\332n\321\275z\227Y=\331\024\265\276\247Y_\271*?e\274\373\022\312\274b\242\327<k\367\315\274S\000^\276\214\004R\274\024\314\243\276=\'\205\276\213\374\200;\004\310\266\274\311\000)\274G\236\206;\223>\255<.\274\242<.)\232;\366\320X\276L\330/\275+S\n\277\210\232\022<\273\267\026\273\243\252\222;\233\220\t\276\246\317\237<\243\243!<5=\310\273\006\244!\276T\002\217\276\322\240,\275\343\263\001=\247\245\025<\326\034(\274\312\333\362\273\211\323@<M\246\262=n\372\n\274l\306\336<\232\'h\276K\367\337\274\274\036\211\276M\275+\275\374\032\254=\303\231\225\275\264\3208\276>\317\324\276\323X2\277\023\302x\275\357\2624=W\256`\274\202Q\203\275\ts7\274\316G\325\275\327\324\225= t\3769h\322\010\275\265).\276\303\002\255<\275)|>W\332&>\347I{\276\253a{>1\330I\276\212\021\204>7\365)>\212\252B>{\253\350<k\311]>\361\372\203<\006Tu>\254\205K>\254%\205>\037,d\276\024\005p>G\277\204\274k\312B\276\016\330\327=\353p\377\276:\207\244>\2500\223\275\266\223v\275+\2657\2766\365c\276\214i\334>\210\305\346=\227\374[>\246\264>=P\301\212\276:8:>pk\331\277\241\207\203\275Z\002(\276o\273\274\275\323\300\227=\276X\3548w\030\006\276b\255$>\315\365\024>\312^\221=\334]%\276\000\202F\276\327\220\350\277\3342\026\276\020V\204\276/\211\000\277*ES>L\211w\276+\2342\275\035<\272\275RCA=\354U#\276H\204\357>\032\203\246>\035\013)>\027\006\321\274\347R\223>\332\373\201\2762\356\221<\005\315\034\277\330\360\"\275\335{t\276\224\024L\274 \204\322>\250\273]\276\207+\202\276\276\324\271\273`\266\316=\237\374Y>\026]\226\276\343\275\226>\026zy\276\014\346t\276+\007=\275=\307\213>\036\354\334>\243M\204=\267;\204>\345\0059\276\263\247\274\275\221\nN=\332e#?IM\266\276\356\204\030>\276T\212>\210\340c>pi\262\275\344\206\n=\005\301p\275\031<\010>N\r\220\275+\231\033>\377=\204>J\372\323<M\360g<Y\0225\276z\016\267\276\346\217\007\276\365\216\001?\3538\273=\302\262\013\277i\225M\275I\354\333\2752>\307\275\007\306\001>\277\215\201>\363\314\227\276\010\351_>-c\351=B73>@\3669>\255J\210>\003HX=_D\266=\r\313\300;)L\233>\346\365\177\276z7\271=\'\242\217\275\333\312\005\277\0215\331<q\217G>\215\002\250>u\222\225\276\265\244\223\276:\334\252\275\337\221g>P\214\020\277\240\001\026\276\314\300\004\277.uv\276|\323\211\276^\r\241\275\255\035\235\276\301c\277>5\022\247\276:=\203\276\367Lt\275D\301\322:1\270\207\276(_`>>\274\370=\002\003O\276}\030\n\276\2402\016\276\230\244\341\274\307.r>\275u\264=]@\034\276d\020\216\276\272\030\251\276\204\020<>\232\343J>\343\327\371\276f\004S<\247J\245>\334\273\320\276\262\327\207\277\364\252\223>\325L\373=&\034i>_E\021\277\010#\005?Oq\\?<\257\323>\025\305\313=\211S\246\276u\257\202\277\216M\362=\003\256\032\274\235\301\264=\000\216\'\274k\037\220>\355\223\262\276\234\344\037\274\273\031\221\276\001\203\006\277]j[>-4\026>\">\314\276\237\247\313\275-\361\232\275+vB>\325\357\305>W\231\236=2\006\326\274\244C\275=\365[\235=\351\2226\275\262FC=\347C\266\277D\215\213?\026P\311\275r\373\330>\366w\232??\220{\276\203\037x>.\256\307\276\302_\342\277\260\365%>7\271,>n\032\357?\2658\025>\2657\277\275\373\324\205?t\201\243\276\037I\r=[\001\000@.(7=\215\316\326\276\205,\360>\336\323\332>:2\">`\006\031=\3307u\276\350\261\311\276$&\211>8E\001\277\265\003\210>\243E\371>\006\\\324\276\226\351\n\300\312\262\036?\367\252\'\300r\213,\276\203\277\035>\255\251\371\276\031\201i?\341\365\231?\352C\277=9\020\224\276\376\354G\300\231\353\324\276\335\335\014>\210\221&? Q,\275\251\033(\276\306\024b<\304p\022>\036r@\275k\"1?\2375\201\276\316\345\354=\231\263\215>k\343I?;\177t?\017M0\300\360\027\240\276W\333x\276)\340A>\267\273\226=\335.\276?>\316Z\273\n\032\374\275Y6\256\277P\213\223\277\352\r\257\275:\300\347>\316Cq\277\001l?=\273\342\001\276 \021\201?\252\216\'?\206\347\241>\033\034w\276\235\026\247\276\212\244\025>\316\021\330=\241\252\337\277\003\\\226\276d<\254<\024\273\265\276p\027T\276\243B\364=\0010\377\277\250N\271>\366\230\035?l\377\211\276\017\":=\275\013@\276\307\031\245\276\217\242\006?\005\267\347\275\332Z\030\276/\250\300>\0050v?.8\034>{\322\255>\263L\234\276\241+\004\277\350Qk=-\036\235\277>&\240\277\267r4\276\316t\036\276#\362\215?c\226\242>\375J\210=\276)\032\300\240\253\221\275Q[3\276\255\375\303>\257\034\037>\277N\324>c\375\237=}}^\276kp\004\276\230\343{\276\366\275\005\277n[\265>\016\342\360>1\277P>\370\007\360>`\375\303\274\'\355s>\0074\227\277*S\232\276\200e\217>\342Ln?\200\254\226=\330\230\372\275\270-+\277+\344+?\356{\024>\315<\222\275\234\233\305=\3678\"\277\375\241N\2768j\017\276\2624a?OC\005>\303\254o\276\244\237%?\013\327[>I[\010\275j\260^?-\377\340=\317?\320\276\317\177\207?B\216\261\276C\032\207\277\236\002\336\274=:\341=\362\203$\276\177+\020\276\327<\342\277\014^\310=\301\373\"@u~9\272\373\317H\277$\324\205?k\371L\277\305\334\276\275\034\302\216<\201\377\200?\006\231W?\251\244\276?\206\250\237=\305\032T\275\301\212[\2775\337I>\351\325z\276U\320!?K\007i\276\275\000\r?\003`C>\211\331)\275\376\355\010\277\010\336\245>F|\206\275^\323h>\360\256\207>\002\025\005?hi\032\277U2P\277\"p\213\2769N\323\275\223\320\211>|/\320\276t\203r>\326\020!<vH\344\275\234\002\311\277h\233\030>\003K=\276\374q\212<\317\331\375\275\314\024\022=,\200c\2766\252\244\276\327A(?N\314\374\275H\260c\276{z\303\277\311\202\207\276\033\036\232\276l\202^?1\202?>C\221Y\276\021;\227\277\017\255b\276\221,\201?\327\361(?\254\367\205\276_\206\236=&\267\213\273t\364c\276\306\225d?\247\365A>~\216\254\277i\277\261=\016\215\233\277\337$\301\276\337\274\033?\375q\255\277d\255\321?\274\014\313;\030\375\216\276T\200\265\275\037\211\304\276I=c\276J\3166\275\255\3059\276jzQ?\n\246\344\276\213i\002\275p\003\353>\032~g>Mk\016\277\275\256\205\276\333\007>>*\035\257=\371\017F\2770\200\033>oM\217>\006\351\215\276x#%?;|M\276\370@\356?\302f\251\276\254\235C>A0D><v*\276\362\000\"\277u\025/\276S*\003\2767\250\361\276"
      }
    }
  }
}
node {
  name: "FCN/input/MatMul/ReadVariableOp"
  op: "Identity"
  input: "FCN/input/MatMul/ReadVariableOp/resource"
  attr {
    key: "T"
    value {
      type: DT_FLOAT
    }
  }
}
node {
  name: "FCN/input/MatMul"
  op: "MatMul"
  input: "input_input"
  input: "FCN/input/MatMul/ReadVariableOp"
  attr {
    key: "T"
    value {
      type: DT_FLOAT
    }
  }
  attr {
    key: "transpose_a"
    value {
      b: false
    }
  }
  attr {
    key: "transpose_b"
    value {
      b: false
    }
  }
}
node {
  name: "FCN/input/BiasAdd/ReadVariableOp/resource"
  op: "Const"
  attr {
    key: "dtype"
    value {
      type: DT_FLOAT
    }
  }
  attr {
    key: "value"
    value {
      tensor {
        dtype: DT_FLOAT
        tensor_shape {
          dim {
            size: 64
          }
        }
        tensor_content: "1y\257>(\315T:o\261\010?V\"\326>\022L2<\274_0;*\362\026>5\003L\276\307\245>=\306\026`;\253\250\345>\021\360\000\274W\3005>\002\351\215\2769\271\001\276\357X\346\273\006\220\t?\350\300\234\274\\2\242>\220\2618\277\365A0=\2450L?6\017+;\244~\370<+\\\226>\211~5=\356\201j\274HG\3218xL\217\275\001\207:>}\333\301\276\343TA=\3576\026=\334\343\000>\234+\203\276\267s\330\276\303S\205\276\236\244\357<2\315\212<\260\311K=\n}W\277\266;\336=\372\305\000\275W\031x\277\000\000\000\000\321\205\315\276\213f\334=@\356\210;\0209\004?\342p\242>\230\250\305;\254!\222\275\276{\275\273n\025\325>\005_S>P\0360\277\307J\031\275 8\300=\261Z\2418o2j>\207\266\\\273\267#|=0\236\315<o,l\277"
      }
    }
  }
}
node {
  name: "FCN/input/BiasAdd/ReadVariableOp"
  op: "Identity"
  input: "FCN/input/BiasAdd/ReadVariableOp/resource"
  attr {
    key: "T"
    value {
      type: DT_FLOAT
    }
  }
}
node {
  name: "FCN/input/BiasAdd"
  op: "BiasAdd"
  input: "FCN/input/MatMul"
  input: "FCN/input/BiasAdd/ReadVariableOp"
  attr {
    key: "T"
    value {
      type: DT_FLOAT
    }
  }
  attr {
    key: "data_format"
    value {
      s: "NHWC"
    }
  }
}
node {
  name: "FCN/input/Relu"
  op: "Relu"
  input: "FCN/input/BiasAdd"
  attr {
    key: "T"
    value {
      type: DT_FLOAT
    }
  }
}
node {
  name: "FCN/dropout/Identity"
  op: "Identity"
  input: "FCN/input/Relu"
  attr {
    key: "T"
    value {
      type: DT_FLOAT
    }
  }
}
node {
  name: "FCN/dense/MatMul/ReadVariableOp/resource"
  op: "Const"
  attr {
    key: "dtype"
    value {
      type: DT_FLOAT
    }
  }
  attr {
    key: "value"
    value {
      tensor {
        dtype: DT_FLOAT
        tensor_shape {
          dim {
            size: 64
          }
          dim {
            size: 32
          }
        }
        tensor_content: "o\324o\276-\237>>\271i\323=\353y%\276f\\q\275\002\007\313\275\277\301\030\275c\351\253=\177\375\005\276\302O0\2754\375\026\276\243B\221\276\036C\017\275\3603\237\275\0335\361\276\022\221\213\2768\317F\276%\003\000\274\231\310`\275\363u\003=<Kp\275\355\026\367=\024\353\306\275r\n\357\275)[\254\276\265k\202>T\225\220>6\336\256\275\212+)\273\216\356\037=\370\024z<)\223\375<\322\035J\275\317\037\332=\213\014\013\276[\355\240=\355\2366\275\260\0321>z\207-\276\303P\027>\257P\263\272\266\315s\276S\013\305;!{\361\275C\353!\276\352\022$>\372Ix=d$D\276\222\313\301\274R\346X\276k/E\2743\021\003>M\026p\276/w\245\275\362\'\224=\364\036\257:4\007w\276\252\205\246\274\255D\034\276\260\327*=\203n\252\274\237\016%<\353\205{=\035f]\276\263\014\031\276[[\203\275\200\266\247\275\216\324\034=B}b\276m\356\263\275I\302\347\276y@\305\276\370zv\276\253M\277=\340G\t\276\210,\311=\344\370\322=\322\344\256\275c+\213\274\351W\206=\222\373\013=\365\343\245\276\251\004\003\276\354\200-;\214\247\307\275\225\252\227\2769g\211\275\202\222J>\205\032\021=\310\010`>\315\2259\276\250\353\264\275\3701\266\276\265\303\263\276\243\271\340\276\024\272\t\275\026\220\234\276F\366@\276$\276\241=3\'\263\276\364\321\237\273\3221`=\354\342T\2751\021\250=\226\357D>\261\231\315<\354\0339>d\037\250\276\tOK\274&cZ\275\323\005\247\276\241\251\255\275\241\3015\276\333\252\021\273\276\254\266>\364\301\203\275I\n\216<l$J=\212\235\244\275\216a\305\275\373\017g\276,\214\205=hD\021\275\0243A\276c[n\273\222\310\022=\325\0304\275HC\262;(\221\352=\026<$>\301\2234\276\0215W\276\225{)>\310kk\275\325N\347<\362F3=\254\2663\276\215\000\210=/e\320\275\346h\260=,\rt>\324\236n>\305\214\014>\345P;\276\216\312\014>\306\255E\276\273\313~\276X\261\004=\355\0049\276F\257,\276XX0\275kik>\317H\202\276\232X4\276sm\260\274l\264\274\275z\255N\276;\031\\\276Z71=\230\277 <&r\226<7\3630\276\347\034z\276M\210\205=\251h\335\275p\014N\276*\277\244\276\000:\205\276\346B/>wy\352\273\300\323n\276\306\217*=\217\3553=]\313\241\275\217L!\275\204,\340\275\20612<\347\305F<_F\202>\367]\200\274\376\364%\276 \r\304=\260\242k\275\324~)\276\276\377\004>\267Fw>\027\216^\275\271\243\277\2757T\317=V\271\237=\373\225\330<`1\257;;J\000\276\205\021\221=\2771\304\276\356\212\216>\000\217\356=\337)\311\276\205\304\234\276\241\270\334\276&\310K=\2517s>We\013\276YC\037\276/T\321>\030\004\262\276s5\217>\271q\200\275\220\271\304<\037\204\273=k\332\203\2765u\241\274\'\263M\276-3p\2755a1><\022\033\274\322\234\336=\024\260\302\275m\t\304\276yA\314>\013y\025>\301\236\335\276I5\347\276O\254\300=\314\316b\275\326>\025\276\305*<\275\307\243@=\242\366K=\227\327w\275Cy\355\275_\220\310\273l\323L\276\367|*\274\0322\007=XP3\275\222\026|\275v!\242\275\267\231\016\275\022\t\367<\215\315\237\275\304\343!\276R$\237\276\\\324\t;\227\232\344\274\023\030\034\276\310Z\266\273A\366V=(q+\274\317\243\364\275\216\272\267<\311U\213>\004I\357\275X+\377<%8\354\276\231\256\013>\274P.>\366\327/\276\234s\027\276\200S\212;\372O$>\203\356:>C\357\342=%\331%\276\266f\331<\332?8>\375\236\n\276\033\240#\275\002N\365<\376\277\035=\024\026\021\276k\360s>\214\203\017\276\024\006Y=\341*0\276\0067\'\276`\361Y>\367\233,\276\037\203B>\302T2\275Q/t=[\373V\276m\305\200=.\355\201<+n\347\275\214\311P\276|$\371\274T\024g=\245J/\276`\251x\276x\231\372=\225\361e\276C\210\363=\'\304p;\326\024T\276\212<\000\276\010E_\2730\222\201\275\346D\010\275\365\240(>x\274\333=\271]g<\327\271*>\205r\222\275\030\374\252\275\207K\202;\347\340,\276e\3106=`PK\275\017C\005\276\350\233\325=oP\363=\322\3554;\tl]<j\313\246\275\263\252|=w\210\203\2751\237\220\275\333\207\t\276\337[m\276p\245\016\275\347\255<\275w6{<\014\305\341\275?I\223>\013 j=!\003\004\275u5\335\273e\200\254\275\r\232\350<\tl\251<w\0142\276\301\236\223=\355J\327\274\207O\177<\313\340\315=\017\010\212\275C\260\303\274n\362v<R\355+=9<\271\275\277\344\207\275@\254\352\276\025\377\003\275\244\034\001=\331\237\264;bOb\274\320rG\277L\2063\274@\251\345=~\211h=C\030\232\275\253\214\r\276\204}4>K\007\275=\001J\331\275j1G>\324z(\276\332\2243>\027\000\374=\250tC\275\351R\211={\3535=bR\257=\206\031-=\342\200\344\275\250>\307<\243\242\002\276.:\026\276E\033\023>\216\002\003\276\276\323\031\276\364\362\005>m\210]>k\322\365\275\004P\277\275|\246\212\275/\273_\275d\211\235=.:\255\274\0144\363=\340\306\337=Rt\362\274\321\350\001\276\233uy\276\207?4\276M\352I\2752\224\335\276\322\003\367\275%\004\334\273?\304\216\275\375Y\317\275\343{\007>\033\364\307\275\020\224\016\276H^\237;\265N\032>R\345\351\275Nf\302\276xLc\274C,?\276\\\302/\276c^\017\276\376\177W\275\243\363\014\276{\203\230\276%\370:\276`L\207\276\307Z\263\276\214w\007>\330c+\276\275H\210\275\356S!\275\206w\031>Xls\275>\262\351\276\235\377\033\276\352\255\021\276\211\310\014\2757\252\305\276\371\270\215\274#\321\004\275@\271\315<\370*\010>\341Q:=\221\206s\274\314\207\274=\rN\235\275\344*w\275$\350\203\274\014\211\264\273+\340\016\2767\026\017?:\321\037\274,JK\274\326h0\275\023\254\013=\345\217W=^\306\033\274\266Z\206\275\325\375\376\275C+\004\273N\014\345\275\n\242T\275c\312\023\274\214\306_=\272\200z\274\352\270+\275\373\023\253=\330iv\276J\363@>\223\266L=J8\010\276\310\360o=\212J\032>V\247\264\274`\345x\275\034:\204\276I\262\'>P\223\010=,\214\002<\336\262\202>D\350a\276\325\337(\274\323yr\275\272\256\010>~T\260\275!\304\355\275i\\\014\2767\032I\276Cf\r>\375\244\222=?x\035\275\220\240\224\275\302\311\222\276|\r\354=\362w(>\271\201\210\2755\031s>\236\244\027=\337L\211;\203\337\017>\347\244L>\247\225E\276\236U\251=V\341]>Y\270\362\275\376\230\\\275\035 \002>\224\355\210\274\\\227S>\364=D\276\020\231\004\275\005\264J\276%i\342< \237\n<\254\345A\275z\247\343\274sK\226\274n\250\022\276\014\206D>``\215=F?T\276\325 #>\002\330\t\275\235\010H=\226/p>\302|4\276.o%>\346\305H\276\333\\\322\275\250\3432\275K\375\023\274fU\n\275\365B\307<\026S\224\275?H\375\274\030\031\266<\242\233\367</6\221\273\210\362\243=.\022\327;\326\003\354<\323,\322\275RT$=\030\317\275\274\337$\014\274,\342\013>\246\240f;mM:;\236}\353\2741\257\325:\367ad;\270nI<x\272\262\276\330\377\355\274\323\177c<PR\262\274\tO\327\273r\262D\277\3040\005\273\364\370\022:\221I8=(\217#\275<y/=\327u|\276w\037\215\275\210 \372=\272\257\374=\362\336\007>\204\334?=q\351^>\211\306\362\275\210Kv>f\343\325=\332~\r\276B\360}\276\330~\352\274\324i\261\275\277\236A\276yX\263\274K.\006>p\300\210=_\1771>Y\346&\273\026\0071\276B\004a\276\360\325\320;\214-\013>\356~/=?\266,\276y\377\227=E\343\241\275\225\254\237<\373\241V>\177/\254=\346\237)>\3059\204\276\002]P\275D\211\236\276\254\240\246\275\2157{\276\267v\262\276)\3539\275\263\204\217\276\371\372q>\350*\321\275\216\266~>\201{\262\276uQ\267=\275\264\256=\030\372\240\275\037\032I\276\254R\224\276L\365\032=f7`\276\016\303L\276S\376\236\275\244\265\263=d\337\036>N~\204\276\032\370\265\275[ZU\276\360k\223>\226\"\036\276#=T=YI\240<:\206\225\276\230Ws\276\206\264\257\276\377bV>\242\024\232\276\2056K\275\337\013\254>\253\271\302:S\267H\276\341\004\224>.+\232\274P\240\375\273\227xA\276\304VO\276\326X%<bP\003\276\216E\"\276A\225\007\276\303\373\325<.\243\233\271NH\315=t\365$\276\264\016\3307\3021\224\275g<\370\275\035\235h\276\307|\362\276\\\030\217>\276\334\356\274\272\024\030\276\332\237O=\'\301\310\274P\322F\276qc\304>\306\234a\276\315\256\203\275\214\212\303<m\316\226\276\231I\006\276\373\204\362\274\344 \037\275\036\244\206=G\216=>\037w\354\275\"\267\036\276\324\327C>\227\233\350\275r\342\261>\262\316p>\322x\314\274\213\300\333<[p-\275\030\2142\275\204\033\244<\310r\366\274\356W\231>pH\026<\215\326\306\275\316=#\276;\327\203\276$\256\217=\026\005\272=\203\023*\276E\342\315<&z\347=\374m\022\275\\\236\027\275^X\355\274\301\345\355\274\205\231\322\275\302:\206\275]_\210\274\376\3053\276\"\256\344\275\010\313\360=EK\r\275\260r=<\204\016\033\2745\300\036\276v\010\324\273>o\025\276\367\223\007=+\317\036\276\322\021E\2764+\316<\352.\004\276R}\252\274 \234\245=\243r\236\2740\223\300=Pf\036\275\322\261\257\275D\236\235<X\021\'\276\210\371\343\276\354\344\255\276\256\360s\275\302\332\216\275\361i\224\274\212\021\237=&V\356\274?\310G>[b\227\275m\346f=M\253\203\275.\026\002\276\313\306t\276M\005V\276q\177u\276\206\025|\276\332\251\361=\237q(=\227\205\341\275\226\370\226\275%\017x=\034\0318>\301\026J\276{\376}\275\016,\227\275\323\275V>=\362\200>\211\335?\276\252\230\341<g\246z>\227(!\276\352\234\205=f:\002\275\257N8\276:\372K\276wC\215>\005\326\337\275\034\027\365\275\314T`=)\270v\275On\260=2\026V>Id,>;\025#>\310E\373\275o\223+\275H\004\033\276CJ\253=\370\021\333\274\214\372h>\311Z\032\275z\262\221=]r\216=\243G`\276\361\341f>S\010\021>n\311q\276(*\200>\235\367\302\275~cG>\000\231%=7\2635\276Z\276(=\271\014A>\034\352\270\275\331/\014\276\004\3277\276\2437!\2764J\255\276/3i\2765\250\300\276 J\236\276>\010\251\276\262\t\213=1\321\343\275f\005\205<\223\2246=\376V\206\276\322\344\213\276~L\205=\322\367{;`\361\373\275\257\014D\276\205\321m<\246\276\327\275\255o\242\275e\234\230>X\360l\276\332 N<\037\2409=Y\377)\276\257\200a\276\253\2442>q\3150\276\231\363P\276s\356\314\276\351\357\370<\357\327\013\275\256\304c\276\240\201]\276(\343\264=\304ar\275\227>\006\276\315\236\337\275\327\027\231\276\313\246\213\2762\024d\275b\370l\276\247\\\007\276\241 \r\276c\377\221\275jw\002=v\\\225\273\236+\264\275V&g>\033\353I=U\373Q\276*\334\310\275F\002o\276\225(\265\275B\250\232\274\375\024\241\276\"X\365\274\233\226\230\276*\200e>\234\270\001\276\177\014\252\275\256\241\275\2764R*\276\275\025\212\276\223X\010\276\264t0>\003\013\207\275!k\361\275\244\346I=\363\005M\276:\3602\276\246\221\254\275}\255~\276\327&\212=\257\035r>~\361#\276\261Z\260=u\365\016?;SP\276\001\356#\274\036\356w\276\254\2646\275\007\267\254\276?9\336=fR\227\276\261\201\363\275\272z\276\2767\r\234\275\004\217\343\275)\372\216=\005<\030>\017T\017\276\301\355}>\001i\372\276\274;\025<\"\031\021\277C+\020\276\305m\264\2740q]>\022\'\010\276#\277\256\275\37306>m.\223=\324\264p>\005\346\214\274\373\346\000\275]\323\224\275*K#>4\350\022\276G\227\002>\330No>C*p\274\236+\002\276\305\002*=F]\276\275\254X\002>J\237j\276\326(m\276TV9=\312\301D\274\014v\361\273\330\336x>\000\242\021\276\362&G>\333x\234=\340*5\275X\232\007\276\223\372\207>\27263> \206\035\2764\242V\276\321\025i>\367\rM\276\177\243:=\017y)=\311}J<\001\262.=E\025\344=M\031\245\2759\274/>Q\340\247\276u\230d\275\005\332>\275\264\023\004\276\336\332)>8|+\276\233\342\227\274IT\314<\361U\236>1\314t=\266y\017=[\233\343=T\243y\274Z\000\325\275\326\270\004\274\277\243\236\275za7<\2172>\275\3450`\275\350KA:\374p\016\276E\301o\275\222\205\020\275\216E\240<fm\243\276\306\200@>\300\003\315\275wc?\274\333\265\223\2753\263\265\274\250\234&\276\303Y\243>\352\2717\276B\272F\276\213!\177<\004\267\234\276E8\032\275\025\326\212\275\257\347\203\276\256\002\356\2751\252\216\276\352\343\213\275\303\035\r\276 \324r=>\325`;;?\003\277lg\221=\324\300B\275\017\020\375=\227\032\t\276\347N\264=\2172\n\276k \r=\200R?\276\354w\242\274\033\232W\275\276\322\230\274\035\306\255\274kn \276\027\323&\275I\036\272\274~1r=!\214&>\\\271\213\275sx\027>\375?\205\276\226\237\325\276\250\252\212=\275M\030\2765\214\204<\361\236S\276\200\311>9\303\253<\275\252-\371=\031\321\214\275\214\336\031?\"\214\355=3|\217=\351\276\326<\317\377\352\274\355[\220\275\314\321\223\276\226L\205<\252\325\236\276c\035\225<d/?\276Xry\275[\345-=:\301\232\275\345\214\205\2751\350\177>I\352\304\276`\302k>\252\\0\276\316\234i\274\265Z\260\275\315\337\266\276\3229p=\371\007\354\274Qj\304\275\252\000\371\275T\302\270=\014`g=X\251\233=\377\274\337:\264s\'\276\277l\271\275/cI=\342P>\275\243\377$\276\214\332\242\275zP\241>\001\312E=\007;\247>V\336\020\274\003d?<\003\200@\274\332\267\201\275\326\\\200\2763b\r\276\222\005\303=\210-\244\276\242n\274\276l\325\006\277\030\026\206\276\007f\255\276)\252\013=\0303\322\276E\263\310=\241\311@\276`\177\302\276y\250\\=\326j\026\275k\265\245>\314\205\224\276\203\317\336\276\215\274\311=\276\353\334\275\226&\350\276\002\324\330>{\226\324>\233\210\315=\200F\232\276q\2675\276W\020s=\347\356\001\276e\334\224\276\370rI\276\346\243\222>\204\222\317\276;?\022>yx*>\200\016\254=\202X\273<\212\202\027>\205\322\033=i\374L\276\263\362y\276\307\233\t\274\317\334~\276\027\014!\276\017\355\314\275T[e\276(4\333\275L\347\000>\206\222\331=\037C\373\274\225\037P>;\222\314\275a\354\223=\231\230\020\276>\240\261\275x9\213;9`\213\2768\312\016\276\235\267t\276sN\327\276\207kX\275\366\034p>W\007<>\374\017&>y\201\014\276\350f7=\017\336\211>}Z\034\276\335\352\204>3\303\261>\001\354\222=\237\3572>\323J\245=\241\367\252=_\224\246>\240R\305\275\332\n\225\275\274`\315=\252\352\235\276\323\035\014>\346v)<F6J>\2153g>\314\245n\276\tc\311\275(S\252>\333Q\t\276\247\n\035>@-\267\275\201\032\334\274#\211\277>\273\350\271\275\344\320\245\275\004\335L\276\004\300\221\275\007\3435=f\254\354\274\213\030G\275\314h*=\2567j\276\n\350\301\274\220\315\321=Y\301\364=\267\227Z\275mD\232<\200o\020\277H~W\276&\246\003\275\213.\314\275P&\321\274\223`\331\275&\215s\2768\216\010=\307\346A\275z]B\276?\356\256=oC\360=\263\251\002\275@\006B>m\'\013\276\257iY\276B\347R=\317\252\224;\0327\232\275H:\t\274\222\231\254\274\313&1\275\325\2307\273&2\032\276\263\016S\276\022#z\2755\265K\276\032\\S>m\261\n>@\010\017>\253F\004>\366\360?\274N\252\206\274aKF>\371\3037\276<\372T\276W@\233\275bf\205\275?\244\000\276l\177\014>}\321\016\274\222\024l\2752\313\032\276m[\010\276W\327\312\274\306\372\013=\321(\343\273\334\212\006<\207&?\275\365\262O\273\177\305Y\275\002?\036\275^\024\243\273\221,\257;K\002\200\276\342\345\354\275Kd\024?\271\255\313<\313i\317\276\340k\305<Fiz\274<}\036>3>Y\275\257J\246<a\255.\274\356U`\274\305\006\304\276_\342\013\275nZ\235\273\315\203(\274\242\010\212\274\245x\006\275\257\261\314\272\n\352\260=\376\300\266\274\375[H\276a\016\027\275S\243]\274\036\303\301\274\272\2625\275\022\364\214\2747\035\300\2745g\301\274:\235\342\273\014\344\361\274\030f\245:<\350\207\275\371W\006>\224R4>\352\214d>\342q\316=s\322\256\275%H\247\275\327\210\374\275\023\255Z>T\350\304=y\001V=Y(\026>\312\tL\276\244\353\365\275I\014\014>\336[n>\016\213\277=5y\260\275\323t)\276\032\026\351\275\275\302\214\275e\212C<\222A\034;=\374I\270\250F\342<\356.\325=\031Yl\275/Xv\276\202d\337\275\201\276\244\275\304S\263\275\206\253\372=)rj>\"\313\213\275\325\256~\276\017&%\276\016\033\242\275\025\025n\2759\262\337\274\036o{>5)\221;*\205+=8\031\370\274\036*i>km\265\275%S\201\275\031\262V\276k2%\276\004\243\001\274\276\252|\275\374\'k>\261L\200\276%_\341\275\224\036\r\274f\002\275\2756\n\337\275\022\342h\275\236\352`\276\302+~>\276mD=\016e\177\276\0200\000\276\210\240\010\276\246\261\321=\001\264\336\275\321\312\355:\252\003G<\247\263b\275\203\006{>\265\023\371\275\026X\225\276\025\0035\276\016,\235\276.\373\304\275k\205\364\276\022\266S\275\031\204\251=\211\356\220\275?IM\275\241?\236>\361\230[=K\202\254\275C-\233\276r\243h=\377\201&\276\010\270\345\275\004\222\226\276\314\236\333\275\033\217\272>(\220\\>\210\224\003>V\2264\276`#\267>\017\306\207\276iE_=n#\246\276J\375\264>\007\n\334=g\025\252=\261\024\003=\336\257.<\277-X\276\232\220\026\272\320\013,=\344\300\t\276\222#\035\276\203\310\204=\363\256)=\340\033\277=R:\264<\327\364\272<\247\204\373=\014\232\270=p\353\221=g\332\235=\n\306\037\275E;\236=\370\202\316=H\2327\276*\216\376=\003\230\023>\177\273n\275\221\354J\275e\357\324<\324\310\326=\334$^\276\227Sb\275~\211\235<P\032\223=\213\301m>\347\036O\275\350\351\014>K\205\036>\000\005\005=\373\352/\276\271B\030\276Z@\251=\351=D\276\221\003\334<\211\306]>\302\370K>\316\272s\276\262#\r>\320\3332>\354\000\343=\231\207\377=\254\036>\276\267}\013>\371\0202\276\266QE\276Z\362_>t\010_\275\256l\251=\326R\254=I]\036\274\003\005J\276\216.\016\276\310\342/\276\034\213\">\350v\010\276\244\033\001=\343\323\307\276\253\235\353=\206\300\321<Vc\251\276@\201\267\276\274*\256<B]\271>i\304\213>\251\360\230=\267\004\"\275v\234\033>]\224\321\275`\272\"\276\314\331C\276\205m\333\276g\326\231\275?`\305=\0251\304>QM^\276~\341\367>NU\240\275\034?\003\276\362\260*\276\201\350\246\276\204\306\253\276\311\261\373\2746\037\234\275\334u\026\275\262\274U\276\264F\001\275CO3<V:\277\276\264\334e>\000\3574=\340W\352\275p\204\265=P2\263\275\310LG\276h\2669\276\350\304\357=\300\006d>\240\364\315\275\234:y\276@\365\231\274(<2\276 \242\023= \027\316\275\020\2440>\030\211\'\276\214Mb\276\034z\001\2768:\252\275\004\367\022>(\274\234\275\204\263P>\310\344\376\275\260\276]\276\000\324\252\274X\347\230=\360\367N=\000\210B>`n>>\244\335O> -V>\236\314U\275\311k\364\275\323k\212\275\237\007\372<\360\321:\272\334iZ\276\245]\203\276\003\203d\275p\230\003\276zo\205\275\277\236e=7\013\331;[\333\303\275Z\1770\275\014l2>k\037\031\275\313\246a\276\035+K\277\023\326\371<^\237\261\276q\370\036\276\306\346-;\266\335J=&\235y\276qig\274\313H\323\275^\3622\276%\214\013=\232+s\275\202\220\017>\233n\257<Rb\223<\003\214_>\310Z\206\274[WC\2761\215H\276\261[k\276;7\247\276i\032\033\276\020\215\247\276\220}\251\276\312u\'=\271\nc\275k\340U\276f\244/<\213*\220>\234+\324=\375\357!<\237\3009\276\237\ro>5f\214\276pa\230\276c\267H\276\357\'r>\247\370\003=\247\204\223\275\304`H=\263Q\242\275B\334^\2763Fr>E\365\227\275\373\347T\276\200\257\257=\214\026\037>\021\275\304=\235o \276\264\255\221\275\247\033\346\275Y\371>\273x\341\266\274v\376-=\355s\034\276a\332\355=\214\352M\276\'\371.\276r\300\346=Ws\225=\232L>>}\3327>\364_@>\200\'\007\275\343\0324;\313\270&<\270\300B\276\327[\016>\016!\346\275:\366\016\276\023A!>\312\001\005>sz6\276\222U\333=P]L>T\375Y>\240\372\006>\247;\251=\345\256f\276\355\374T>\342\370\r=F\306p;\0230\177;\276r\246\275\232\025\213\274x\377\"\275})\247\274\210&\013\276W\205\342\274\322]P=\331B<\274e\217\203\275\341R\225;d\014\372\274\322}8\276X\241\325\273\227o\034\2759&\276\274\223\322\225\275\360\226\377<\247/\313\275\270\344\267\275\317H\030=e\276g\274N\273\202\275\202\334\023<\017v\'<\241\357\367\275\316s\016\276\035\242\315\276\266\302\221>\'\017:\275\225\225\257>\027G\254\274Xb\014\277\304\220\220\275\\\035N=?B\301>\262\301\214>X\004\252;\222\211\025=\036?*\275\254\034C\276\373\325;\274a\230\362=\252\245\017\276\360\3017>\017t\026>}+\367\275\215\326d\275\266q/>S\356\364\274\014\016(>\351\373\274\275\217\240L\276\237t \277f\365\210\276w\0228\276]\253<\276\026i\027\276\202\'*\274\325Z\020\276\337L\272<\253\317G\276\333\336\235=\271~\326\275\030\306\'\273\022O\013>\256\n0>=\003:\276\273\225?>\377\247\023\273?\263\277\275P\256^>Y\312U\275\274f\307<\021S\200=!\260\033>\333\363g\276\327F,\276\210\240\031\275\212\244D>\254\\A\276\315\0269\276l3\246\274\230.\361=3:[;\030t\010<f\310y\276T\346\014>h :>2\371t=/e\233\275\215\374W\276\024&t\275;0\317=\032W\212<\2457R\276_6\244=\200\326\223>S\252\204=\030\353\275=,\370\250\276\274*\361:\227\206\255>\362H\326\275Vd\034\275\253\234\013>\205\330`\275\000\3547>\034\255\217\275\004\365\t;l\345\004;\346\023\257\276\2166\210\274GV\314\275\340\362\216\275<X\300<\345\253\242=\017Au=_\263\222=\020u\307\275Qz\371\275\357O\317\275\035\316O=\033\030b\274`d\211\276\266\3704\276.\2756>g\267A?&\004\020\2759\3228\275\201\274\361\275\244\320\255\275\3312\277\275\220V\352\275\236B4\276\366\245\303>+;\207\276\020\374\210\276\260f\272\275\026\3532\276\222\364)\276*\221I\275y\374\247\275\020\313\352\275\335;Y>\275m >\325\032\304\2742\356W\276w\365Q\273\315\245}\276\016K\241\276\310\273\342\275y@\202\276\312\020J>\035\315E>\003\264:\276\004\251H\273\020\242\200\275wY\333\275&\323\r\274\351P\r\277\215\300Y:;\205B\275\210\302\357\270\020\372\026\276\214\004|=\336\277\n\276}k\r=\330\307\231\275\331\r7\275\322\211t\274\240\315&\276\221\230\346\274,\313$\275{(\213\276\037\360\334\275\230-\202=n3R\276\311Ln\275\014\216:\276\243W\330\276\203N)\276\223T\000\274b\315\252=\361Td\275ky\314=\013\001\355\275\306\256\210=\241\302\311=\244\273\242\274\224\361\230\275\027\210\362<\356\002U=\177\242\311=\377\277\222\275h=\032\276@\037v\276O\323\206\276\033o\360>0\376\014<\322\344r:\231\021T=\326\372\005\276`\325\210>\345\354\261\276\026\226\t\273\2627\277\275\2049\230=k\031\232\275\377\241Z\276\017\2523\276\014\244 \2763<b>hCf=\341\337M\275\230l\231\276\211\265\375<\2321H\275\376\'\304=\313]\221\276\345A\313\275\271T\035?k\257\207\275\220}\220\275O:6>\366\272\220<G\244\264\275\036c\"\276Ui\302\275+\330;\276\211^\363<\337Z\336\275}G\241=\010\362\234=\211XG>\254\271\237>\272\260\211\276\270\220\005>L\333|\276;\244\361\276\256\336\323=\273\307Q\276\355\033}\276A\275\353\275>\302\245> \356\005\273\303\014:\275\365\r\310\274\270A\024=\t\267\206\276\304\365\271<\300\374\300\276u:P>\371@\026>\211#\265\273\325\331\271<7\225\202>\320\244\372\275\211\312\222\276\341\366\207\276\222\331\276\275\034Y\016\276k7\035<\204\024g\276\026<3\276\360,\214\276\333d\363;\216`\240\276WP\016=\222\000\235\276\342\033\341\276\305\037%>\305\232\333\276\222\"\247=\001\276\336=\014\327\006>\253X~\276\r\306\227\276\227nr>\264~\213\276A>}=\177G\370\274\304,\010<\014\242z=\032\374;>\337\024\206>\035\310\002\276x\007\252\275\021\345\354=\256\205\217\275\240\325\271\276\354X\364\276\266\365\305<\177z\252\276\377\267\035\275\006\277\222\275B\371\265=\036\363\033?\331\233\004:\016i\213\275\211\377\212=\243\370\262\276\244\224\235\276\361\201\240\273P\260\376\276\210\331.\276\266m\312\2760(\331\273\252\006\214\275=\343-=\323\250r\276\353\021L\276\230\361\224\274\007\375\177\276\031O\023\275p\301\204<r\366\341>\340\253i>\213\270\003\275\224\330\245=\370\300,>\304\353z>\354s\341\275\204+\242=\003De\276\331\000t>b7\317\275\351p\212=\360>\243=8\345K\276(\236s>_\231j\276\360.7=\030\325\261=\276\343Y>n\003e\275\322\274\347=X\r[\276\226\332\302\271C\002\251=\371]9\275\000&\000\276\226\023W>\356j\032\276\253\035H>[\234\023\276\333S\311\274\277\230b\272,\317\277\275\0375\213\275\364\014G<\345W\"<3\324J=\216\224\242\273%3a\275\322i\010\276\227\t\257\275\366\363R\276\332B\324\274[\374<\274\247\226\262=p\024\213>c%\217\274!\327\350=\205\253U\274\310\276\300<T\377O<\244\324\221\275e\260W\276C\315\r\275,>\247\276\204~E\274\345\362\256\274\375M\302<\272\340\030\276\210\325\237\274\034\364\027\275\373k$\276\336\351p\275\230E\214\276\360i\305:>L{\275P\'I<\274N3\275\236F\326\276r\322@\276y\177\217=| \264\275\252\267\031<~w@\275\236\354\354\274\342\255\023\275*\214o\276\321\263K;\235\005\221>1g\261\275Mno=\320\364\342\274B\336\242;\2129\312\275\356Q\033=oc\232\275p\370\315=\267{\362\275qO\265\274y\332\237\275\327D \274\364\302\235=&\334\025\276\026*.\275\324l\244;n\206J<=\322s;\321y\303=\025\252\036\276>\202X\276s\250\307\275E\005o\276W\374\352\274?\207\355=3x\035\272\013\204\233=\032\2502>\357\306=>\010w\364=rkG>i\335t\276\325S\271=vMu\276$\001\021>\246\323\003=N&/>0\325\330\275\217rQ=oa\202\275\362\t9>`\364\004>%w/>\035<\002\273\230#=<\222\351&\276\215\2638\276rOl>rD\033\276\264\2063>h\216v>\313\220\354\274\212\004\363\275\013\267\260\271\227j\235=\276\377B=\006\030\004>O\t\267=F\017\201=\007L\316=m.@<\2245S\276\224/\203>\0334\200=\237;\303\275\034rq\275o\303+\276\213\231V>\244\241A\276\347\213\240\275\364\243Z>\025\\F=\321\272a>1\320\200\273t =\275\307\260\022\276^\260\203\276\276hk>G\237\210\275)\216\242=\221\250\204\276\221\006=>L\302\225>r\351\253\274}`\210\275\365\304\221=\236\324C\2761dm\276\351\215\267\275\266Hf\276J_\237<\330X\316\275`\367\036\276\226\246\266=\330\242\222\275\256\202\272\276\256\304\244>a.+\276L\260\211\275H\360D\276\\\354\233>;f\263\2767\t\374\275\301\344 \276\227%\202\275\376\336K>\017c\032>\255\351\037>\353j2\276;\201\264\275\017\032\306\276\362\3208\273\302\375\001\277\006\211\271\274"
      }
    }
  }
}
node {
  name: "FCN/dense/MatMul/ReadVariableOp"
  op: "Identity"
  input: "FCN/dense/MatMul/ReadVariableOp/resource"
  attr {
    key: "T"
    value {
      type: DT_FLOAT
    }
  }
}
node {
  name: "FCN/dense/MatMul"
  op: "MatMul"
  input: "FCN/dropout/Identity"
  input: "FCN/dense/MatMul/ReadVariableOp"
  attr {
    key: "T"
    value {
      type: DT_FLOAT
    }
  }
  attr {
    key: "transpose_a"
    value {
      b: false
    }
  }
  attr {
    key: "transpose_b"
    value {
      b: false
    }
  }
}
node {
  name: "FCN/dense/BiasAdd/ReadVariableOp/resource"
  op: "Const"
  attr {
    key: "dtype"
    value {
      type: DT_FLOAT
    }
  }
  attr {
    key: "value"
    value {
      tensor {
        dtype: DT_FLOAT
        tensor_shape {
          dim {
            size: 32
          }
        }
        tensor_content: "5\271\360;\255\273\005\276\305\240\355=\026\236\267\275\017\313\366\274\222_\257\275\'\306\274\274\355xw=Z\216\236\275F\226\257=.h\326;\000\021\271=]S\212=\212\262J\274,e\214>\251\257\352\275AB\t\277G\263M=\260\241\n\277\310\372^\275\3379\022\276i\376\301=\025@y\276\325\261\223>\226\271A\273\217&\271\276\254\261\347<\373\315\325\274\245=\213=\334\034\332<\341B\334=\371|0\274"
      }
    }
  }
}
node {
  name: "FCN/dense/BiasAdd/ReadVariableOp"
  op: "Identity"
  input: "FCN/dense/BiasAdd/ReadVariableOp/resource"
  attr {
    key: "T"
    value {
      type: DT_FLOAT
    }
  }
}
node {
  name: "FCN/dense/BiasAdd"
  op: "BiasAdd"
  input: "FCN/dense/MatMul"
  input: "FCN/dense/BiasAdd/ReadVariableOp"
  attr {
    key: "T"
    value {
      type: DT_FLOAT
    }
  }
  attr {
    key: "data_format"
    value {
      s: "NHWC"
    }
  }
}
node {
  name: "FCN/dense/Relu"
  op: "Relu"
  input: "FCN/dense/BiasAdd"
  attr {
    key: "T"
    value {
      type: DT_FLOAT
    }
  }
}
node {
  name: "FCN/dropout_1/Identity"
  op: "Identity"
  input: "FCN/dense/Relu"
  attr {
    key: "T"
    value {
      type: DT_FLOAT
    }
  }
}
node {
  name: "FCN/dense_1/MatMul/ReadVariableOp/resource"
  op: "Const"
  attr {
    key: "dtype"
    value {
      type: DT_FLOAT
    }
  }
  attr {
    key: "value"
    value {
      tensor {
        dtype: DT_FLOAT
        tensor_shape {
          dim {
            size: 32
          }
          dim {
            size: 16
          }
        }
        tensor_content: "\301/\307\276\036\260\254\276\225&H\276\367H\021\276\203\3148>%FT\276t\021c>\212\211w\276\3366\014=nI\327\276\354\275\347=\342\340\007\277\337~\036\276\363\270\236=S|\036>\005\324\367;\027\305\301=\243 \252\274k\226\372;\177\266\244\276oH\001\276\357e@>f\0141\276\323TF>n\310\323\2746$z={\302\242\276:\330S>9\3462>\21400\276\321\264\036\276\353\257\006>\273\361\201=\360S\214<=\210\026=\2661h\276{\312\241\276\356fB>btx\276V2=\276\263</=\204\266x\274n\022\362\276\014z\374=6\306\355=J\014\373\276lm\227\276\374\263{\275\3430\360=7\361\001>s\366,\276\324\326\341\275\274\000)?\235\n\020<\253`E?<\027j\275\363:\002=\330r;>E:\326>=t+>k\004\320\276\224K\372>\037\017Y>\022\211\216\276\037\372\225>\334t\007>\032mM=T\204\"\275y\361\024\276s&\261=\017\263\204\276\025\377\331>\333\311\232\275\243<\322=+\200\337=\200xH>\365\215\253=\r|\256\276\247\263\253\276\327\364\206>a\202a>\004\347\245\275\224~\272\275j\237\211\276\020\325e\276\234\375\242>\0272\003>\\\333\031>{\213T\275\035kQ=\225\3044\275\2131\253>\301\201\250>\323\014\263\275\242L\210\275\264D\032?\356\033\341>\205\007)=\216\332|\274\204\264\023\276\321z\251\275\032\r\345>\335\341w\276!|L>\344\356Q=\235+\236>\210vH\276\302\006\263=\206\020\366>\263\251\356\276\307\321\220\276s\222\034>=\265\t?\335&r<:y\372\273\357\021V\276\225\305w\275iuc>\222\237z\276k\366\350=*\337@:\320\336\355=_\347\330=\343\335\254>F8\375>\344\372^\276fu\245\274\254_C\276M\334\220>\212\271\303=j\3304=\273\002\213\275\354H\232\276k o>\334I\266=9\270\213>,:\353<\177Y\336=\257]\201\276x9\032>\364\266|>#S\312\275\001X\000\276\000\263\222\276\224\377U\275\004f\225\276w\376\273\276\241k\224=\003\022\n>\350\271\005\276\345B\314=S{\246\275D\263\323\276R[f\276\342\313\\;\031\371\330\274+\363\334\274\223\326C\275\324\247\236\276=\241\246\276ja\036>}\261O\274\004K\255<\322\324\035\276\230L\261\275\252*\367=&t\222\276^bP>\252\203\013<\351L\033=N.g\276\036\000\373=}<\013>\030%\326\276\035;>\276\253H\243\275/\321\005\276\233\334\305\275N\326\215>\221\371\323=\026x\216>\344v\365\275;\323Y>7w\204\2740\212\207>\2413\006\275\351\346\246>\332\336G\276X\337\364\276\034Z\006>\303jv>ZcI\276(o\212\2753\201\313\276\2241\021\277(`\021>ei\336\275\n\303\036\276]\214\210;yR,\276\246\037\333\276l\360\207\276t\354*>\267\247/\275\334\321\315\274\002\216!>u\257\021\276#\nF\276\006\037$\276\001\366\227>\366\236Z>\233\252^>\351\2320\274\022\307x<\352Zf\275\352%+\274\367\035H>B\363!>\245\267\005\276A\232\003>\035l\217>c\006\355=\261\234\212=\334AQ\276\317[\'\275\037s\261\276\t\304\344\276b\263b\276\242\223g>\270L\033\275\373D&\275\274\323\264\275u\367A\277A\370\275\276\212\201\247=2\342\221\275\022d.\275\270\346\227\274\n\254\202\276u\232\231\2760\364\226\276\226]\254=\225\004\302>:[\010\276\037\246\227=\263h@=\267\023\301<0\362\"\276\324\257\243>>O*>\003\221\250\276\253&\036\276\241\312\223\276\364\204\364=#\007\255>\344\023\242>\2178\256>\211;\324>I\202\370=\244\237r>\\\344\265\275\014\260\300>\001(\237\276s:\276=\305\246\240=7\3407>}\271n\274\341\272:>\320\271\216>\333\324\251\276\300NS\276\373\343|\276r\352\237>\321}\232>\005~\345>\000\020.=Y\315\366=\222\264\003?j+y\276\231\001\213><yi>\354\030\354=\231-\246\2759`b>^y\357>\245\304\263\275\233\316\211\275\306\257\307=\345\027\330\275\345\343\223>\255:\347\272\304\002\023\276\213\204\265\276Y\225\210>/\320P\276\325\033\022\275\267\036\376\275\257\000\323>\010N\245\276]\213\342>\333 \235>\215\354\355\276\0001\020\276\315o\177\276\334\341k>\010\013\254=l\252C=\272=\243\276c\301\375\275\223\026\324>\236\256\315\276\023\204\270>\373\3229=UG\240=\202\222\n\276\330\332\317>\240\356\212>H\324\305\276\224A\342=\274!\277\276\3269\303\275\274\253?>\266\207\251\276\272\203\210>\271\345z\276\352\341\017>]\035\020\276\207\361w=\237\331\277=\034\211\250\276QB\221>\244_\251>\332ON>{\321\220=\256\214\214>~c\216\276\262\227\370>\013\221\212\274i\253b\275\350\374\205>\200<\254;8k\275>\224]\217=\346[\244>\215,\252\275\363\363\254\274\256\267p>\343\223\376>\230\277^>\244Q\205<\317\303d>P\212\351>\216\372\305\274\324\357\301\276\227\017^\276\013\177\305\275\252[\014>\217\305B\276\205\037\247=+@\243\276\221\003\373\276\267\310\373\276VT >\210\272\310\276\315i\021\276/\261\025>\004\236\347\275\273\361\366\275\220QO\275\222n\236\276p\354\322\276(\203\035\276\013\010\361\275\243Q\375\274\200\363\355=\364\357\002\276\357\257\022\277\264<\014\276,\177\230<\010\257D\275\357\017\301\274\312\2703=\016/i\276\213\021=\276\364S\230\2760g\214\276\204A\271\276\254q\217>#\'\360>\036\027\351\275A\256\335>\366/\264\276$t\225=\030\256\026\275\032\317\006>\177\306\370\276\352\256M\276\214\360\201>\233]q>\266F\271\2751\266\320\276\r\245\177>m\346M=\327%M>O\211\233\276\321b9\276qq4\276\243j\266>\035\366$>\023\t\340\275Z\346\320\276\003\370\316=\217\373\342<\006-r\2762>\261\276|\177S>\030\022\241>\330\230X=\\lA=\016\332r>\263\363\037\276\314\206\213>\246\351\354\276\336l\321=U\200\255<\177\315\274<\260\034\303\276^\023\021>[\352&>\213\300)\276\275\324\344\274\223\306]\276\244&K\276UN\225\276\023\261\017\277\250\3165>\337\021\263>\365\340\354\276\361.\206>H\216\332\276!\034\331\276\032wy\276\334\315\215>\265<\302\276\301CX\276e;\005>\000\335C\276w\241\321\275\215\230\254=TZ\245>\363\237\033>\215u\250\275\343j\235>w\224\211>\tXN=\232\230/>\014\331\321>\226\216\026>pJ\215\2765\003$>\363\306\273>.n\330>/\3747>\310\363\177>A\'2=K\345\031=C\243\221=~V\r>\271\3349\274Pc\210>\201\342\007\276QX]\275Ff\321<W\367C>\303Q\264\276\361i\001=f\366\333\274\312?\365\276,)l>\352r\256;\027\335\266>\375\215\026>\013\237\206>r\250E>\252G\267\276\333\327\312>\247\232\023\275\356\022\243=M\262\025>7w(>\226\220\223\275\254\320}>\243u\340>O \261\276\222\370\267=r\374\362\275=\266\347\275\006\363\267\276|\233\033\277+\365\202\276\350\362i<\236\276 \275&=\003\274\340\0236\276uM\004\277\345%\311\276\315\002\354=-\234\317\275\310i.\275\342\323i=\224\203\231\276\354\024\037\276"
      }
    }
  }
}
node {
  name: "FCN/dense_1/MatMul/ReadVariableOp"
  op: "Identity"
  input: "FCN/dense_1/MatMul/ReadVariableOp/resource"
  attr {
    key: "T"
    value {
      type: DT_FLOAT
    }
  }
}
node {
  name: "FCN/dense_1/MatMul"
  op: "MatMul"
  input: "FCN/dropout_1/Identity"
  input: "FCN/dense_1/MatMul/ReadVariableOp"
  attr {
    key: "T"
    value {
      type: DT_FLOAT
    }
  }
  attr {
    key: "transpose_a"
    value {
      b: false
    }
  }
  attr {
    key: "transpose_b"
    value {
      b: false
    }
  }
}
node {
  name: "FCN/dense_1/BiasAdd/ReadVariableOp/resource"
  op: "Const"
  attr {
    key: "dtype"
    value {
      type: DT_FLOAT
    }
  }
  attr {
    key: "value"
    value {
      tensor {
        dtype: DT_FLOAT
        tensor_shape {
          dim {
            size: 16
          }
        }
        tensor_content: "w\336\320=5h\331<=\205c=\340\357\237\276\233R\314\274\302X\014=\221\026\213\274\r\031\234=&`\202=\21505=,\210B\275:\374P=\346\"\267=\274(\350\273\204#W\276\256]9="
      }
    }
  }
}
node {
  name: "FCN/dense_1/BiasAdd/ReadVariableOp"
  op: "Identity"
  input: "FCN/dense_1/BiasAdd/ReadVariableOp/resource"
  attr {
    key: "T"
    value {
      type: DT_FLOAT
    }
  }
}
node {
  name: "FCN/dense_1/BiasAdd"
  op: "BiasAdd"
  input: "FCN/dense_1/MatMul"
  input: "FCN/dense_1/BiasAdd/ReadVariableOp"
  attr {
    key: "T"
    value {
      type: DT_FLOAT
    }
  }
  attr {
    key: "data_format"
    value {
      s: "NHWC"
    }
  }
}
node {
  name: "FCN/dense_1/Relu"
  op: "Relu"
  input: "FCN/dense_1/BiasAdd"
  attr {
    key: "T"
    value {
      type: DT_FLOAT
    }
  }
}
node {
  name: "FCN/dropout_2/Identity"
  op: "Identity"
  input: "FCN/dense_1/Relu"
  attr {
    key: "T"
    value {
      type: DT_FLOAT
    }
  }
}
node {
  name: "FCN/dense_2/MatMul/ReadVariableOp/resource"
  op: "Const"
  attr {
    key: "dtype"
    value {
      type: DT_FLOAT
    }
  }
  attr {
    key: "value"
    value {
      tensor {
        dtype: DT_FLOAT
        tensor_shape {
          dim {
            size: 16
          }
          dim {
            size: 8
          }
        }
        tensor_content: "\306\'\357\275\271\342\211=\004\331[\277\337\303\016\277\317Y\361\275\315qF=\315\t3=\357sY=+\276\004\277u:,?\263s\350=Tq\250\275\010<\343\2766\002m>\216\022\233>JB\n?\016&\313\276y\306\345>\2254\264\274\0011\337\276z\246(\276\227\324!?\333m\333><N\373>\200\013\227>4\r\\>\261\335\242\2762pi\276J3\301\276\310 \265\276\224\330\321\276\320\016\220\275\275\306\242>fd\202\276\252\3354>\010\230\321>\361\266\276>\350\207\204\276\223\276\026\277\254\016\370\2766\223_\276\313\245v=Mca\277i\375!\277[\330F\276v\252\303=\275\222H=]\260T=\244\347\257>\217K\224\276\3059K>\220&\265>\350V\373>x2\331\276\2428\275\276\024\035\374\276\263K\362\276\014\232\271=\361J\030\277\022:\271\276\000\036\\\276\257]\213>\367\313\245=\266u\237=\220z\034\275\021\2037?\207\222\216\276u\265\227=b\202\337\276\243\325\005?\342\034\n?\361E\016?\006\235\035\277\204\340\213>\237n{=\014\3530\276\377\t7\277q\304\327>\205\001\211>\217\337\223=\351B\256>\206\243%\276\311+R>h\254\327>\230\361\347>]e\233\276@\263k\276\2753\276\276s\000\214\276#\247\235=}yi\277\321\230\013\2779\350=\276d0\233=\340\007a=\n<O=\305\373\036\276\361\372\\=\303`f\277\206\260\376\2762?\014\276\205\r\210=\300/,=\325\204N=104?\030\215\025\276\357k\316>n\252\322>\334\211=?&\330\005\277X\362\227\276MTZ\276M\270\307\276A\033A\276\345\010\360\276\221F\356>\205\307\202\276\3034\351\276\207\031\020\276B\377\361\276\\\312\333\276\340\007\371>6-\202\276b\231\204\276V\030\341\276\246L\272>\032\361\215>\030\254\372>"
      }
    }
  }
}
node {
  name: "FCN/dense_2/MatMul/ReadVariableOp"
  op: "Identity"
  input: "FCN/dense_2/MatMul/ReadVariableOp/resource"
  attr {
    key: "T"
    value {
      type: DT_FLOAT
    }
  }
}
node {
  name: "FCN/dense_2/MatMul"
  op: "MatMul"
  input: "FCN/dropout_2/Identity"
  input: "FCN/dense_2/MatMul/ReadVariableOp"
  attr {
    key: "T"
    value {
      type: DT_FLOAT
    }
  }
  attr {
    key: "transpose_a"
    value {
      b: false
    }
  }
  attr {
    key: "transpose_b"
    value {
      b: false
    }
  }
}
node {
  name: "FCN/dense_2/BiasAdd/ReadVariableOp/resource"
  op: "Const"
  attr {
    key: "dtype"
    value {
      type: DT_FLOAT
    }
  }
  attr {
    key: "value"
    value {
      tensor {
        dtype: DT_FLOAT
        tensor_shape {
          dim {
            size: 8
          }
        }
        tensor_content: "\0137\257>R3\363<\302\201\215>j\017\320>\376!\303>\2070I=\356\245\031=\241\203*="
      }
    }
  }
}
node {
  name: "FCN/dense_2/BiasAdd/ReadVariableOp"
  op: "Identity"
  input: "FCN/dense_2/BiasAdd/ReadVariableOp/resource"
  attr {
    key: "T"
    value {
      type: DT_FLOAT
    }
  }
}
node {
  name: "FCN/dense_2/BiasAdd"
  op: "BiasAdd"
  input: "FCN/dense_2/MatMul"
  input: "FCN/dense_2/BiasAdd/ReadVariableOp"
  attr {
    key: "T"
    value {
      type: DT_FLOAT
    }
  }
  attr {
    key: "data_format"
    value {
      s: "NHWC"
    }
  }
}
node {
  name: "FCN/dense_2/Relu"
  op: "Relu"
  input: "FCN/dense_2/BiasAdd"
  attr {
    key: "T"
    value {
      type: DT_FLOAT
    }
  }
}
node {
  name: "FCN/dropout_3/Identity"
  op: "Identity"
  input: "FCN/dense_2/Relu"
  attr {
    key: "T"
    value {
      type: DT_FLOAT
    }
  }
}
node {
  name: "FCN/output/MatMul/ReadVariableOp/resource"
  op: "Const"
  attr {
    key: "dtype"
    value {
      type: DT_FLOAT
    }
  }
  attr {
    key: "value"
    value {
      tensor {
        dtype: DT_FLOAT
        tensor_shape {
          dim {
            size: 8
          }
          dim {
            size: 2
          }
        }
        tensor_content: "\343hr\277\363\030T?\212\3467?~Y\263\276d\267\235\277^\240\263?\223c\245\276\312>\251?\217\276s\277`\320\005?.\357\177\273\t\200u\277\246\365F?g<\037\277\212\326<?a/\035\277"
      }
    }
  }
}
node {
  name: "FCN/output/MatMul/ReadVariableOp"
  op: "Identity"
  input: "FCN/output/MatMul/ReadVariableOp/resource"
  attr {
    key: "T"
    value {
      type: DT_FLOAT
    }
  }
}
node {
  name: "FCN/output/MatMul"
  op: "MatMul"
  input: "FCN/dropout_3/Identity"
  input: "FCN/output/MatMul/ReadVariableOp"
  attr {
    key: "T"
    value {
      type: DT_FLOAT
    }
  }
  attr {
    key: "transpose_a"
    value {
      b: false
    }
  }
  attr {
    key: "transpose_b"
    value {
      b: false
    }
  }
}
node {
  name: "FCN/output/BiasAdd/ReadVariableOp/resource"
  op: "Const"
  attr {
    key: "dtype"
    value {
      type: DT_FLOAT
    }
  }
  attr {
    key: "value"
    value {
      tensor {
        dtype: DT_FLOAT
        tensor_shape {
          dim {
            size: 2
          }
        }
        tensor_content: "\257V\005?\350V\005\277"
      }
    }
  }
}
node {
  name: "FCN/output/BiasAdd/ReadVariableOp"
  op: "Identity"
  input: "FCN/output/BiasAdd/ReadVariableOp/resource"
  attr {
    key: "T"
    value {
      type: DT_FLOAT
    }
  }
}
node {
  name: "FCN/output/BiasAdd"
  op: "BiasAdd"
  input: "FCN/output/MatMul"
  input: "FCN/output/BiasAdd/ReadVariableOp"
  attr {
    key: "T"
    value {
      type: DT_FLOAT
    }
  }
  attr {
    key: "data_format"
    value {
      s: "NHWC"
    }
  }
}
node {
  name: "FCN/output/Softmax"
  op: "Softmax"
  input: "FCN/output/BiasAdd"
  attr {
    key: "T"
    value {
      type: DT_FLOAT
    }
  }
}
node {
  name: "Identity"
  op: "Identity"
  input: "FCN/output/Softmax"
  input: "^FCN/dense/BiasAdd/ReadVariableOp"
  input: "^FCN/dense/MatMul/ReadVariableOp"
  input: "^FCN/dense_1/BiasAdd/ReadVariableOp"
  input: "^FCN/dense_1/MatMul/ReadVariableOp"
  input: "^FCN/dense_2/BiasAdd/ReadVariableOp"
  input: "^FCN/dense_2/MatMul/ReadVariableOp"
  input: "^FCN/input/BiasAdd/ReadVariableOp"
  input: "^FCN/input/MatMul/ReadVariableOp"
  input: "^FCN/output/BiasAdd/ReadVariableOp"
  input: "^FCN/output/MatMul/ReadVariableOp"
  attr {
    key: "T"
    value {
      type: DT_FLOAT
    }
  }
}
versions {
  producer: 175
}
