node {
  name: "input_input"
  op: "Placeholder"
  attr {
    key: "dtype"
    value {
      type: DT_FLOAT
    }
  }
  attr {
    key: "shape"
    value {
      shape {
        dim {
          size: -1
        }
        dim {
          size: 25
        }
      }
    }
  }
}
node {
  name: "FCN/input/MatMul/ReadVariableOp/resource"
  op: "Const"
  attr {
    key: "dtype"
    value {
      type: DT_FLOAT
    }
  }
  attr {
    key: "value"
    value {
      tensor {
        dtype: DT_FLOAT
        tensor_shape {
          dim {
            size: 25
          }
          dim {
            size: 64
          }
        }
        tensor_content: "\215?f\274D\352\232\274\243mJ>\255\266u\276\346C\314=\t\243-\275?o\305=\273{\237=\3014\020;\202\244\2339\341\251\206<\014u\316\275\017\024\245<}\014\000>\037d\034>0\026r=\0257\300<pk,\276\215\"1=\202\336\036\275\325[/>\212\200\231\275D\314\250=\271Zh\276h\031!\276,\241\010>\311\244;\276\337\300 \276\021\'6;\317)\254\274\257-\231\276\023\344\013>\235\320_<\324\016\242\276A\374\027>\262#\251\276K\355\231<\3574\017\276\376\340\007<i\275\311:\253\247L<\212\023|>\034\026\335\275\212L\210\2742{\264<\177\205\227\276\004+v<\003\331\222\276\203\373\326\275\027\247?=\231\276\374=\022\3302\276\316\256\036=d\277\202\276uS\'>\301\"~=*tI>\366\310h>N\r(>\n|\"\276\353\275c\276?\001\344<\271\007\230\276yj \276\332-\312=\203\304\307>\364\024\367\276\277H\332\275\254\023\001>\233\n\222\275kP\267\276jz\241\276{\234i=\\\343\314\271\333\234)\275\003\030J\276\300\305\340\275\005\270\003\275\313y\363<_\236\000\276?(\001>\370\271\025\276+\257\027\275mh2>\317\353\244\275\037\260\366\275\027\005p\275F\234\000>\2709C\275\321\360\203\276\017\275\227\276\022\255@\277\217\360\204>+c\305\275\207}\274\275\\r\014\274\322\316\233\274*j-\276R\237\302=\224\344 =\203\302w\276\231\337\254\274\205\327\351=\255&\331\276^\014\300=\331\334P\276z*{=\260\364o>Z\203#>\366g\360=\215?\356\276\026K\232>\033\022?<\tF\355<\220\331\273>\356\325\"\277\3727\223=\361\366\231\274\324\rf>\205\3037\276O@]>\240\317\300=\336\226;>\247\023\251=\361\350I>\034\007\023\276\334d(=2\023\030\2765\034\034?\336\030\317\275\366\265c>\031\305\203>~\243m\275,\265\270\274\337\206?\276\\\321E\276ZqO>\370pE\277\206h\217>gqo\276\340\274h?TP\253>Dq\014>.a6>\336a\001\2762\\\217\276M\362\002<\027\343\275\276;k\244\276m\251\017>`\263B\276\324\261 =b_\013\276\276\257\004>\031\220*>\365,\310>\346M\340\2761`\345=\272x\010=\224M\351=dv\336>\376\222\010=\366J\214\274e\017Z\276\3534\t>\240\375d\276\237\327\275=\r\347\t\2765\022)\277\240\036j>\\\257\212>\177\002\206\274.:\253\276\254\336\274=\226*0?\213\344\007?c%L>;\264\226\276\317\235\270\276\023M\006>q\340%>\034XY\276J \230>\27659>(8\271>\262N\203\276|\366\320=\271\344\004\276\364=\272>_\274\223<+\000I\275a\347`\275\220j\305<\2239\217\276#\020\367\275aJ\226=S\355\233=>\346Q\276\0303\354\276,\2255?\312\234\212?\221\203\033\275\0039\234?D\305\024\276\317\230\010\276\347r\334\275\033)\366\2734Y\242\274\342p7=F\221\006?q\220\034>\366\206\205\276\035\224:\273O,X=\247[\274>\214%\322\273MM\372=$\330c\276\222jI=\211\377\022>G\353\214>\373\207\254\277\374\213\033>\322\242\317>!f\213?\330\t\304\276\327!\201>k\333\214>{q\007\2756\215\323=TI\202>\231\322\222\276\361\0363\276\272\270\333=\204\256m>\271J\376\275\221\237|\276xTV\2761\244\t?\200\321\242\276\022C7?_H{>\005\234\363\274\246\014\020?\221\306\263>\363%>\275\210\311\262>\2331\006\275\250\344\245<\227\237\361\275\374\324X=\304\027\217>\247\3042\276@\221\251=\372\247*\276-\336\277\276\350~~=\327x\201=;o<\276QI\273=\246S@\275\222\002\233\274h?]>\033Q\271\275\202\254\032\274:,!=~Y\027\275([\302=\230\233\t>Q}7\276\254\226\022>\320\306{\275\201\265\351\275\322\253Q>-\230c>Mw:=\0317\344\276\177\327?\276\341WG\273\310a\234\276{\204\313=\r*\355\275\200I\361=\353\272\\\274\246\002\360\274\246\351m\272\025\257x=\034\025\313>\353\351T<\323O\320=\202\002n\2760Z\005\276\214(2\276\347\2265=Y\366\224\275;\032\370=\321\254\306=\311\000u\275\336\354b\276,]\010\276\303Dt>\362\2713\276\306\035\262=\007V\271\274gY\255\275H\026\210=\022\235+\276\307\020)\276\265\246\021\277\211\262\376\275\202\252\362\274\2313\030\276\247Y\037\276\352\203=>\\\334\021\276h\311\371\275\026;\037\2762\344\022=\325\352\001\276\207\301E\276T6\331\274tE\213\276\277RC>\333P\244\276\344\327\010>\201R\017=\353y\207\276<y\340=S]\253\275\203\351b\275\335\017\337<\323\222\253\275\250\234\213\275\350<\004\276\031\014\372\274\235\325\026\274P\2665>\374>\271\276(\254\031>\013\246\210\276\322\225\272=A\313N>\026\277\313\273@$\365=\223\351\200\276D\014\247\275#2\276:Q\317\002\275\037\324\334\276\366\351~\275\306\001\316=\210\373\230=\240\223\242\274\003\324\273=\2137\360\275\220K$>\302Je>\2738\304\275y*<>\372\355\253<\306\255\226=<\271:>-s\003<\273s3\276|\250_\27604G\276\273\014\243=\007\250F=\241\301\253\275\202c\342\276\036qk>\243\337|\2756\320L=\322\344X=1MK\276\211\300\224\275\021\300m\275\211\322q\276\000\326&>`j\010>\310\231\317=\211\013\000>\270f\324=9\326\325=\274\371\020=S\253\356\276k\210\221=LA\031>\332\321\322<\227\264\342\275\\*\277=\306\004W\274\213\007^\274\266\367F\274x\263\314;B\362\303\275\241\230\317\273\241?\346\276)\213\211\276\334?\004=\241\347\326\2753ZU\274lk\250\275\013\263w\274\260\302\013\2751\265Z\276=\352\255\275\253^)>\312\014z\276\201\013A\276\211\222\246\275\256,^<z` =y\226a<\017?x\276$\232\213\276\3000\234\273Z\r==t\245f\276v\177*;\2059=\275\036<\005>c!I\276\2128]=\312\362\031<\030W\004\276d\357\023\276q;\252:J\341Q\276\010+(\276as\007=\001\226\001>z\234\334:\r\263\307;\013F\022\276.\020;=YV(>g\223\221\276\005>\207\276\217\t\014\276P\377\373\276\020zX\276\0162\203\276k\371\022\276\014R\027>\0268U\276\t\352\220=\021Y^\274A\377\021<B{\266\276#\010\001\275\311!\320\276:\351\013\276Vi\321\275\003\353\310\275,w\215\275\316\025{=\247\340\035=*\264\324<\273Ou\276\201\271\000<\177\317\350=\021\204Q\275\rC\004\276\207\307\344=\217\211\326\275b\275\026\276\260\317\335=B}p\276\270\0335\276\274\t\242\276\347c\005>\010\206w\276\323\317i\276\302j\024>!M(>MZ\322\274\304\230\200=]\026\037>\312\275\265\276\204\345\366<\3219\004>\200\336\354<\037\323}\276\377\350\033\276m\336X\276\351\251\300\275\255\252\231\276\302G\027\276\276\022\372\275\310\3410=G-p\276l\223Z>\302\353$>\017\263\236<2\275Z<Hi\202=Q\341P=\344\212\020\276o\335g>\250\005\357=,\013\342\275\334f\246\276z$%\276\275h\213=\302\372\222=\005\306\034\276\252#\371\275`\320K<)\004\013>\211\335=\274\222\261r==;\353<y\203\206=)\313\031>{\030c>-!\310\2753!5>\320\245d\276\016\373.\276\r\272\031\277\223\0366?\206a\210\277\361\244\270\275=\202\031\2777\203\013>\036\221\277\275\204\332:>j_\342\275\300W\273>TWb>C\'\271>\314Z\236;\333\275_\276\366\321u>\030\363\">\220B\224\271\200.\273=le:<tN\253\275\222\235\312=<\307\242\276\275\346;=\335\204\360>\346ta\277\275\360+>}\326@>\323\353<>\333\266~>\207\365\321\274-\250\201=\270q,\275E\217\246>\254t\244\274\253O@>\374>4\276-/y>]\205\352=h\213\305\276\017\337\034\276KQp\276j\346\347>\"3K\276\373\222=\276H5\224\2761b\211\274\320p\207\275z,\003\275\177\027E\276\243%\243\274v\365\204>V\003~\275=c\211\276u\222\022>\007\002\355\275\231{\311>@\342\314>\000\200\322=:]g\275pr\242=:ri>\232\316\230<\365\356\245\274\032\273\004>%B\023>\346\3535\277}Z\201=\310\0355\276\246*p?yO1\276#\347\355=&\007P>/\267\016>3\241\366\276p\206d>Cj\271\276zVp=\252\376A=\376\344*>\313k\316\275\235\252\356=W\377Z=4\006`>r^\330=3\254\"\276k\344\327>\367\221-<0\335\277\276\010^\020?\373T\307\275:\027>>\332Li>\200+\217\274HJ\031=\313w\233<\227\010U>\240\300.\2774\002\244\275\255\357Z\276e\036\">\331Cs\276\004un\276\261\036@>\371<\264=I\230%\276\221.:\277[\336\3418\245\367\031=\244+\'>U\026\331\275\023Sj\276\373\314\r>\207\301,>l\252\035\275@\217*>\234\3432\275eb\342>\227I=\275\263\251S>%\270\247\275\234a.\276O\213g\276=\326\222\275~\322\037\276%\365\024>\272X9=\\\225\311=\376\335\225\275_\250\251\276Q\332b=\336R\347\276v\2167>\225\265*\277\342\360\330\275\234P\326=j\341Y>fDO\276.\232\'>X\201\037=h\217\212>\251\336\\\275\231#@>\237\001/>}$%\276x&S\274k\332\275\274`lO\276\245\374\234\276\342,\300>$\253\354\275\230![>\016K/>\354\255X\276lg%\276F7\270=\2561B>|\035d<i2\230=\355\233\342=\035t&=\343\242\326>X\007\037>\022!>\274y\326\016>\220\366\002>\355%\227=\227\024\313\276\034\232L=\221.\031>\257dX>~\365\202>]\034\231=\335_->\303kg>\230\2751>\361\277&\276j\316\255\275\016\232\247>z\244\\\276_\001c>\241K\007>\325\336\215\275h\024C\276\303g\215>\022\374\237\276\320\315\364\275\261\3065>Y3=\276\310RO>\235\300\346\275a\351\246= \007>\276~N]=g\210\203=k\257\261=3\314\033\276\360\252\266\275\371\035\026><\004\252\275\247\335\036>6_y\276\371vH\276\016\276q>\253\215u\276\306\033z\276N\324\240=\317\240B\276\320\255{\276\375\302&\276\273\026l>y.5=r)\222>\305R\321=\2057E\276\331\032\212= !\376\274}\355\026\276\241j\231\275\275\353D\276U\010\327\275\334\205\032>+\333\300=\024\260+>c\2643<`L\355=\221\277\344\275\005r\377=\355r\203>\365\306^>\271\236\203\276\261\255(;\302\231\360\273\224\026v\274\214\342\213>\032\3120\276\275\236\336\274\345\016\233>\030\323\200\276R\321\323=\334b;\275\352\023\335=\367;\356\275\271\207A>\225\242\330\275w\207S\275u\333S\276[\277\242=KE!\276=\3110\276\202\276\361;~c\032\274\371\210\317<~\336A\276\370\226\301\272f[\303<g\236\223\275Z\023n\274}\337\320\273\244\227\210\271\r\220\031\276\030\340!\273[\305\240\274s]\210\276\247\020o\275\002(\022\276\201\255(<\177\222\353\275\023P&<<\255?\275\343ZX\276W[\251<\r\001\237\276\t\226z\275\367\370\207\276\312\013\306\275\374UH<\006\353\211<\3671\262\272uUP\275>s\030:n\212\022;\252\337\366\274\375B(\276\321_\004\273\206Y\205\275\013\213\271\275\245\351O<\206\241\244<&\302\263;\206m-\273\322\031\021\274\330\374 \276\341CV<g5\256\272I\343\362;\002\361f\276\006\330_\276{|\326;\327\260\013\276\315f#<\352\271\267\275(\337\353\2734\367\010\275\340\375\310\274V\361\207;\225\243\010=t\203{\276g\316C\2732\276\207\276b\260\250\273\231\260;\275\355\334\266<\r\013\027\275\003\316\345<\256a\026\276\007\243\211\276\020\254\353\275\312\313\004\276WU\207\275\316F\034>\031\210G\275\235d\212<\266\310\032<\260o>;\335N\224=_\360\260\275\251Q\022>\360\036L=\317y\213\275\342\234\211>w\342D\276|\"3\276\317\0230>-G\n\276S]1\276\307bs\276\231mn>\362k\224=J\n\230;\355\001\362\275\014\020\347\275u\375\311\273\206b\365\274B\252\352\274\233\252\272\273\203\370#\275\0203\313=F\371\201\276\247\375\025<\214\250\363\275 b\251>\353Ir\276\301\236=\276\210\343;\276\0030\232=\354Z3>\014\323\213\276y\341\202\276\315\"<>\226\333\253<A\254\274\275\\<\273<a\374\013\276\321Gq\275p\031b=ZZ\266\275\016\270\342\275@\270d\276\266\312\257\275\0174\022=;\021\202\276Rq\264\276\211G\010=\027z\222\276\210\233\213\276\345$;>\360:\345\275\233\264x>e\230\370\275\277<\351\275\t\225\200\276\343\032\022\276\277\206\347\276a,e\275\264)\306=\371h\016\274\240\336\007;\013<\314\275S\311s\276e\243U>&\206\037>T\310\201\276V\360\277\275f\264_\276)\362\260=\202\'e>\023z\306\275 \341x\276k\3730\276\021\243{<Adv\276(\267F>3\226o=\275\0210\275\215\275\302=NH<\274\201LX=\250\376\020>F\221\006<\254I\213\276\313\2572\276\337\225\210\276{G\350=Y\216\002=\337\376`\276_\324\034\276\340\005r>\013\323\035\274\335\243A\275\3303s\276^f >\322\330\226\276\355,\317\276\267<\006\276c\333\250>^\013\214\274p\244\204>\242\322\330\275{s:\276\341H\252\276V\246\203>\375\257~\276\351\355\212\274A,\234=.o\336\275\336\300\022\276&w\034\276!\353\245\276\301\321\222\276\371\355{\275\277\004W>\342\002W\274\221\203}\275[\370$\276g%>\276b{\262\275Y\340\265=7\200\'=-\374\203=[\350{\275\335`\243\275\177\257\032>Y\033\343\274#o\301=\230i\315\2751\001\006\276\263\205W\274!`8=\2715\341<\017z\322<\237+\020>\313X|>\025\205\021=e\314\201\276\276\2651\276\242fe>qA>\276%\263|>\n\314\003=,\337\256<\222\200t\276`\331\317\275\206\355\207\275\333\026V>\241\332d>2\201m=\003\302\244\275B\033\016>\206\330R\276~sa\276\344\376\222\275n\343\315\275\356\\\323=\'5\'\275Ie\216\275)\316\022>.\034==\310Z\215>\260\233N\276/\223\302;\356\2059\275\317\215\302=\260\370_=\270n>\276\nI\224=\032\273\242=F\374\t\275u\353\207\276\265?(\276\357\274\242=\377\244\343>\231*\035=ZGw\275\362I\024=\374\332!=\356~\033>\023Uu>\311u\026\276Z\243U>\3029+\276~\\V\276\016\242\315\273\004\357\226\276\364>\225=\252\271\206=\363\203\221=\200LL>\2403D=F)\357=C\177m\276t\364*=\355\027\'=W\221q\276L\275F\276 \203\037=\031i[\276\t\362E>\023\274)\2768\324x\275+^\022\276\264/\350\2752+\267>]\374\000\276k\267\240=\3142?\276\262\375\'=L\353-=\314\271\321=\306\265\244=\016\341\332=\262\330\255\275\375GO<\2318\243>\233ZH\276c\272\213\276\346\213\033\276\356\211!>\360\3758>P\342h=q\034\032>\372^N\275\253\003\344\274r\207\225>\250\216O\275\020\300~\276\234\350\343>?\321\211<e\204B\276\274\214:\275=\372\001>1\337]>F\001S\276i\314&=,$\321<\340Jo;F\276#>Z\334f\274x\322\030\276\257B\225\274u\330\016\2768\034\025\276*\276h\276\222r\226\274\361\254\034>mZ\321=`8*=\017!\261\276\025\343\305\275\335\023\361\276\200\352\010\276\2710\251\275\357,\006>4\277!>\212\371\005>\312t\267\275)\177j\276\316\005L>A\311\n\274\355\246}>\3647\267<C\177c\276\216\200$>\256`\206\275`\231\225\275\307:\311\275\230\244d>\245\316O<\231\217\236=te\\>\336\341b>\374O\326\276\204`u\276n\325^>i\200\326=\346R\271=T\351r\276i\243\034>\257\251\203>\317& \2753<a>M\232\326\275EDy>k\222$>4/P>\013\240\016\276\010\304\205>\247\2369\276\230\003\202=\327\323;=\325\377\034\276\370\nN\276H\216#>C\217>\276\342\026/>\037\311\303<\253\360U>k\250\277\275\265\215X>~#\034\276\003\364\036\275\271{9\276\306\270x>#6\232\274\320\236\343\275\036\227@\276\327S\202\276}\202G>ha\006\276\334]\361\275\230\010.\2769=\320\276\347W\343>\334\373\357\276,\307\320\275\270\362\244\276\010\222\304=Ei\203\275\270\006d\276\r\013\252\275\314\374\355\275\307+\377=Y\3460>\334kP\276RT\353\275f\3711\276\010\213I\276D_\255=\244\006\373<\226\022a\276;i\250\275W\020\274=\035\013f\274\r\356\263=\324\353\362\275\306\247\243\275\345\031/>\233\262\037\276MRa=N\301\303=\233dL>\024\370\322=\243\305\007>\335\332[>\343\215\004>q\216a>r>\204\275\242\236\203\275\203\276E\276\256xP>\\\247.>\320\0166=\235\252\225>\214lS\276\273uA>\257\221!\276\331\262m>\251\255\235\275\234\213\215=\032@.>7\331T<\214`\001>\313\354\264=\363\017<\2767bG=j\311i>\2062\'\276\213\3040>u\246\010\276\027\343J\276\265\273_\274D\276X>\204:;>,\324\345<\250\260\\>^wm\276/W\220>~\272\034>SI[\276\300\342&>\254\360m\276\025\200{\276\327\255`\276\306\327<\276\334}\274\275\362\320\213\275\251\370\010>\022\205(>\206$\341=\240!\346=a\344o\276s\215\243\274\320)\236=/\344o<\361\342y\276\016uZ>\365\275\r\276\307\201\310=\236\222\214>\306\2265\276-\0172>|\247v>\277b\256\275YBL\276\232\335\271\275\244\307\264\275\031v\254=2\374\372\274\351\235a\275\373*->\223\023\326=\262\376\373\275\206\370\334=\311\300m>\221\244|\276\301&\001>Sw\202>\374\355Z=\017\010\374=w\007\320=\365\177\325\274\337\203\361<+\220Q>i\321\365=\212\315v\275\025\351\341<\2633\202=\267J\234\275\006\364\311<o\310\000\276J\\/>\2525\316\275\016\222\343\275^\314<=\270\365K>6^\020\275\360\256\000\276P8P>\277\320~>\204\271\306\274}\221\250=\023\274Q;\354FK>\2126\235\275\264\204\016>\035j|>\267\243\035\274J\323\331=\376 D\276[(\222=[P\372\275&\242\262=ow\037\276\036]\002\276\315!O\276\274=A\276\330\350O\276\327\314A>\257c(\274\272\356\335=\221\356\261=\247\267\225=pO0>}\362\235\275u\215\245\275\0100\251<\230H\035>\014A\025>\226n\214=\250\257\'\275\332\215\364\275Y\250k>\301\ny\276\341\014.>\356\033\321\274\025\375(\276\"\262\305\275\031tX\275\263*\213>9\326\271;8\030\305=`-\316\273B\302\211=Y\251u\275r\262\340<pp\215>W\233\330=f\361\213\275o\362\373=s\253e<\305b\374</b+\276TO]>\240\0165\276:-i>\343H\024\275\365\000\016\276\371\255\352=2a?>\021L8\276\226(6>\265o\024>+\370)\276|\210R\2765\362\203>\234xv\276\354\241\272<5\336\233\274\343QU\273w\332\206>\343L\237\273J\251\032>\341\333\325\275g`\246\275\270i\367=\344~\350=\017cJ>\305%}>\035\345\247=]\210e>V\344 \276\2618\366\275\320Q8>\206\233\031\276D\024\001\276\223\214\213>k\364t>Hi\035\276\306@A<\313g\230:\336\254\257\275\231\327\260=\024\351\311=\231\016@>\016\360;\276\331\265\243>\325\300\026>E\217I=\240\177\245\275\321\206,\276\024\373\301=\340\201s<\243\027\340=\016e\245= \364\217>\364[,>Wj.\276\033\031\204=\233\222\274\275\223\'p\276\242~+\275\3768?>\313h\326\274\224\236\302<\000\'\252\275\375\031I\274\360r\225=\335]\020>\201\256\362\275\206\235\032>}9!\275r9\002\276~,\\=\313].\276\315|J\276(\024\332<\365`\226=a\316\034\275\026\243\226>\273\233\253\276\313\032\312\275(\252\226\276\277 ;>V/!>\\\256\262\275\241*W>\357\367\251\275\331Sh>\217Y\341\272\363\340\303\275\200v\367<\324\344*>\020 \271\275\342\366w=\002\230\201>~\025[\276\241\266\200>(b\252\274\340s\006\276\025A@\276\221v\240>\276Y\203\276\301L[\276#\212a\275ua>>\202.\212=p\245C\276NeJ\274.\3403\276\250\237N>oy >\014^\r\276\262\241z>2\302H=Y\300-\276\tk\237\273\270t~>\275\003\r\276\020ff>\177\021\270=\262\332\273=\025\324\230\274\303\013l>\236\375\207>\025{\346\275\215\257M<\243s\212>\276\272\205\275\354\353j=1\274\030>M\r\205>.\212\374<o\344\262<7\001\026>\326\013\027\276\252\237(>J\021\023>\221\304\002\276<)\203=c\304\247\274\221Hw>\000\303V>\007\252\202=XV\316>\024P\312<\034K\245\274qB\370\272\t\333\331=]H[\276\017\206\304=\310\306a\276:E\246\275\232(\200;_\362\212>(\203\325=R\320\002=\333\275\"\276\033Ol\276k78>w\372K\276B*\362\2757\223\226\276\363\352\226\275\376P\217=b\210\361=i2x=E\273\\\276\342\206:\276\370s\232\275\255\023\330<_/->m\352\215\276\327\371B>0%_\276l\333\261\275q\340\202\276\272\2214\276R\004\362\274a\354t>\001\272J\275\302\036\302\275\230{\036\275v\243\010\276\272\277\210>^\251\354\275\317z\346\274F7A\276B\324O<\245\303?<=*\303\275%\016\027\276r\0253>dF7=\224\225\261\275\026i\275\2758\273\242=-\'\037\276\375\024\233\275\367\033\001\276\201\374\205\275\314\202Y\274\014#\252\273\273\035!\275\337m^\275Q.\300<e~\t\276\003\022\302\275\226\336\024\276\200\267\036\276\241\321)\276HR<\275|m\212\276\376z5\275\261U\212\273\356\203\035\276w\030o\276\334Ef\276\367[\201=\307\230\203\273\002\177\261\275\002W\344\275\215i\333\275:\331-\274\217@j\276\014%\230\275\377\323\214\276\311\226\036\275M\366P=\330(\272\274\274\303\007\276yv\376\272!\235\023\274\306\004\332<\033b3\276\326\222T\276\024\350\n\276/\004G\276\017\006P\2768\"\010=piI\276H\003\222\274\255)\377\275Y\023\022\275\340\307\304\275U\371\332=\017\r\020\275\342\354\377\274\313iN<p\301f\276\356\032\033\275\307\346Z=\347\272\005\275Eyx\274\341\225\317\275\364\367\351\274\230\303\325\274h\020\017=\n\305\037\275{\270k\276dX\214\274\231rn\275"
      }
    }
  }
}
node {
  name: "FCN/input/MatMul/ReadVariableOp"
  op: "Identity"
  input: "FCN/input/MatMul/ReadVariableOp/resource"
  attr {
    key: "T"
    value {
      type: DT_FLOAT
    }
  }
}
node {
  name: "FCN/input/MatMul"
  op: "MatMul"
  input: "input_input"
  input: "FCN/input/MatMul/ReadVariableOp"
  attr {
    key: "T"
    value {
      type: DT_FLOAT
    }
  }
  attr {
    key: "transpose_a"
    value {
      b: false
    }
  }
  attr {
    key: "transpose_b"
    value {
      b: false
    }
  }
}
node {
  name: "FCN/input/BiasAdd/ReadVariableOp/resource"
  op: "Const"
  attr {
    key: "dtype"
    value {
      type: DT_FLOAT
    }
  }
  attr {
    key: "value"
    value {
      tensor {
        dtype: DT_FLOAT
        tensor_shape {
          dim {
            size: 64
          }
        }
        tensor_content: "\246\303\316=\241\027\033\275\001\232\027<\020oW<\023\310\317\273a\357\215\272.h\365<\226\035K\275\020\224\275\276}\037\221>]\304R\277\204\322\0027\376\274\013\276\3566\341:\353s\324\274{cd\273\3654\037\274\033 \010<5\302\034<\032A\"<\231\334\217\2750\347\2419g\032\263<\273\303A<\013\332-\272?\231@\272|\251p\274\313/\215=\263R\016\275\360kH>k\2476\274c\375\330=\324$5\277A-\231\275B\344\217\272{\365O;+>K\271\275\000\034\275:dG=u&F:\372\'\201<]\016k;\374Hl<6\225\023\274\203\237E=\\\356\327\273\331\207$\276\330\327\001>\r\272\330\275\201\202\265=0\327\026=\342\260l\275\305c\271=\204KZ\274I\024\312<\266\237\365:\370\'\375\272\033?\273=\264\313v:?\243\325:\2679U>\251\227\243<\002\336p;\231\3607="
      }
    }
  }
}
node {
  name: "FCN/input/BiasAdd/ReadVariableOp"
  op: "Identity"
  input: "FCN/input/BiasAdd/ReadVariableOp/resource"
  attr {
    key: "T"
    value {
      type: DT_FLOAT
    }
  }
}
node {
  name: "FCN/input/BiasAdd"
  op: "BiasAdd"
  input: "FCN/input/MatMul"
  input: "FCN/input/BiasAdd/ReadVariableOp"
  attr {
    key: "T"
    value {
      type: DT_FLOAT
    }
  }
  attr {
    key: "data_format"
    value {
      s: "NHWC"
    }
  }
}
node {
  name: "FCN/input/Relu"
  op: "Relu"
  input: "FCN/input/BiasAdd"
  attr {
    key: "T"
    value {
      type: DT_FLOAT
    }
  }
}
node {
  name: "FCN/dropout/Identity"
  op: "Identity"
  input: "FCN/input/Relu"
  attr {
    key: "T"
    value {
      type: DT_FLOAT
    }
  }
}
node {
  name: "FCN/dense/MatMul/ReadVariableOp/resource"
  op: "Const"
  attr {
    key: "dtype"
    value {
      type: DT_FLOAT
    }
  }
  attr {
    key: "value"
    value {
      tensor {
        dtype: DT_FLOAT
        tensor_shape {
          dim {
            size: 64
          }
          dim {
            size: 32
          }
        }
        tensor_content: "OB\034\276D\203\010>J\371\004\275\216\203\215>0s\027\276s\205x=0\372\010\275\244\342\303<\266X\006>\211\355\032>\223]\212\276\n% \276\343\275\255=\037\270\024>\355Cn>\016\323Y>\215u\006\276Pc\200\276\020\271\244=\246?B>D:%\276\337\264;=\024C\203<r=\n>\270\335a\276\216\353o<\333\312%=\265\t\324<\177\007R>-k\032>*\2059\275?\261o>\001\256\376\275\261\324\273\276\002\363\006;>\270\200=w\371\212:\020\204\032=#\255?>\300\371\211\276\326\364^\276\030\327\005\276\226a\321\274e\251\215:#\273\337<\034%\005\276\025\325\216\275\335\225K\276\226\375\'\276\216\207\204=]\014T=}aL\275z\231\255\271\347X\017<\274\034\315\275\357\222\236=\021WG\276\372\033n\273\311\231E\274U?\344\275-\264}\276\274d\376\275\312\036\231\276Ln\232\275_O\200\276\302\376\034>^\361r\276\rL\304\275\202\234\371<B@\216\276\361\211\032\275\332\347\017<7\211\032>\020\027/=\350S\211\275\306\332\252=jH\361\273OC\375<\301\323\331<Hu\010>\346\302N;8\341\375\275\260\216\000=m&\261\275\370Y\246<EQ\224\273\331\215\363\275\020\332\t=#\251^\276C\240\330\275\301\343%=\310S\274\275S\303\243=\200\255G=\203s\327=gt\376\274ZG\016\276\220H\'=\373\013\014\276\365\2315\276lT\t\276\212\211\344\275\310\303M\276\347\326\023\276\271[*=\236\353K\276?g2\276\250\023\017\276\020s\023\276\024\203\316=\220\342\210\275\244\241\275\275\360\315&\276\006\2054\276\203\320&\276(\374\356\273\237\226o\276]\005\016\276@\3179\276\201~{\276\211S\013\276\212\221u\274\n\300\002;\311\322\222\275x\373#>aQe\275+\223\311\275\261\351@\276\225\321*\276Q\364\"\2758\025f>U\004\230\274\315\250C=\371c[=\313t,>\010\377/\276\002C\204\275\371[V\276\340R\177\2753w\257\275\262\250@\275\302\373C\276\322#\353=\316#\313<\225\376\223\274\327\234#\276\327E\310\275I\362&>\267ub\275\366\250\025>\224G\264=\260\346C\276\363\310E=\'k\221\275\036\330q\273I}K\276k\342F=\201\031\331=\340\001g>\264\365\265\275\013\374->\247\000\307=\361J\'\274~5\212\276\352\331L=#\247?\275\310\014\030\276|o\177=\264;K>\372\263\321\275\276\303>\276\353\205->\311\002N>\301%\221=\274\205\201\276\260p\003>\323Y\330;Gt%\276=\360Z\276Z\n\035>Bu\027\276\330b\036\2760\360\207>3\272b>\315\341\024<1\357u=\201J\312=V\220\007>dxA\276\333\335h=\017}\317=q\220\242\275\256\004\t\275&\033\340;Q\n:\276\253\206\351\275\3722<\276\241\307\212\275\003\362j\275\332\337\361\273\275-\317\275w\313\005\276\340\253\206\276\356ht\275\323\342\014\275\263\321<\275DA\207=\260y\256<?\030\020>]-J\276s\250-=\204\303\337\273`e]\276\205s\376\275\222\320$;\262\004\027=1\276\020\276|\033\017\276\004;#=\355\272\022=\361q\325\274\243\273\213=B\271\r=\306=\222\275\t\340\204\275Ln\303=\253:v\276\362\263\277\275\034CM\276\210\243B\275)BO\276\2641m==\023B=\\\\n\276.\274\263\276gp\024\276\"\264\206\276\017AQ\276t\301\204\276\025\273C=\2042\215<\375\205\332<\014\"Q\276H\335\247\2755!\363\275lW\r\276\272\223a\276\335\373\343\275\361:\344\274\303\tS=!T\226\2753\t\203\276\007\033\264\275~\206\002>\270\214&>\031\254h>/\236\"=\320&d=\320\332\326\275>@R\276\312f\340\275EP4\276Z\315`\276sP!>\237E\014\275\220\000o<t\306Q\276\001\263\376\274}\342\351\275@\201\013>k\212\001>\241\202\002=\"\254\267=\207\010\337;\000il\276(\276$\276\214\014{\276\262\374\264\276\225\222\305\275\376\302\007>\034\312f\2766\t\300=/\222\361\274{<g\276t\366:\275&G >\215M\314\275?\225\214\276\\\263\037\276C\316\325\275\362\n\327=pmr\276\250\320\365<\331\207\232=\t9\251<\024,\375:\336\246\010\275\302\272\014\276\270\304\261=_s#\275\365t\036=/\371\003\276Ccd\276\323\346\201\275Rn\326\275\256~\336=\251\367\237=\342\254\257=\243`\205\274\211\013\276=g-\032=S\277\343=\360\010\224=\327\3230\275\314\270\200<\000H\233\275\250cb\276\216(\217\276^u\247\275\006\274K\276H\200h\276\330H\014>\245\357\031\276$\376U>\362\253\256\276\020\331\204\276~\200\237\275e\337z>9\333\r\276\232\334(>\257S\273\276\374\226\316\275\364\341F\276\272\325\355=\007<\264=\357\014l\2750\037\376=\213\235*=\t\201\256\276x\313<=\232\013\233\276\350\375\365\276\"\270\363=O\022#>\034Sw\276\006U\340=8I\277>m\305u\275gMY>\n&\233=\316F(\2762x\201\276\031,,>\270(\002>v\265\033>v\340g>\366<\n>\367\340a\276\261T->\363d\362=SC\376\275\004\027\334\274?Y\033>jP\327\275\321\276N\275\237\240\315\2747!2\275\341\340\214\275\t\366\021\275mD\307\275\355\352&\276\366\254\233=<\370\212=\026\320y\276\265\003!>\177\235\320\275\2309\337;\317\267\375\273\01389\276M\204@>\303{G\276\313\202a\2761e\001\276/\034y>\007\216$\276\351\367W>\232\022K\274\377\"\213\273\332B\342\275t\t\220\276\216\235M=\000\255\254>\234\324\001>d\316\225>\232\352\246\276\353\352H\276\323\002{=\311\266\216>\n\327\336=\253\223\351\275E\245y\276\331\313\033\276\340\350\001\275^\034\306=\263\333\204\276F\353R\276\230\332[\276*\375\222>\314\334G\276\306GL\276N\327[>\354@!>\362\367\026>\325?\203>y\260\037>\375oH\276B\307\351\274\307q\204\276\243O\025=D1 \276\273\r\331=D6\335\274\262\355\334\274J\032\251\276g\":\275\355\360\213\276r`!\275\3222N>\271\247$\275FC\200<X#\024=m3\025\276\006&\225>\366\2630>&\324\255\275r\2032\276\013\223\002>\032\321\027>\230\260\226=\211\345\273\274\317\267(=\373\177.=*]\353\275\177\021\337=\227n8\276q\307\007\274\302\3069\276\274&t\276\257m\314\274&^\377\275\254a\\>\343\307\213==%\223>\032\230e>\3270p>\327\257\242\275\252\026\232\274\315\232\037>\372&\027\276?\'\270=\346|\314<W\231\027>\000\373~\276\264\265~=\245\373E>a\005k>\332Bm>\023i\272=\263\343\024\276\321\025\343<\202\340H=\240\260$>\211\016\210=\341Zx=m\365N\276j1\014\271\003hD=\314\0215\276\375g\355\274\316I\022>h}\036\274p||>\271!v\275&\200\312\275j\224\227<\306\3438\274A\277\245=r\241\022\276>\030l>\354\356u\276\311\234k>!\303\"\276\334\230\031\276\345\203\014<\257=\031>\0259\t\275\217im\276\365\316\366=\nrt>\034\363m\276\307\355 \276\325\225/>} \245\275f\024\321=$\205G>)v\200\275\277\346\277=\364\013U\276\307\222G>\017#^\276$\267\334\275V\364]>\332p\036>\306\372\034\276\002\030\345\275~\216\241=\0332\303<9\335\212\275\301\203:\276\235\274R>\"\\P>A\323\343=\276\3359>\010Jg>\034\360\327\274V\341\r\276\006\210\030> F\244\275\0047\342\275\325\326Z>\215\345_;\350\247C>\204\257\372=&q2<\270\217j\275\367\320i>\370\365\302=\010\030Z\276b\313)>E\344u\275\"\345\023>g\305\373=(\262\353=\r_\002=\\\2727>\243\210\036<\341\341\246=4 n=\267\272\210;\032\364\215=\275j\331<G\366\277\275{\224\312=IDk\276\024\344\027=\030\007\374=\204\244o\273\243\001\233\276\262\2155\273\002w\255\276\324\224U=\023\3005>\"\376\273\274A7\200\276\034\234\310<\304\313\200=~\375`\276\241\270\321<\252h\253=\361\324U>I\331\205\274*\375\222=\340\233 \276\214n\314\276\260\217T=\347<\t<\3669\007\274\341\2339\274\375\306R=\035\031\032\275\210\024R\276\266\035\003\273\202\351\013>\257w^=,\3013\276\377\315;<\207\255\232\275\006\177M>U\316\217<\016\273H\276\303\276\t<\247<\270=\240\342\036>.r`=\303\254\322=\215\333\323\275)\313\207\274\035\377\025\276\312\374\213<\037\'?>js6>e\241\257=m\217\372=\230&=\276\224\364\007>\214\302]\276\177\346\217\275\'\257M>A\374n\276E\364\263\275\253m\361\274\014\352Q\276&^\036=\267\340\273=\213i\014=\203\307I=\210.z\276\275\023\360\275\301\241\345;\003BG=\215\317!<\024\347V\2765\352<\275\310\252N\275\016\237u\276p\263\261\275\251\331\302;8\231k=L\206\352<9\351\272<P\306\007\276\023\326\301\275\372\003\263<\266\226\326\275\330\336\'\275\222JH\275\025\253e\276X\205<\276\037]9\276\323Z\214\275\030\002M\276\345\216\342\275\\f\240\275~\257.\2760x@\276\250\262\261\275v\0267>;\340\356<Y\263\002>\300\312z\276\r\220N\276\230i\253\275-\340\270\274\370\307\030>&\300o\274m\353\205\276\373p\275\275E\355\214\276\345S\212\276V\034M\276fu\253\275\256\006$\276\206\331~\276\204\230\025\275_\3413\276\261\331\256\274\005O\030\276\033\035W\276\010\325\325=\017\340\021\275\"\3552\275\303q\303=R\351\220\275\207\206:>Y\3246\276p}F\275\017\036\315=P>\361<\304\334+\276\000\333\023>Mco>\257:\021>~\367\"<\214m\035>\270\002\344\274\235\265u\276\377\2070\276*\364\245=\322,\337<\0217n\276.\345\035\276no\347=;\034\224\2751\250[\276]f0\276\276\367-\275D#d=\225\201-\274\270\0062=]\243\327=\014\347\257\275\246\363\024\274\203(\"\276l\016\210\274sR@\276\037\201\272\274\216\272\320<\r\313\333\275\256\220\213\276@\345\t\274W\226b\276>\236\210\275\245\002t\276\333d\312<\216/\272\275\310\317\362\275\205\036\317\275\345\003\007\275gbM\276\\I\020\276\'\256\301\275\343\233z\276J\366W\276\3640\375\275N\'\361\275\303\306\365\275\351\337\027\276\221\271\225\275\202\233\3109\222H#\276\177\352\030\276\357\337\374\274\025\373\331\275[\263A\276\017N\200<\003\373\004\276\202\375;\276D-7=\313B\006\272(\204R>\330\313u=d\214)\276-\375[\274\304V\320=\rA\020=c\375,\276Z^==T\036\307<\227,K>\345\361\013=\236<d>y\355\370=\203DS>\360H\363=\366/\336=\240(\n>V\213\324\275\266\243K:h\267\000\2755,\034>&\336k=\212*f>X\2612\276`1N\276\014c\247>5\216\223>m\227>>\251E\300<$J\000>\035R\264\275\"d\215<@\377\314=c\260\034\276\377W\016>:\036s>T\352D> \022\305\275\r\003\201=\004\224w>\363\3414>D\221/>\354L9=\233\253\356\275.9\202=\234\237\033\273o\233\315\273\256\341\333<\030O\330\274#q\\>\352\270\033\275g@\017\276>\357&\276x\026/\276\230I\036\276\342[\034=\rWN\274\205\334D=\311\002A\275\332\014t\276w\305\231\275\201[1>|d\330\275d&s\276h\267:=\352\347\367=\244\326\027\276TW]\274hP\020>\330\244\000>\277\370\363=m\035\034=\033\007\226\274\313}\032>\327\300/>/\023-\276o\320\253\275\347\266a<\264x]>\253CG=l\211\006>\311^\001>\024\246\267\271\232\210\241\273\226\315\027\276!\254Y\276\216V\301\275\270\r\231\275\002\272>>\300}F\276\257\3458\275[\373\021\276\200\201\317\275*}\373=\304y\221=j\244}=\300\022\336\275(P\211\276\233\246\017>\277\3368>\r\323\014>\257\2407>=s\336=3xp\276b\262.=\243\273\\\275\352\010\330\275\232`L>\306\315\352\275\327g\274\2750Y\200\275\275\312\214\276&\206\034\276\366\2244\276GT\232\275Z\244\376\275\r\376v\276B\212\374=\214\220\364<t\270W>\337\216G>[\221\204>\307\346`\276l\220\n=\234\260m\276\234L\323\275\363\376\010>\000\223L\2760+\200=\210\301\321\274\301\303\177\276\207\201\305<\222a\337=\351\367\025\276\031\353\"\274\266\261\016\276\010\333\230\275\360;\r\276I\004\001\275`\316\023\275Gl\004>[X\016\276\221f\262=G\003\215\276\337\365<\276d\224\"\276W|\304\275\2166&\276<\032\037\276b@i\276/`\030\276l\302\323=\203\347\263\275\252%\241=\266\0134=\324@\276\274LWl\276\265\264\\\274\221\272\210\275\275\3767\275\257vC\276\307\367\025=$\016\312<b\331\275=\313\362\360\274\320\337\031\276i\177W\276\232\357\272\274f\034@=I*\212\275\335\033\303<\351\'\225\276\022X(\276z\0250<K\006\010<=&\'\274\336.\351<\276M\004<>\357B<\263r0\276Kt\034\276\354\'\215=\004\n\222\2753\221?\276\256\240\376\275L\262\000\276\261O;\276\221\316\327\275\224\303\031\2755o\355\274\256*\264>\241\331+\276(\343\366\275b\274\003\274\237\377\325;Pj\213\275P\370=>\243!\266;>\322->F\341\217\276\311\211\361\275\"\242~\276~6\361=\366\246\326=L_h>\336\375Y\276\204\220\214=2Tq\276\245\273\371\274\000\367\236\276z\'\232\276\337\233\264\275\361U8\274v\321\356\275\344\023f>\312\365M\276\355\244E>u\275J>\032\364\337=\333\212\204\276\025\n\215=\0137\200\275e\034\300\274D\306<=\263*\372;\347aO\276\236\304\306=\325v\230=\361\267}\276\243\374\202\276\3402\206=\376\006\324\275:\312\224=us\306\275\345N\034=-\220 =~\251\363=\213\034\010\273\026+\036\276\246\257(\276X$c\274\365\271w\2763\200O\275\027\020\014=7\241\350=\230\202?\276X\013\177\275\304\230\206\276\013\376\000\276N\326\266=\312e\237<\3712\336\275L\274\032>\260\017\355=\213\346\264\275\343\337c<~\244#\276\241\343\360\274\230VS=\312\203\363<:Q\322\275x\360\324\2757\240A\276^\250z>\310\356(>\324o+=$\222\343\276\325\364\201\276G@{\276\331\216\317\274\322\332\367=\265\334!\276\017\342\"\276|\354y<\3515\347<\037\324\017\276\246:T\276Pp\314=\251\026\347\275m\227\362\2754\265!<M\310\301\276U\200\201\276\212\322\256=\260\002\t\276~\200\021\276\310C\316=\363 \274\275\257&\010>JR\\\276\366Rv\276`fr\275\212d\217\275\266\234\351=l\264i>U\n\261\276eXQ\275`qo\276\275\326\322=\223\035i>\215\272\263>C\345\213=\301z\203\273\243\2706\276\322\203R\276\243bc\276\263\210\202\2763\355\223=w\353\231\275I\024R\276;$\r=B\222\005\276#\372\207\275Rq\037>\253\n.>\220\214_>\364\203/\276Y\314\005\276\014\2435>hEJ\275h\273<>\271_\202\276\005\006?\275\217$W\275\360\371\377=J\006\364\275)Y2=m\356\037\275\371\220W\276\375\310D\276`Rc\274\226\034\004<\024\'\271\275)\255\347\275\336\327*\276|\201\333\275\n3\350\275\244\360\214\275\252\213S\275\013\346\345=\331\253\266\275\373\262?\275 \211\003\2761\227\036\275\027\227\037\276\026\227\256<\263\206\013\276x\327\247=\302D*<V\000\022><\370\013= \262,\276\323\005\213=\355\354\226:\2049\300=]RB>\264\0375\276_\017H=\214\334n\276\266\001->\355\3632\276\004\355\250\275!\001\353\275\202\244\241\275\357b#\274\026\212\'=\024\342:>\222\227i\276\221H\300<4c\314\275\0202:\275\276\212t\276\365\001\034>q\324\356=\352\004\311=ly\305=\\\226(\276\321\276u\276\245B\014>\240)R>_\003V\276#\313X\276\233\274\231<g\345w\275\251&\342=\317%\200\276@t\003\276S\036K\274\3567Q=|\245\020\276/\303\214\275\363\374\315\275\016\345\027>\034\363\227\276\342\206W\276o\026\312<4\023\013<\375\022\270\2752&\013=\301\262\255<\037\201S\275\334u\220\276\345\217b\276?\232N\275\332&H\276\244\312\357\275\271\302B\276\333\311\377\275\222[\362=\2628\365<\200\215\312\275\300\212\013\275=p9\276H\016W\276\215\210N\276\251KT>\270\007Q\276\030E&>\310\216\243=1\330\010\276)z\221<\332\310Q>\270\235\232\275\246\000Y<\274\237\254\275x\001X\276v\223\332\275W(l=\013+\020\275,\311\300\274w\177\013=\004\237\001\276\017\373\004\276\247-N>\035\241-\276<\025I>\025\307\247=:\240\327\2753XJ>\321{\007=\021o\006\276\217\031.\273\020~\002>\226\260\026\276\246\212\212\276v\336\005\276\000\310\n\276\322\206\276;\001.\263\275\312G\215=\315\344\310=\002jo>\277v\022\276\341Q\024=\371\001\027>\2362\245\275\217\277>>\264\314\022=\261\371\270\275U\355!>\210#\025\276\337\353.>\376\302G>(x[>\234Z\335=-\2559\276\213}\025\276[\270\031\276?\027\026\275\250\243\026\274\346\326\317=\220\336\316\275\020\374\257=\331n#>\262t3\276\030\233u=\202\032G>\264\2117\276\352B\211\275\tC\226;\324\346\220\275\337\260U=\312\272\322<\206\330\304;;ck\275\224\244\013\275\321\276\325\274\355\024t<y\246?\275P\343o\274\003C\256\2764\0229\276G\217\276<\265\234C\275\341\2764\276\224&\256=\272\020^\275@ \234<\273\027\006=\261\326\241<i\032p\276G\300\335=\356X <\2700 \2762y\246\273\034\264\371\275\031\314\244\276\304Q\254=k6B\276]\177\337=g\342v=\373\253\032=e\245\346<\017\023\355\275o\001\331\275Nq7\276N\276\226\272\207\262\333\275\202M\313=!\2059\276\016\341\345\275\244\2456\275\304\370\307<\214\264\013\276)\3565=\351 !\276;\340\275\275\334\304Z\276x\354\304\275\363\241;\275\253\257B\276\202]5\275\035\263\304;he\210\276J\036\005<\021\337R\276[]\310\275@x`\276\245\324\037>\003x\215\276\345\266^<\341\364>\276\035\255\003\276\004K\301;\345;\366<\316\262\340;\320\303\370=~\2306>\353%\232<\314\002\360<\022!\225\276k\326\005>Bx\000>\034\326\226=1\224\235<Yy\237\276\277\262\234\2761\030\036>\255\262\330=\3630\202\275\014\020\327=\030\300\250=\027\t\314=\301\032\022\276\032\n\002\276\300\370\r;\361\2725\276\275\004x\276\330W\003>\007{\243\276\246F/\276\351\263x<6m\014\276\324\274\227<\344\000\034=\233\3471>6\217~\274\300\234g\276\333\333\203\276\324\212\005=\232\263\002\276\035\242~\276\207\255\003\276\312\205t\276\310\013L=\342\246\035>\247\337\350\274\257\272l\276W\276,\275u&\320=g\262\313<\272\223\273=\326s6>P\206\220:G\0236=)\020\276\275\203\224B;\363\203T\276\321 i\276[\351\312<U\300X>&\013q>\03104>\207\301c\275\353 \227\275JL\207\275QeS\276\026\2140\275\332\204{\276\372\266\255<\360\206\'>\004\246\321<\233\331\213\276\000\003>>\331E\255\275\360t\347\274\231\347\032\276\260c\324=;\273\025=pu\037\275W\306j=\251\307\274\275Je\030>\317\257\262\275\264\364\302\275\033\227\034\275\327\217e>\346_\365=\206h \275\347\212O\272\270S\351=4\236X\276\342\2055\276<\342\355\275\254\341\r\276\3129\312=\315\340\024>(\305n<\n\357\355\275\325\262\022\276\000\325\310\275\251\031\225= L\217=0\366\034>H\231\222\275\235\234%>\350_P>^\316(>)\005\371\275$T(>ECN\276\217{ \276N\324\016>\365\367\200>\303?Y=(\301h>\223\344\351\2751\030D=\006\212\n\276O\233\234\275\234KL>W\377f==\2614>\367\271\345<\371V\210\275.2d\276\326\006f<\374\201%=\377DU\276\031\245\010>r\333\214\276jDv\275v#\316\273\244\356\241<M\020\014\275\001\353\023>U\n\020\276C\235\212=4\\\220\2766\0079=\311\346H;VX%>:w\243\275\247\347v=:E!\276\255*\200\276X\350\035\276\203/\026>\327\3600>\'\343\233<\367\272)<\303\014\365=E\355\r\276\\\016F\275\3100\357=\316\374L\276\267\030\245\275\306\036\373\273\317\207\257\276Y\233\006\276\236~F\274[,==\"\343#\276\231\341W>h\206\322=\2345\323=\207\020\325\275zWr\276\2207\315\275\265b\'\276\326\366p\276\023\022\315\275_\271F\276\277$\207\276\230)m\276\203\000\036\274J\241W\276+\036y>\215\027,\276\030\321\331\275\217\350\356\275\270\300\177=\036\207i=C\353\030>b!0\276}\355\267=\357* >5\023\035\276\374\2148>\027\202e\276\307E)>@\224L>(\314\204=\271\231|\276\271\n\370=\025;\020\276\244\254p>bbZ\276\341Z\230\274\207\263\361<\\::>~,\261=G\230->\352\221\n\276a\217\202\276U\377N\274/]\014=`\351\022>\271\276\013>\254\2150\276-E\014\276\202\251\"\276\356e\341\275\032<i\276\026p\252\276\3569\207=\374\234r\275R<\215\276.r\002\275\346\315\230\275\364\020\351=\266\314a>\255\373 \275\342{\244\275i\260\005>Py\022=\317\"1>p2\262\275\246D\213\273\360^x\276JL2=*\375\263\274\272S[=$C\371\275\346\234<=\014\373y\274\007\2728\274\253hf\276uTt\275\262\227(=}\356)>\334\005\260\273\030Jp\275\313\317j\276\327O\036=\002\374J\276\245\365\n\276#\257<=M\3460\276s\211=\276\'*\215\275\247S\271=\235{N\276b\344!\275\250\354Z=\315]\235\275a\264=\276\317\360.>\0263\210\275\276O?\276\020\325\036\276\270yB\276\005\002[\276p\215\031\276\013\215K>T?=>\244L\362\275\036\037\030\276m$\030\276\213\222\010\275\357[L\275\321\030\307=\014\007\317<\304\r\t\276\273\360;\276f3M\276\341\270\252=\341bm\276\224b\360\275\2533,>a*_\276\277\342\213\275\302\275\t\276\356\252;\276sW\213=\003\023\205\275H7\367\275\014\330*\276\006D\272\275^\254\324\275\026\353k\276P(\007=,=\034\275y\337\207=p%Z<\342IA<(zc\275\223(\035=\010\222\272\276c\235\033<\203\254\020<\375\377U=_\323\022<.\252\255\276{C\273\276B\353=>\003\336\334=\n\"\017>\230\272\027\275\2402\014\275\356\316\177\274\233\350\203\276\260H\220\276\\\366\277\274\214e\276=\364\n\231\276\002\234^\276H2\253\276r\235\267\276\304\331\037\276\334\2331>\365\375K>\025\r*\276a\'H\275\365\364`\276\rb\232\276\330\204\231\275\362\207i\274`\261H>\024\220\302=\213,\344=\000\354\261\276\334*\023\276X\312\033<\240\206.>-\3113=`\363Q<\354\211\226=\375c\240\2768\313#\276T\221O\276\213\323\241\276V8M\276s\017\032:]\340/>\265\200\252\275L\320\017\276\234?\231\2756Ui>5\320u\276\321\306\003\276uL?=\002y\333\2730\303\003>\207\035\370=%H\353\275\035\224\310=\370\343\220\276\213\037\216\276\322\247\240\274 \317\244\275\005\314r\273\032\315\236=\200(\331\275B\377%\276\271\270H\276\200\231\240=u\255h<\267\003.>\320\277\277\275\313\237\246\274\255\035)\275\332\250\330\275%F\037\2756\003\257\276\230\333)=u\006\215=t\337[\2766\326\360\275\270\305\235<\333\215\014\276\215{\217\275Ks\310=\022\343.=d\264\217\275\006\005k\276\305cx>\220\242\002\276P\230F>\374\027[\276\371\363[=\001\242\262\275\370\322:=\265\024\350=\310si\275e\366\006\276}\254m\276\303\004l\275\3645\227=nJ@\273v\354\344=y\3462\276/.8\276&\2767=\220\257c\2753uZ<\323\007\023\276\234zi\276\363P\306=\215\215\337\275\301\275\311\275)\037\335=Wu\177\273Pe^\275O;\211<\341@\206\276n\327*>\036\224\000>\260|\260\275\236\217\207\276\356\342\222\274\006\030.\276(\221\257\275X\376s\276@\364\330\275\355\357\251\274\231\350\226\275\000\341\036\276\216\272\014\276\nA\003\276\246W\303\275\205\360O\276\t\377F\274$\227\027\276\216\335\017\276\372\223P\276\352\030}\276G\026\264\275z\364F\276\263#N\276\t\255\000<\033G\213\275\236\r8=)\252\362\275\225C\331\274\037\t\224\275\320\374\221=\277\332u\275 \365\325\274w\327\261\275!\010\236\276\003\222\224:\236\207\216\276\205\207\275=\337p\243=\013\tp<)\010\251\276!\326k\275\t$\354\275\261\205N\276\005\243\211=\014\007\224=\271@n\276o\230\207\276\017-\031\276^\317\023>\360pu<9\323\242\274\006\3114\276\265\333\226=\343\016\006\276\241\277\333=\204\247\261\275\350fe\276B\210\224<\n+\343\275\233\346\377<9\264^\275\377\274\251\276\177\037\253\275;\365-\275)\032\240\2757=\304\275\257\005\003>-xz\276\347\351\207\276W\302s\276\306\252\314\274\3741\001>\360}\024\274\331tg=r}/\275\373FZ\275\266\211\300=\025\356\375=O\354V\275\213\250\260\275p<\240\274\366\364\277=W\365b\276R\222 =\213,=\2760\207?\276\254\201\214\275W^y\2754\231S\276*3\030=Wj5\275\366\375\317\275\326&\312<\342\360\343\274\364\205\n\275\264\3436>zLN\276\234\335u\276\2711E>\r\262\204=\341\256\302\275rg\327\275<\207.>\250*}\276\271\017\231\275\2301\226\276\275\224\213\274I\354\224>w\022\036\276\270\021\257\276\257\244\223<\260\243d\276\346]D=\036\177z\275^\027\317=\361\311\202\276\010j\215\275\276\255$\274`\rr=k/\353\275\324#i\275\'.\275<\346\005|=\275\n\245\275P\014:=[\2716\276YC\003\276\352\362\020>\201\343U\275\317\024\035\276\220\t>=\026\023<\276c\204l<L\266\203\274\032\203\340=\'r\201=V\373\302\275\361HE\273\265\305\013<A\340=;\231\235\246<c\002\211\276\271\360Q\276\304\342\247\275\234&\343\275H\371o<\305\366+=\350\235\304\275\035\024\013<\3063\035=\307\311\221\275E!\275\275v\276\205<qG\347\275\352\313\355\275\344>\335\274A\234\333\275\204\331\212\275\320\315\265\275\363\227\006\276|\200\261\275\351\267C\276\214/=\276\224\306@\276p|E> \250\001\276\264v\036<d\272\241\275HpU>IA4\275\325\260Q\276\310\300\246\275/e\276=\2624|\276\270m\027>\251\231\220\275\323\374\267\275\245\324\035> ^\031>^\034;\276\205\2522\2764\255\245<bV\343\275.\316\016=\243N\322=\303\325*\276$\002\010\276\314I\305\275\020S\004\276\27310\276\222\264\247=\0043]\276M_&\276s.\313\2757T\026=}\034\213\275C\222S\276\373\'\025\276w\337@\275\026X\236\274<\261\026>t\277;\275\005\000\217\276\312l\025\276$z`\275\013\312g\276b\3560>#\375F\276j8w=lv/\2748\325\266\274g\370\000\276\306\361\203\275\344\370\345\275k\320i>n\246m\275\341\323v=\361i7\276\345>\244\275%\311\245\275\034\035\201\275,\026z\276\336\335\222=\345z\254=\247^\305=5\020x>pJ<\275\006\360\372\275~N\364\275\302v\214;\225* \273(O.>\347]T\276\367\361V=`\331\177\276\244Q\025\276v\277@\276E\2229\274\303\273|=\364\346s\275s\000\004\276\317Et\274\211\031\226\276I\\p\2762B[\276Fs \276J\316S\275\205L\231=\200\230\026\276xM\'\276\316\366\272\275\331\341\256\275\322\331\300=\033\271\370<\r\2262\274#X><\017\372\351\275|n;=\263\343`\275\317\356\261\274\353\nd\274=\225\036\276\314\222L\276f/N\276b\273$>.\225T\276Af2>\r\303\251=\343\323\001>/\371.\276\016\020<\276s\361\232\275\036\324\355=\236\010-\276\352\230z\273o\372\t=\221\036\002=\304\010v\274?\t\033\276\242\027\025>-\007\024>\341\252L=R&5>\177d\263=\022|\206\276mPb=\030\001\254\275\332\260\020>c(\335\275f\346\215=ZX`\274\310\223\211\272y\246J\274N\346u\276\023\317\201\274\302\206\005>\317\231g\276\264H\243<\211\312\223\276&\200\310\275\355\347\305\275?*y\276T\232k\2767CF<\307\360 \275\347Vz\276\266\271:\276?\340\323=\322\032f\276Z\264\210\276\275\\\301\272F)6\276\002Ja=\326Cl\276\0358\002>+\342\335\275\305\006\223\274Y){\276\250u\033>`\371\307=\254w\004=C\261\374\275\2623P\274g\324\246\275\305\253\023=\023\020\030\275\253\232\274=\256\304\363;\317*4\276\010\264\016\275\3305\326\273\340S@<\257\360\340<w0\323\275\321\267\245\274\013\206$\274\263\3139=\277\"\2659Sg\234<\335J\004\276\364\312\036=\235\225\234<85\205\276\255\372%\276\236\300h\274G\311\016\276\331\256\002\273\367\021r\2769w\230\276E\356\244\275\350\235\277\275,o\010\275"
      }
    }
  }
}
node {
  name: "FCN/dense/MatMul/ReadVariableOp"
  op: "Identity"
  input: "FCN/dense/MatMul/ReadVariableOp/resource"
  attr {
    key: "T"
    value {
      type: DT_FLOAT
    }
  }
}
node {
  name: "FCN/dense/MatMul"
  op: "MatMul"
  input: "FCN/dropout/Identity"
  input: "FCN/dense/MatMul/ReadVariableOp"
  attr {
    key: "T"
    value {
      type: DT_FLOAT
    }
  }
  attr {
    key: "transpose_a"
    value {
      b: false
    }
  }
  attr {
    key: "transpose_b"
    value {
      b: false
    }
  }
}
node {
  name: "FCN/dense/BiasAdd/ReadVariableOp/resource"
  op: "Const"
  attr {
    key: "dtype"
    value {
      type: DT_FLOAT
    }
  }
  attr {
    key: "value"
    value {
      tensor {
        dtype: DT_FLOAT
        tensor_shape {
          dim {
            size: 32
          }
        }
        tensor_content: "\037A\002\275\260\306;>\014\366\253>\022\031\343\273;\2636>n\016\273\273\214\232\023>\\C*\276\277\377\322\274\243f\034\275\353\245\026>\013\304\035>\322\206e>\235\317\230=\365\000B=^\373\244=\2622\251\275\247\365\023=\336\014S>a\216P\2751ZP>\301}$=n\321h\275\355\"\257\274\313m\320=9\236\214\275\3108\014\275 \'\346\274g\227->U?\006>F\033\n\275\316\231\362="
      }
    }
  }
}
node {
  name: "FCN/dense/BiasAdd/ReadVariableOp"
  op: "Identity"
  input: "FCN/dense/BiasAdd/ReadVariableOp/resource"
  attr {
    key: "T"
    value {
      type: DT_FLOAT
    }
  }
}
node {
  name: "FCN/dense/BiasAdd"
  op: "BiasAdd"
  input: "FCN/dense/MatMul"
  input: "FCN/dense/BiasAdd/ReadVariableOp"
  attr {
    key: "T"
    value {
      type: DT_FLOAT
    }
  }
  attr {
    key: "data_format"
    value {
      s: "NHWC"
    }
  }
}
node {
  name: "FCN/dense/Relu"
  op: "Relu"
  input: "FCN/dense/BiasAdd"
  attr {
    key: "T"
    value {
      type: DT_FLOAT
    }
  }
}
node {
  name: "FCN/dropout_1/Identity"
  op: "Identity"
  input: "FCN/dense/Relu"
  attr {
    key: "T"
    value {
      type: DT_FLOAT
    }
  }
}
node {
  name: "FCN/dense_1/MatMul/ReadVariableOp/resource"
  op: "Const"
  attr {
    key: "dtype"
    value {
      type: DT_FLOAT
    }
  }
  attr {
    key: "value"
    value {
      tensor {
        dtype: DT_FLOAT
        tensor_shape {
          dim {
            size: 32
          }
          dim {
            size: 16
          }
        }
        tensor_content: "\210\rz\275X\324\234\276\340\376\223>c\301\225=\211\273a>\355:T>\355\270\004\276nzG>\311y;>\211D\241\2768\203T\276\3566\225\276\257\377N>wP\030=\033\371\247\276\001\2700\275\017\360]\272\\uY\276z\327\210:\214R\221\276_m\252\276\367\311\362\276\235\302G;\254\364D\274\270\203\223\276\227\373\037>7Zd\276X\245R\276\366\277p\276\362\004\320>\322z\263\275H\261\222;\226\022\237\276j\016:=\310Y\222=p\264\251>V\226\001\276Sid=\320ah\275\344\326\220\276\323\374\205>\007H\003>\022b\037\275L\314\236>+\327<>\036J\351<\023\366P>\252e\276\276\2179\037>\345? \276\365Al>\330\363\363\275\377\335_>v\272\333\275\257@U<\201kh>\370\np=\245\354\311=\032I\220>\017\212;\275\271\330>\276\276\030\242>\023\3369>\316\274 >\365\017\201\276V\005\250>\036\242E\276({/>\351z\246\274\030G\226=\237\3702\276\351\215\233\276y-\244<a|\215\276\207\003t\276\367\236k>.\355\244\276\225kk\276_q<\276\365\343\253\276\301\n \276v\374h=4\3539\276)\257\322\275\340\240j\276\031L\304=\256R\241\276f)s\275\205\206\220>\361\361T\276\320+\233\276\264\317r>Q\013\206<x\311\256\276\244#\263\276\343\236\217\274~\345\243\276\035`\264\274,@\304\274\260\347\265\274\310\236\261\276\262&Z\274o\037\223\274\"\302\002\274\263\335\257\274\302\365W\2741\366\237\276[\242\233\274\333\261\225\273C\360\227\276g\321\203\275C\234\216\276|)\347<\310fA\275\360\003=>f\220x\276\233\366[>\'\270\225\276j\344\203>\235k\233=\214\000\333\276\236\372\220\273\360*\'>\274\244\177\276\271Q,=\253\365|\276\335\251\221\276%%\331=\031\346:>R8 \276\222\016F=\"\220\340\275DQ\205>_O\271<\264\366.\276v~|>\037js>\326\\\224\275\330\251p\276_V\013\276\313\'~\276\376w=\276y\247I\275K\201{>oz)>\210W\224\276\277\032\264>\"]V>;\270\237\276L\232\352\275\037j\344>\013\254\201>\034\036\203\276\224\320Y;/\201\177>w8\272\275\365|\330=\222\3736\276\016\322\313\275HC\276>%\211P>}\2719>\321\245\220\276M<\006?{qu>]\360\260>\034l\017\275\245\331\336\275\375\214\004?\247\022\317\275\3420p\276}OY>,i\313\275\364a%>3|{\276\347\313\026\276G@\210\2762\330\200\275\311\213u=\206\274\253=]-\247\276\247<\0339\362\243\220\276\010<\236\276\0146\203=;\037\025\276DN\210\276\256@\265=2\237N\275\371\022\261\276T/\212>2\360_\276\001\304\262;\324\035\031=\251~\252\276\354\325^>\017+Z\274\000\025\250=\224\330\272=N6\302\276\2421\320>\037\3249\276\365\031+=\315\220\375=\014\241\025\2763HY\275!\244\247=<%\273=\221\264\210>\210i\013>\035+\262>\327S\252\276\3173\263\274\235\231\202\275\010 Y>\3724\265>5\324\227=\rv\311=\337\352\225\275.\\g\275H\010C=u\014\324>\332{\004>\277$\">\022\226\237>\361+O\274\341\302\241>\351L\206\276jY\227>{\276\020>\351,*>}R\305=\220w\021\276\367|\245>\333\371\322\275VK\201\276vFu\276,X&\276\035X\272\276\207+F>\240\314&\272\034&W\276\327\242\206>\375m;=w\rP\275\310\305\201\276E\307\233>\253\340\217>\025:0\275\177\340\236>\372\303\367;7\201\021\276n-M=[\262\035\276\311\335\211\2762\255\301=\323b\312\276\3208\224\275\332V\303\275\035G\326=\234\315x<\216f\350\274\313\024-\276Bj\211\274\243\251G>\300\331\305\275\"T\230=\223\235\t\276Bl\201\276\304\014\200:A\344\366\2755\312\211\275\263\264J\2764\272+>\327\244\272\275\304Q\206>\1779o\276\031B\t>\225&\241\276\333\264\005\276u\333\n\276\014\360\351\274\324\254\326\275\255\301,\275\004\371-\276\231c\272<2\207\021\276~\274\243\276\301\360L\2763Qz>\225s\360=\007,\\>\2353\307\275&\024->&\276\264\274\363\016\031\276\276n\241>\326\254\211\276\356\2632=y!\343=k\271|\276(\374`\276!\344Q>\023b\223\276O\027\035>0@)\276\003\001\322==\005\313\274s\006\270\275VZj>\177\021.\276F\373h\276o\335\236\275\271\237d>k\021_>uP\244>\363\335J>\224\330\206=\037\372p>\217\273C>\204\357\216<\367\234`=\354Y,\276\334A\267>\335<9=&\014y>\354\000w\276\363\023\324\275\017C\246>\300\214\260\2758\245i\276\223\274\221>\207\224\206\276t\252\262\276j*\266\276\337\340T\276u\363\335:`2L>\202\n\247\276\305\366\344>4\341)>\025z\326>\214~\271=\202\362\004\275\025M\001?\216l#\276X\216u=\322\344\263>\222\351\240\276\203\375\021\275\206\274`\275^M+\276\227\3167>c\220\034=x:\213>\0208\000=[\362\344\275*\035\222\276\023\351\362=\332\237\244\275\335\331\026\276\3308\007\274rF\250\276\022\275\246=\2318&>:Xp\276\301\025\211>p;\202\275\205\013/\276\210O\267\276\367-\216=\334\301e\276\377\352O\275\033\327z>k\205\215>\206n\205>D\220{>\2122\262=gJ\315=hR\177\274\275\243t\275:\340U\275uF\350\275\220^\311>>\243l>\300\311\230>\0137\340\274b\310\211>\033|\205>U0Q>\353\352\246\276\203,\">,\014\262>v\341\025\276\326\204\016\2767~\207>9\353\245\276\n\342\207\276\010G\210\276\037\020\343=,\226\331=\031k\253\276\377A \276\256\225\025>\023e\225\276K\273\200\276\357\025\205\276\255\361(\276\253T-\275\262\004\212\275\263\026~>\345\324\222>\301c\324=\345\225\001=\004\263\004>\312\243I\2767\263\200> \353\021\276\261\200\013>\024\310v\276\027\335\031>y\246+;B+\276=\0363\271>\031\332|>\242M\211>\323\227\337=r\241k\275 \366\240=\376\3557>\372\215\220>\256I\211=\321\2535>D~\223\276\231\216\366\275R\035T=W\322\326\275a]\177=\255\205\313=\255\374\027\276\340%U\276\231\321a\274}\205|\276\324\342\330\275\244\210f\276\025}\256=|\217\232>\265 \204\276X\254\034>\244\303\022\276\374x1><\234\243\276*\211\214\276P\2453\276\222\3250>O\2444>\215\303\313\276\305\306\353>s\347\205\275\274\244R<\364l&\2767\350\227\275M\310\214\274\241&\240=\000\322\232>\002\272\377;\357&\345>\252\206\245\275z\224\234\276y\001\245\276\337\222;>;:\212>n\231.\275\274\240\364>N\376D>\303\272l<\241;\276\275\332\2345=\307\320\222=[\236[>gy\014\276r\373%\275\031F\277>\276\004\220=>\275\375\2750)t\276\034*\316;\250j\017>2a\034\276d\004\231=\217\024D>\320g9\276p\256N\276\373x\237>\304\347\353<\364\231\000\276F\327+>]7\005\276\233\266\334=5\201\234=\220Zl<\332e\336\274\037\213\304<\367\356\002<\220Y\226<\347\027\271>\277\241:\276R\n\277\2744\355\026>2\312\202>\301\375\035\276]pb="
      }
    }
  }
}
node {
  name: "FCN/dense_1/MatMul/ReadVariableOp"
  op: "Identity"
  input: "FCN/dense_1/MatMul/ReadVariableOp/resource"
  attr {
    key: "T"
    value {
      type: DT_FLOAT
    }
  }
}
node {
  name: "FCN/dense_1/MatMul"
  op: "MatMul"
  input: "FCN/dropout_1/Identity"
  input: "FCN/dense_1/MatMul/ReadVariableOp"
  attr {
    key: "T"
    value {
      type: DT_FLOAT
    }
  }
  attr {
    key: "transpose_a"
    value {
      b: false
    }
  }
  attr {
    key: "transpose_b"
    value {
      b: false
    }
  }
}
node {
  name: "FCN/dense_1/BiasAdd/ReadVariableOp/resource"
  op: "Const"
  attr {
    key: "dtype"
    value {
      type: DT_FLOAT
    }
  }
  attr {
    key: "value"
    value {
      tensor {
        dtype: DT_FLOAT
        tensor_shape {
          dim {
            size: 16
          }
        }
        tensor_content: "0\364\310=\365G\241=\351+i>\270t{=\316\273\207\272d\251 =g5y>\377\335Z>\277\303\n=\326Em>^\315\305=W\321\343=\373\006\306=\2010\242>\2220\001\276\t5\'>"
      }
    }
  }
}
node {
  name: "FCN/dense_1/BiasAdd/ReadVariableOp"
  op: "Identity"
  input: "FCN/dense_1/BiasAdd/ReadVariableOp/resource"
  attr {
    key: "T"
    value {
      type: DT_FLOAT
    }
  }
}
node {
  name: "FCN/dense_1/BiasAdd"
  op: "BiasAdd"
  input: "FCN/dense_1/MatMul"
  input: "FCN/dense_1/BiasAdd/ReadVariableOp"
  attr {
    key: "T"
    value {
      type: DT_FLOAT
    }
  }
  attr {
    key: "data_format"
    value {
      s: "NHWC"
    }
  }
}
node {
  name: "FCN/dense_1/Relu"
  op: "Relu"
  input: "FCN/dense_1/BiasAdd"
  attr {
    key: "T"
    value {
      type: DT_FLOAT
    }
  }
}
node {
  name: "FCN/dropout_2/Identity"
  op: "Identity"
  input: "FCN/dense_1/Relu"
  attr {
    key: "T"
    value {
      type: DT_FLOAT
    }
  }
}
node {
  name: "FCN/dense_2/MatMul/ReadVariableOp/resource"
  op: "Const"
  attr {
    key: "dtype"
    value {
      type: DT_FLOAT
    }
  }
  attr {
    key: "value"
    value {
      tensor {
        dtype: DT_FLOAT
        tensor_shape {
          dim {
            size: 16
          }
          dim {
            size: 8
          }
        }
        tensor_content: "u\300\341>\3570w\275\304`\352>\337C\003?@\364\372<k\326\225\274f\261\027>\270\002\277>:\271\203\275\033n\004?\345\340-\276\341Z\000\277\361<\244=\345\355\274>\026\373\354\2765\236s>\333+e>9T\254\276\355\035Q=^b\343=s\372\371\276O\370\024\277\371.=>\303\316\205>5\223l\276fa->\347,\354\276pQ\327\276\243\231(>\327\005\014>\255\376\250\276\220\025\226\276\024+\326\276\351\206\333\276n\331\322=\034\023\322>\"\264\317>\242\325\260=\241\353\035=2\341\251>{\254\230\276\245\261\311>QUH\276\346\346?\276;\000\225>\312i`>r\'\335\276\310\022\352\276W\313_>s\355\246\276\007\002\235>}\n\242=\377{\000\277\033\006\246\276\262\242\245=\317\264\304>\005\241\233>\275\336\343\276~E\372=l\253\000?\370\370\274\276\344H\204\276[\363\342=\263\355\243>0\277L\276\232J0>w\r\214\276\014F\017\277\352\216\034>\231\353\r>\t\311\244\276\324\373\240\276iHP>t:\223\276\221[,=\214\016\273>\252\'\r\277\005\274\"\277G\017\357=\237O;>\312\265\367>\360\354\333\276y0\240>\340\014\347>ZE\231>\323\332\207=\324\205K\276N\335+\276W]l\276\267\273)>\200\206\020\276:\254]\276Q\033I>~\363?>\275|\376\276\355\370\233\276I\224\016>\225M\200>4z\342>&\307\265\276\354}\304\276\336\303\227\276[\306\020\276.\352\330\274q\024&\276\263\325J\276\204\240l>\373\256\240>\200\306\206\276%n\257\276\373\243\366=L\243d>\005\267\307\276\323\374\335\276\323\257\010\274\333\035-=\001\346X\276\355\001\346\276-\"u\276n\344\255\275u\243\372>q\304\r\276sk\340>\217<\245>\301\362\350\276?w\004\277\036\232\205>FX\r="
      }
    }
  }
}
node {
  name: "FCN/dense_2/MatMul/ReadVariableOp"
  op: "Identity"
  input: "FCN/dense_2/MatMul/ReadVariableOp/resource"
  attr {
    key: "T"
    value {
      type: DT_FLOAT
    }
  }
}
node {
  name: "FCN/dense_2/MatMul"
  op: "MatMul"
  input: "FCN/dropout_2/Identity"
  input: "FCN/dense_2/MatMul/ReadVariableOp"
  attr {
    key: "T"
    value {
      type: DT_FLOAT
    }
  }
  attr {
    key: "transpose_a"
    value {
      b: false
    }
  }
  attr {
    key: "transpose_b"
    value {
      b: false
    }
  }
}
node {
  name: "FCN/dense_2/BiasAdd/ReadVariableOp/resource"
  op: "Const"
  attr {
    key: "dtype"
    value {
      type: DT_FLOAT
    }
  }
  attr {
    key: "value"
    value {
      tensor {
        dtype: DT_FLOAT
        tensor_shape {
          dim {
            size: 8
          }
        }
        tensor_content: "\032\021\317>}\364\302>B\177\227>\356o\356>!+\315>\372,\320>\r\030\376>\006m\325>"
      }
    }
  }
}
node {
  name: "FCN/dense_2/BiasAdd/ReadVariableOp"
  op: "Identity"
  input: "FCN/dense_2/BiasAdd/ReadVariableOp/resource"
  attr {
    key: "T"
    value {
      type: DT_FLOAT
    }
  }
}
node {
  name: "FCN/dense_2/BiasAdd"
  op: "BiasAdd"
  input: "FCN/dense_2/MatMul"
  input: "FCN/dense_2/BiasAdd/ReadVariableOp"
  attr {
    key: "T"
    value {
      type: DT_FLOAT
    }
  }
  attr {
    key: "data_format"
    value {
      s: "NHWC"
    }
  }
}
node {
  name: "FCN/dense_2/Relu"
  op: "Relu"
  input: "FCN/dense_2/BiasAdd"
  attr {
    key: "T"
    value {
      type: DT_FLOAT
    }
  }
}
node {
  name: "FCN/dropout_3/Identity"
  op: "Identity"
  input: "FCN/dense_2/Relu"
  attr {
    key: "T"
    value {
      type: DT_FLOAT
    }
  }
}
node {
  name: "FCN/output/MatMul/ReadVariableOp/resource"
  op: "Const"
  attr {
    key: "dtype"
    value {
      type: DT_FLOAT
    }
  }
  attr {
    key: "value"
    value {
      tensor {
        dtype: DT_FLOAT
        tensor_shape {
          dim {
            size: 8
          }
          dim {
            size: 2
          }
        }
        tensor_content: "\370\315L\277\364\346j\276\220O\331>G\335\363\276\010\334\244\276:\021\305>\01754\277\276Am\276[\261\206?b}\240\275B\232w>\354\264W\277\371U\025\277\315q}>\337(\353\276S\362\245="
      }
    }
  }
}
node {
  name: "FCN/output/MatMul/ReadVariableOp"
  op: "Identity"
  input: "FCN/output/MatMul/ReadVariableOp/resource"
  attr {
    key: "T"
    value {
      type: DT_FLOAT
    }
  }
}
node {
  name: "FCN/output/MatMul"
  op: "MatMul"
  input: "FCN/dropout_3/Identity"
  input: "FCN/output/MatMul/ReadVariableOp"
  attr {
    key: "T"
    value {
      type: DT_FLOAT
    }
  }
  attr {
    key: "transpose_a"
    value {
      b: false
    }
  }
  attr {
    key: "transpose_b"
    value {
      b: false
    }
  }
}
node {
  name: "FCN/output/BiasAdd/ReadVariableOp/resource"
  op: "Const"
  attr {
    key: "dtype"
    value {
      type: DT_FLOAT
    }
  }
  attr {
    key: "value"
    value {
      tensor {
        dtype: DT_FLOAT
        tensor_shape {
          dim {
            size: 2
          }
        }
        tensor_content: "\023\352\031?\034\352\031\277"
      }
    }
  }
}
node {
  name: "FCN/output/BiasAdd/ReadVariableOp"
  op: "Identity"
  input: "FCN/output/BiasAdd/ReadVariableOp/resource"
  attr {
    key: "T"
    value {
      type: DT_FLOAT
    }
  }
}
node {
  name: "FCN/output/BiasAdd"
  op: "BiasAdd"
  input: "FCN/output/MatMul"
  input: "FCN/output/BiasAdd/ReadVariableOp"
  attr {
    key: "T"
    value {
      type: DT_FLOAT
    }
  }
  attr {
    key: "data_format"
    value {
      s: "NHWC"
    }
  }
}
node {
  name: "FCN/output/Softmax"
  op: "Softmax"
  input: "FCN/output/BiasAdd"
  attr {
    key: "T"
    value {
      type: DT_FLOAT
    }
  }
}
node {
  name: "Identity"
  op: "Identity"
  input: "FCN/output/Softmax"
  input: "^FCN/dense/BiasAdd/ReadVariableOp"
  input: "^FCN/dense/MatMul/ReadVariableOp"
  input: "^FCN/dense_1/BiasAdd/ReadVariableOp"
  input: "^FCN/dense_1/MatMul/ReadVariableOp"
  input: "^FCN/dense_2/BiasAdd/ReadVariableOp"
  input: "^FCN/dense_2/MatMul/ReadVariableOp"
  input: "^FCN/input/BiasAdd/ReadVariableOp"
  input: "^FCN/input/MatMul/ReadVariableOp"
  input: "^FCN/output/BiasAdd/ReadVariableOp"
  input: "^FCN/output/MatMul/ReadVariableOp"
  attr {
    key: "T"
    value {
      type: DT_FLOAT
    }
  }
}
versions {
  producer: 175
}
