node {
  name: "input_input"
  op: "Placeholder"
  attr {
    key: "dtype"
    value {
      type: DT_FLOAT
    }
  }
  attr {
    key: "shape"
    value {
      shape {
        dim {
          size: -1
        }
        dim {
          size: 22
        }
      }
    }
  }
}
node {
  name: "FCN/input/MatMul/ReadVariableOp/resource"
  op: "Const"
  attr {
    key: "dtype"
    value {
      type: DT_FLOAT
    }
  }
  attr {
    key: "value"
    value {
      tensor {
        dtype: DT_FLOAT
        tensor_shape {
          dim {
            size: 22
          }
          dim {
            size: 64
          }
        }
        tensor_content: "\037d\207\275\365S\355>_z\215\276\373\230\\\276\334\020\316\276\t3\250\276\207\366\312\274\204\340\262\275.xJ\276\335\'9=`\036\201>!I\212=9E\204\276m\'\004?M\257\027?\234\220\256>{Z$\275\257u\205>o\031.=\232\247!\275\3535\"\276H\021h\276\t\265\301\275\263B\027\276\303\215\005\276\206\006p>\304r\242<\250\027#\276>\310=\276U`\017\276k\267I=\003\255?\274\320\323\212<%c\341>\025\320\334>\350\0077>(\355\203\275\360a\021\276\003D\034\275\007\346\360=\2439A>\215\352`>\375C\304>v\205\242=\023\361|\275\334\247\004\274\225\022\017\276\0370\276>\254\365h>\371\372\236>\t\230P=\207\031\016>\245\244\001\2763\223M>\\\310\244>\206\347\334<\351\207\022>\341\327\006\276\226\226\222\276$x)\276\342\260\323\275\257\307\246<iA\252\275\344\023\213> Tj>~8+\277\216fi\276^\333>\276N\003.\276A\374_\276\327\274\336\275\3653\370>\247A\005\276@\325\004>\'Id\276Q\310\205>\tc\003>E\3211>\340\344\317\275\373\252\177=A\374X>\333~\214\276B\301\225\276\364\370M>ac\"=r\352\"\275\"\223\013>\tpL\276\3010\001=\313\377m>\022^\357=\353\334V\276?v\334=\376\217\276>\361,=\276\256\304S\276l\\\014=D\317V\276\223\254\201\277\265\320`\276\242\327f\275\230\254\002?O\314\340\276\270\257\201\274)\266$\276t\021\220\276.O\370=\251,\310>\267e\353>\024^\003\276\277B\273\275\333\211\304=\304\227\354\274\263>\301\275\t\307\302=\273i\365\274\2343F>\324[\025?\370\356X\276G:[\277vs\322\276\200\026\354\274\005\3679\276\3732\351=\337\230R<\014\201\235\275j\345\234=\031m\252>x@k\276\014J\263>\322\200\273\275K\002\317?r\t\374>%\006\357>J\367\010>\246\322_>8\024\014=\220 \373>\273\336|?_\323\355>\2061V\273\252\3500\277\300\013\372=\032\214I\276\224\315A>\027\242\215\276~\"d\277@-\005\277{f\233>\014\245\3539%\317\270\275\352\013\347>o\273\234\275\361\321&?\265\214\325\273>y\317\275\000\314\370=\217;\255=t\314L\276\021\354V\276Gq\250\276\023\035\363\275m\257\361\276\033P+>\231,\001?\365>D\277zSP\275B\372\256=wr\332\277\272d\206\276\033\225F;W\327\206>\334\002\271\276\253\231\001\275\345(\210<\337\213l?V\246\227=)u=\277d\253\232>u\300~= \037\007\277\031\210\274=\374J\010\276\032\344\232=\351NO?Q\327\276=\003\332\227>\004\337\322>\257\342w>\213\002\347\277_+\035>+_~;\303\241M\276\2050\n\277\206\305S\276\232.\251?Yo\256\275/R<=\0042\005\276\025\261,\275\335$\013\276d\252\\>\273\322\254=\027\307\236\275\360[\206>\336\261\'\276\230\202E\275\250\260\264=.\330V\276S^\237\276\323\373\266\276\247\000\222<C\330\n\276\376\"\010\276\342D\026\276<\004\252=\214I\213\275c*\355=\272\016\320\275\036\225y>\010\302\223<\253\210\231=\335\212#\275\\\2537\275A\021j\276F\325)>\264\262#\277\004A\277=\303\267\200>1\231\035\276l\244A\276G\353,>\001y\013\277\025]Z\276{~0?\006\304\014=+\271\310\275 >z\276\025\2455>Xl >\341Rj\276T8_\276#>D\275\260\200t=4\273%\277\207\000\327\276\220\004\033>h\306M>\367Y\032>\314\361,>T\276\001>\007\036\246\274\251\201L>\237}s?Az\212=d\303b>05\216\276\370\217,\274\333\254\364\276\201\262\266>?U\336=S\240\221=>\224\251=\312\020w=\271] =\314\nc\277Sp\234=\211&\n\277\214\307\010\273\323\237\001\2764|\210\276\245\264\034\277_T\004\275\312_a>i{\227>\027?\031\276\223o\314\275\202\246\031\276\246\373\177=\016\2352\277\333o\332\275\366 \026\276\254\345\253\275$\0363=\264\037\324\276^p\360<\213\362\327\276\200\376X\276MXR\275\362\330A\276\250\257\363\273\360\204\003=`N\260=\366\235\327\274\202S\344=\253l\035:\361\322\014>r\362A\276\375\232\365<\362-\201\275Y\273\354=S;\n\274\212\217\304<&\277\024>\030\252\334\276\274\276\226\276c\237\026\277?8z\2760L\211<\313\246\025<\216\327\306<\030\031\256>4FW>\230b\360\275Ec.\276\224\301\337\276x\032\017\276\312\320\263;N~\033>y9Q<k\335Q<be\326\276\"\033R\274\210:J\276\2476\020=\261zh=\\\360\210\274\345\204\232\275%\201\333\275\262\247\024>|\007\026>\236(\204\276+/\033>\341\222\340<J\032\267<m\367Z\276\020w\371\272\320<\013>J\346\223\274F\304/>\336(\010>\356f\325<\033\376\307\274\303\005\367<\275\006a>\337`\301>\260\245Z\276\\O)\275\2525D\2768i8=s\341G>\262\230\020>\334\325~>\346\376\246\274\326PN\275\275\321%>\035;\202>\375\031!\276\343g\240\276\242\004r=i\343\305=R\330y\276>\013<>\301[8\276e\000z>\202T(>b\277!>Y\025\220\276\243l\201\276\r\213\242\275\350e\010\276\202\3076\276\030q\031\276\020U\354\2747\272\n\2765\232.\276\r\347.\2760\311(\275\353\353r>2\204\203\276\037\014\036\274\312X,\277zz>>-_\017=*,\200\276\271\255~\276\262\037\340\275B\351*\276\341i\352\275G\r\377=^\2763>\207s\026\275\327\204I=\205\304\323=x\221\025=]\241\250\276\366\337:\276\007\334\201>7\367\204>\177Za>\317g2\276\354\035\204=\311\032@<\251\211\004=\223H\303=M\206(\276\373\323\005=\006\214\320=\213\317c\276{\032\213>H\305[\276\345\217\020>\213m\031<\333\365\230\276\277\366\267=+\237^\276\202t,\276\307\335?>\304\010\343\274\267y\247\275i#\250>\220\265o\275\366\023\014\276\350<\200\276\032C\214=\201\276I>\321\005\026\276\031\n\213>\035\265\371\275\200\340B>\263\220(\276\337\326\214\276X\343R\276\216\253\206\275\312a\230=v\335\020\276\352\210\216>`\333\214>X\315\222>\022\245\333=9FM\275\301\3611\276iyd\276\372\240\324\274W>f<\323\340\263\276\226\316D\276\r\244\305=\326\\N=\213\2352>7\315\033\276\031H#=t#[\274,\310r\276\022\031\'>\013\362\244\276\002\230H\276\365\021g\276.\355\316\276\n4{>v3.>i\232\016?\036s\261\276\001\031+>A\335y>\035\017\216\2757\010\256>\354\351^\274\225&1\276{M\253\275/\202\210\275\235\030B\275\006^!\276\034\346y=W\034\213\276s\010W>\3362g\276UP6\276\376\203+=\027)\024>\243\333\233\275Cz\300>V~\346\275\331S\010>\177?[\277+9\226>\351\214\273>\252}:\276\333\\2?\374\203$>{\033\006\276\337P\324\276\027\216\007\277\323\201M\2741I\027=\243\t\210\275l\"\036\276r\276\202=\220 ?\276\200{f>\r\355v;\276\313\n\275\027A0\276\374!\007\276b\353\000\276\313\311n>\355\255\211>-\260D\276\004\233\345==\307U>\331\000\211\274F1\t>U\003%>\371\353\320\27639W\276\217\335F\277\366\347\206\276\205\370\303\274\241\357-=\325yW\277\363\3664>YZ\304<\352{\004\300\242\275\205<]))>\202\261\233\275\336\262\251>l\225\222=\\\213\254\275O\217)? \3607>\373\360\022?\275\355\235\276e\370\314<\311{!>\231\005K>S\225L>\036[W?0GU\276!\325\354=\333\273:>A/\354>\252\271\343;\374\252\315=^\314\210\274\234j\007\276\212\303\274>I]\364\275R\\\016\277h\013(\277\241\0009?UM2>g>*?,\327\306\275Y\273\n\275^\255\214\276S\341\205\277\305\024m>\237\363\305\275\266\261\300>xB[\274\341\354a\276n\347\010>^\336\035\275@bb?\277\213\312\276V\356m>\256\236e\275+\tF>\377\360\370=\203=<=]\020*\273\266\370\000\276\276\"\243\276D\230\361\275\001\313F=\306\211\275\276_\214\020?\030:Q>\031I\376>h\317\200>\363\010\252>\035\006\t\273+$\033?\3612\207\275\350\321\313\276vm\355?\3046o\276\331dP>\232s\214=\010P\305<\262\331\016\276\223o\'\276\364;{\275^\232\035\277\325S\270\276\324\247\220\275\300HV\276q\263/\276\0015B\276\320U\370:\202n\207\276\366\032\210>\220\205I<\255\342\013\276gt\204\277+\201(>\241qA\275\020\032[=\370\022\226\276\272A(?\250\267K>\377\004D\276\352\370\022?%\272E\276-\245\001\276\313\007\242\277\361\250\234=\332\373\343\276\314\331p>#\371\246>4\316O\275\346E\210>\337n\235\273!m\000\2731\251\310>\307\255\226\276=\275\314=\200{V\277\254\372$?\251\006f\276\\\232&>\306\320\013>13\267\275\203\332\034>\336>C=\317\220\031\275\271\301\274\277w\034\202\275\316\256\021\277 Kv>Yc:\277b+P>\2731\025\277\273a\207=A\335f\274Xk\276=\213,-\276\350X\007;\030\277\212>\334\333\372\277\352\244\002\276\237\254\203>\221\027]\276\357\352\206>w8z>\222\344:\276\326\233(\275\206k\254>\201\003\210>\365th\276R/@\276\316`5>2\262\353=Ro \276z\235\270>\366^\036>\034\240}\274 \356}>c\023\005?Q\261\006\274|!\242=\361l\351=-h3\276/\354\270\276\350\\t\273)\2545\276\337\233\245\276a\016\260>\232\231h\275\310\037\231?w\331c\276\3522\274>\273\270\314>*K\016\277\217{L\276+\373N\276\030\215\272>|\214#>\263\021\030>\326 D>\010,f=:/=?.,\360\275\30773=\241\216\273<&\372\336\276{X\016\276,\360\227\276-\020J>\"\354{\276\272\264v?\027C\205\274\321%\325>Q\261\334\274\021\036\362>!\261\036=?*>?>\257\221\273v\224{\276\203\3166\276\361\325\036>c\250b>\026\375\235\275\354zL?\202\313\026\276\277\025f\276\324\242\207>\350<\013\276\240\257\353<\361]?<>\242v\276\313\265\024\276\270n\241<\366\222\024\275T\220\254\275\034\250\016\276\031\344c>\036)\311\275J/\t\277\304\207\330=\214\000\036>X\024\025>\014dw\276\352\212\322\274\326C\343<\036\3534\276F\004\203>\262\316v><R\000=\261\227\370\276\001\250\010?\311\355\270\276gDn>\237\033\303=\365\223\'>\\\266U>1\336\371\276\225VS>\025\222\203=Fj\244=Y\242\003\276|\356\376\274\204\327s\276\330\223\">\336W\275\274\240\337\036\277\'\035\026\276\242\321\001>\267\355\'>\346\2407\276K\032\344\275V\316S=\n\256\222\275\303qo\276L\0050?\344\317\001\276\205\021\273\2746a\225\274\035*\030<\267B\217\274CG\343<\272\360\246\274%q[\274\321\001\255\276\362\217\211\276\366\216 \276\355\354\345\273\222\0176;a\213\236\273<D\033\275\362N\320\274\026\202r\276\200\322\024\275\354\033\342\275\010\247\256<\306\366\020\274\\\222_\275Z\267\241\275\3732d\276=\030\313\275\0234\323;@7h\27615\300\274\010\300\316\274y u\276Ef&\274\253\2047<\375U\010\273\365\001k\276\301\201\305\276\035Z\020\276\2269\325\272X?\251\276o\222*<p\016\215<\036l$\275\325o_\275on\302\272\261\373\201\2765\177\006<\200\027p;Hj#\275\202\024d\276\235\312\345\2757\323\352\275{\200j\276\021\030h<\333\030><~1\202\276\342\241\003=\373D\303\276\237\0052\276j\274\356<\330j\214<\026(\361\274c\261\016\275\254\236`\275F\361~\276\036\251\246;\260\037\222\276\207\323%\274\217\217{\275\341Y0=\003w\210=]vg\275E\317\304\275\375@\254\275\241v\241=\rp\213>\300\324\013\276\244G\326=\\y\352<j\013P\276~\203{\276\332\205\033\277Zf\010=\037Y\325\273\2518f\276,\335\002\275\t\034\r<\205\t5>h\363\210>N\256Q>\340\370\216\275\370\367\004=\260\233Z>4\240\260\274\t\023k\276\323\266s\276i\343\212\276\255\356\257=Q\345j\276X\272\t\276\361p\314>\362\255\232>\256\363\206\276\356\375\215=\0269\'>\212\341V=\220\t\204>&\257\365\276\265\3078\275W\215\222\275\255\317\031\277\307\327\021>\201,\232=r\'8>\334\364\\\2768\234\251\273\013\205g>\243wv>\013\277\314\274\007}\313\275\335)?=\004\372\332=\262\013\213\276\016Zk\277m\342\224=\003T\214\276\204r\224\2764Q\200=\236\235K>KW\211\273W\021\305\275F\353\331\274\266\034]\276\337\256\010\277&\000\245\275\250\201\337\276\312\235B>CR\340\2769\237X>ar\301>,\200\213>9\262\202>\362\254\243\277\342P\327=\016sl>\346k\r>\021\256\222\275vH\214\275<Bq\276\373\376\266>\333}\307>Lz^=~+\313\273)\0263\275\202\371\261<(\356\252\275\373\001U\276$\332)?\312\362\013>\323}O\276\320IG\276?.}?)T\034>\313\201\275\275\324a\221=`I\307>\2658M>\370\262\005>\266<\r\277vA\270\276\3751\\?\020\014\035\276\213\221j?E2\'>\203\354\026>\264\247>>\312\325\034\277\225\263o\276\375\344\024\276!(\237>o\351\271=.\207\036\276\370\341\022\275\326\364)\276\337\375\232?\360\007k=\211\243@\275\320\332\201>L|\210\276\nYy>\036\327\033>i\n\215\276Pm\010>\342\375\225>&*M>+\364\341>r\314\001=\237\340z\276\377\243\236=\242\010\314\276W\355\231\276\227\036\023\275\271\247t\276$m\275\275\240\375\307<#>\224>\337\333\033\277\374V\341<<M6=\0006x\276\014\'m\275\240\246\215<:\026/\276R\334\337>\271~B>L\034\007>-\033\226\276\333\001\002\276\032\006Q>:\377+=\214\227\250<\215\\5>&\353\202>.U\223\275\035\nQ\276\250\312g>3\3514>\344\353\340\275\240\276\274=$t\370<\334\251\214\274\353\344@>\245\342\013\273DZ\240\276\000\321\241\275\372\377,<\020\273\001?\372\312\'>cd\220>\363\234\036\275\242\277)\276\352\355\033\276sj\002>\315\210\007>)\"\263=\342\246\021\276T,\324\274,\376\007\276J\260\037?p\351I>\373s\241<\302}\233=\343\332\316<)\022\006\276kU\276\275\351@\024>\326\004\001>2\306\356;ED5\2766\232H\276\212AP\276\024a\200\275\247\223\032<\303\341\267>OD\000\275\365\202x\2762t6\276]\333\233>>\264(\276e\210=>\016b\345>\007\203\337\274U\337\203>.\222\310=\227.\235\275\206\215\313\273\230\330\372\275\260u \276\036S\210>d\340m\275\312\330\222\275\326#C>)\254\r\275I;I\274\257\017\202>\203\244{>\307|\205\274\327\231\377=\251%^=\267t\250\276\377\017\001\276M\356\307=\'\177\006\276\304\205~\275\370/V\275\037\227\r=\257\227\200\275\312\030\371\275\217\260\217\276oy\225=\256=\002\277M\311\254<\230\206H\276E%\333<\322>\376>z\313c>\212\003[>\324!g=M\342V\276\032\267\210\276f\272O\276\266\237\212=|T\002\276!\244\340=\034\220I\276\034\365\203<\010\267\201=\177zJ\276\247?\353;\007AY>\231$\261=\3209\037=\265\3210\276\365\250\300\276\340\335\245=\206\200\301\274\307\302\324=\353\336\027\276h\225\260\276\232\340f>,\215E=\242HN>\002\365\313\276Szx>\276\364\221=\340\2314?\210;Q\276\244\177$\275]\027\227\275\214\255\276>\2156\227\276\237\352g>\354\212}\27688\224\2754\246\216\2763t\204;\264(\347\274\234\023o\276\031I*\274\367\365\333>\342\267\222>\377\177|>\002\216o:5qy\275Z\237\346\275\364\373\262<63\245=3\016\022>\3257H\275fr\270=\373\327h>\3746\226\276+>\234\275\351;a=\226\332\260\277\372\225\301\273\236w\016>\037.G\275\247l\177>q\220+>\215\201\374\276f\221\'\277\206\273\032=Y1\004>\335\n\224<tU\347\275=\227\237\274\274\363\275\274\013-\242\275\272\t\017\276c_s\277\000\303,\276\330$\243=\376\024r>\t5\313\275\030\307\240\276\363\026\025>1\020\200\274\374\315\223=C\002)=\217\013?>\251k\204>9\000b>\350t\332=\313\222\234<\251\300\220\275\251\255\300\275G?\246=\336\347\203=\353\361\365\275d#\036\276#\372\205=\014\305\203\275\225E\376\275\373\235\265=\231\031\205>\025\224\320\274\344\256)=\022 \256\275\340\303\003=\313y\231>\"|p\276\360\347%\276&[\002>7\224\t\274\327`6>\204\236\037\2768\370\241>\251#\212\276\274\273\227=\2432\303\273\363@R\275~\274\355\275k\271\214=j\277\203\276\271\033\342\275\211#$\276*Ky>U\336\241\275\321\330P\276\217\271+=\002$\376\275#\276\007\275g*\324=}\t\207\276\222\3547\2768!8=o\361\372=\373\341@\276\177\325\312\273\373\362X\275\373\272\336=0\200\354<m\261\033\276\200\253Q\276=\362\024\276dP\225\275W\036^\276\330BJ\276\350\335\214>\361I\200>*\220\031>_\263[\276\272\372%\274\276\336\335\275l\354\025\276\247z\227=\020\367\247\275\331P\216>\026\337\372=\001\037J\276\223d\216\275\366\\m\277\006R\322=F\362S\274\026*\276\275<VP<\343e\021>0:\t>`\247h>\355\200\036=\2559N=\006\353N\276\231z\211\275\327X`\276%i5\276=B?\276\371T\014?\376Cg\276v\205\022>\"r\200\275\tZ#>Q\331\020\2767\250\213\274VY\371\275YxT>\235\330O\276\333cq>$]\221\276\244A3>\276\207W>\3061\005>\312\250W>+\362\205>fX\317=\2676\240=\375\r\235=D\277\241\275gEQ>\2468\353\275\005\306\201>\033\210:\275vD\235=\356-&\275\035\370\267>\354\230y=\217^b\276l\232b=\020\257\322\276z\000\033>+\244\350=X\211\330=\317\276\020\276\032bO:\363Nn\276\023\346\020>J\006\231\276\346\266\226>\223\231\235=\266\010\314>\226\303\003>\213F\362\275\327\226\213>\373\301\260\276\025\202\r\274ep\341=\363\316\213?\337tN\276\304n\214\275:o\310\276\307Y\361\274~\263\334=(\361\253;\220\n\247\276i\210\210\276\034%\312=S;\364=>AR\276=?\201\275\231\302\305=\252\270,>~O\327\275\363\236*>\210\205\367=\204-\365\275n\225&\277\033\270\212;\345\351\024>y\353?>y\235\257\276\247\275\244>c\364\032>\237\310\257>*\322\277=1\267~\273\260\261W\276\204\270\235\277\246Xv\276X[\240\276\026\013\003=\274\323\007?\005\254U\276,\3478\275:0\332\275\354P \276\030\036\373\275\032\351Z>\257\362\034>}\261\227\277\362y\263\273nI\016\276\226\006\201=\rR@=68\203>S\2439\276d\222\212\276\206\247\001>\220\255\313\276\227\317\200\276\3064\205\276\346B\010>\265\311\306\275-n\266>E\310\353=\314\2658=\217\'\036>\333\231/==\321.\275\261CW\275Kc\305=A\016\214>\r\375g\276\355\314.\276\335g\227\276M\304\340>\372\243{=\220\330U=\344\210p\276\007-\302\275\200\212w\276a\270\300\275\334\006\237\275\273)\327=;s\027>\005\204R\276y|\267=\376K\232<\326\232w=\343Jy\275p\366\236\276\021P\310=\025\233M\276\010\2433>f\366\212\276\360\027\205\275\t.&\276~\353p\275k\217\036\275\206^\'\276\330\267\030>\332\266\226=\236\375U\276\253#h>\220\357Y\276@\316\211>\303}x=cLf\275\231\240\224=\\\247\020>\372q\036<\343\035\263\275\005\2152\276\377\'d\277$\2135\276\244\257\025>bK\247<l\014(\276\344t\312=\rl^\276\377m_\276c.0\274\326\250\273\276N\346\343\274\252i\366\275"
      }
    }
  }
}
node {
  name: "FCN/input/MatMul/ReadVariableOp"
  op: "Identity"
  input: "FCN/input/MatMul/ReadVariableOp/resource"
  attr {
    key: "T"
    value {
      type: DT_FLOAT
    }
  }
}
node {
  name: "FCN/input/MatMul"
  op: "MatMul"
  input: "input_input"
  input: "FCN/input/MatMul/ReadVariableOp"
  attr {
    key: "T"
    value {
      type: DT_FLOAT
    }
  }
  attr {
    key: "transpose_a"
    value {
      b: false
    }
  }
  attr {
    key: "transpose_b"
    value {
      b: false
    }
  }
}
node {
  name: "FCN/input/BiasAdd/ReadVariableOp/resource"
  op: "Const"
  attr {
    key: "dtype"
    value {
      type: DT_FLOAT
    }
  }
  attr {
    key: "value"
    value {
      tensor {
        dtype: DT_FLOAT
        tensor_shape {
          dim {
            size: 64
          }
        }
        tensor_content: "8U\332\275f\230\220>\254\332/\274\314Z(;\033\346\372=D\273h\2758\312\017>\235M\352;1\276!;y_r\275^\205O\276\377\214\016<\220r\271\273_\330\341=<\315u=\203V`\275[\177\375:E\256\231>\314b>;\341\346\237<!+\242\276\360\235\372\267\300\270\023<\237N\211\275T\313h\2729\313\320>\206R\262<\212\005\335\270\330\262/\274)\036\334\276\032\237y\274\030\345\221\271\000bc<\006\341\020=\270A\013?\n\336\000=\200}a\277\356\035\226>\273\313\274>\006P\363<\376\013\310>K\2738<,\202\'\276\243S\021\277\227P\237\276{\242\000\274vv\235\273 \003{\2749\0228\275Z\343\251=KJ\351\275\353\245\365;\243*\017\276\314\331\000>\266K9<2\311->\354\317\262\275hf\003;\371M\345<\020\346\342\274\2217\021\272P\323m\276@y~=l\240\205\275"
      }
    }
  }
}
node {
  name: "FCN/input/BiasAdd/ReadVariableOp"
  op: "Identity"
  input: "FCN/input/BiasAdd/ReadVariableOp/resource"
  attr {
    key: "T"
    value {
      type: DT_FLOAT
    }
  }
}
node {
  name: "FCN/input/BiasAdd"
  op: "BiasAdd"
  input: "FCN/input/MatMul"
  input: "FCN/input/BiasAdd/ReadVariableOp"
  attr {
    key: "T"
    value {
      type: DT_FLOAT
    }
  }
  attr {
    key: "data_format"
    value {
      s: "NHWC"
    }
  }
}
node {
  name: "FCN/input/Relu"
  op: "Relu"
  input: "FCN/input/BiasAdd"
  attr {
    key: "T"
    value {
      type: DT_FLOAT
    }
  }
}
node {
  name: "FCN/dense/MatMul/ReadVariableOp/resource"
  op: "Const"
  attr {
    key: "dtype"
    value {
      type: DT_FLOAT
    }
  }
  attr {
    key: "value"
    value {
      tensor {
        dtype: DT_FLOAT
        tensor_shape {
          dim {
            size: 64
          }
          dim {
            size: 32
          }
        }
        tensor_content: "\001oF\276\225\234\271\275\237\357D>&s58\376\314\220<Z\003\224\274\360\261\"\275t\351V\276\240\336\372=\301\262\263=Q\256\236\276e\361\311=\304<\007\276\273\357{\275\031\233\213>_\"G<\036\'\364=\217\215T\276\307\272\343\275\222\222f>\375\264\\>\307\234;\276\333\243R>j\255\231\275\377\311\251=2\'\236\275\n\373\211>\320\317k\275c#\307\275\250\356\360\274\231\272\034\276\232s\226\275\271\323\346\274\374\345\325<?Z\246=\024\253\221>\305V\215\276\3326\324\274\366\202\264>0\321!>&@\237\275\\_B\276O~\274>\335\337v\276B\200l=\350q\221\273u\347\376=]x\276>.\374\247\275r\264\235>6\316\320\275\256CF=\rq\252:\201w\226=3q\r>\332q\r=(\261\351\275\313\240\246\275\337r4\276J\010>>\334g\245\274\262\346\244\275\022G\'>\001\331\342=\306O\332=\027]->\333\261G>~\257N\276\031U\227=\007b\263\276b\344\273\274\343\266\242=\245T\025>\016\000Q\274!\017\r>\250j\200\276\360\371C>\275\302k\2768\2062\276\225\233\211\275\266Z\200=9\007(\276\311\2307>\024\0364=\302\366\374\275\374\226\210\276\241DP\276\301\337\001\276\373\007\252=5\216b\276FO\270=\031\177)\276\357\325-9\014\206P\276\214\236\207\276\266\343\005=\240\3003=\236\207\266>N\001/\276AyX\276\345\204d\276\"\272{>\326\371=>\252\007\320=\351W(=\365\234\277\274\277\211\246>\371\321\t\276\272\302\375\275[uy>S\362\313\276c\323T\276\341J\001\277H\326\222>\362n{\276\272\337\270=\251\375\025\276C=\236>f\005\253\275Y\253\202>\'\025M\275hu*>\243E2=F@L=\347n\355\275Y\205\206\276\260\353\244\275\334i\312\275\034\225\203>\"\276\031>\205YN\276\177\260^>4\350\303=\322/F<~\263\233\273\316\243\n\276\033\023\230=\3174\276\275\301\2721>;\374 =\373\315H\276\270\251\210>\340\225\021\276\357\250\254\2750\313&>\204\311*>Y\345\010\276\007\016Y=\327,]>e<\262\275MR\003>\342\274\233>\355\340\002\275\216\207\306\275z-\206={c\211\275\002\325\'>Y\030~\276\230qz=\231j^\276\347\322L\276\345\332(\276\260k9=\200\0323>i\301\260\275\037\234\314\275\\?1\276\341\313\014\276S?5=\362D8>\021e\352\275\006[R=~\362U\275D\242A>\360\231\025\276\303\362\213\276\023\037+\274Y\'\276<\267Vu\276\323\2238\276\226\2054\276WCP>0g\335\274\016\006l>\333\016\235\275\254\213*>\374\227\233>\027\260\004\276a}\262\275?\274B>\355\206\240<\251\326\204\275\232\365\017>.4\334=\303\014(>\367X\252\275\327\324\260\275\242\250\216=z\241\033>|i\230=`\372\031=\301\364\032\275\000YN\2754\362\216\276\020t\000\276S\342\026>,=\313\275)\336\275\275D\237z\276\372z\253<=\347)\276E\261\304\276\037\364\301\275\200$D>GV\357<^d\035\276\tjP=\311y4>\000\212\322\2746\263Y\276\032\340\247=\331\371Y=\305w\352=\266\017\370\273P*\030>\247\322~\275(A\000=\207\230\261>cK\021\276\360)\326\274,\305\377>\243\277\275\276U\210\343=A\024A>\241\234\243\2765\022\310\275\313\273\016\276\234\004\221>\264g\014;\245\214\024>\210Di\275\\\244\207\275\r\333\350<\203\350p\276B\tx=\270T2=\373X\277\276\007L>:\372L<\276`\3179\276\261\231\271\275\037\264m\276o=\323=\360B\310=*G\377=\225fd=\351\223\005\274\003\3457\276o\302\024\276\263ro>\342T\312\275R\262\002=\000\2022\275+\326\355\275\007\227*>\217\037\023\2766\275@\275\257O\335=\230\215\214=\237bU\275{\204x\276\312\323\247\275\373\362m=cG\233=-\032\250\276cu\227=s\3109=\002\336\002>}.\032\276^f6>\300\271\214\272\330\224\332\274\262\004\010>\245\016v>\355\212\017>\213\304\247\275@\334\330={\326\007=81\020\276\301\334C>\365\331\325\275`\031\266=\213g\006\276\251\354\221>\261\304\261\276\212\331a>\317F\255\275\r\266g\275\362A7>\225\345\n\276\240\177\207\275\300O\231\276N/\231>\236\206H\276S\035\213>\334_\036>K<\337\275H\016\245>=\013Y\275\201Q\227\276%\222\031>\254\336+\274\366]\t\276\331k\265\276\313\027w>\3025\004\276\226\305\200\276\225\261\212\276\n\334w>\2613\024>P\r\002\276\264\nV\276\374a\302\275\332\307\232=\030Q\200=\216\374\341>\366\371\025=\032\263\251\274\355G\226\276\242\207\233\276\002\253\367=\361\337?>2\1775\276\033\362\224>\264\275\r\276\311\355\026>.s\224\276\252R\223>\355\236\035\277\355\030@\275\324\244\211=\010\375\341>\221\351\252\275\341\342=>\006\213\022\275%\354\271<$\027\275\276\247#~>B\263C=u\3343\276E>s>\307^Z=\350\334\301<\363\274\221\276@0\225>\033G\212>HN2>\335\031\272\274\235{\227>\306\213\014<<\203\261=\303\303\230>\030\213P>\016\275\264\274\310\nd\2751\201\031>u8\240\276\216\231{\276\347[\006\276\302\302\317=\203i\327=<\032\230>fo&\276|\241\251\276\231\324\270>\252\375G>\322M\264<\220M\315\275\2651\365>K\224\324<\207Db\276\023\371\272\275\235\020;>Y\210\224=\025)\267\2753|\347\274\260HN\276+\026\213=\304\273S\276\314\312c\276rh\363<\340\261\364=\377:?>n\201\t>\350\000\366\275\001/\201=!\220h\270\301\351\222>\333m\221=\232\363[>\311\374b>9\027\251\274\374\033\253=\373D{\275\211:\003\276\325{\325\275\327\026^\276\253\204\213=\350u\360=)\250Y=\244W\363<*\226\354=\036h\347\274\317\203\\=\276sF\276EN\017\276\310\026c\276\265\236p\275\201\252b=&bH>\205W\256>\351\221\235\275e\337\370\275\271\321(>\223\004+\276\252\246\314;7?\027\276X\361!?\237*\366\275\276o\246\2769\3744\276\313\300t\274#\343+>!\220\224>\362u\262\276\223E\327=\003\216\007\276\257\010~<4\306\031=\320\n4\276\337Jg>\325r\002>%~\244=\361\3509\276\354*,\275\217\276)\276\210&\n\276\r\245\n=\2262\343\275\232\311s\276:\353\016\274\224)\313\275\237\303\206=\007\035#\276\322\376\203<\250?_=\211J\330<\240T\\\276\356\032\371=\253\245n=\333E\363\275\237.\024\275\006Z\314\276\254%g>\\\3128>(\247\020\274\003\272\305>e\240\224;\224jA\276-\306e\276 \357\360\274+\300\n\276\221\000\262\275\235\216\017\2765\205\005\276\214E\355\275\232\323*==\224=\276P\261\372\275\226`\314=\265R\207\275=\005I>\223uk\276\356\201]<IG0=\354\032\215=(\tV>f\036{=\260\216g\2761\261\261>3:\205>h57<\330\031V>\327\302\212\276\014v$>LL\200\276\r\241\231\276\340e\353\275\274\035\023\276\'\\\021\276\232|\274=\313D\217\275\251\357\037>:\327\020>\032\337Y\276\305?~\275R\215,>\3423*>\222\351\221>\202-\274\275f2E\276\361\352\021\276 \365B=\300\270\375\275\010\277:>\r\221\213>\377r\374<\305$h\276\250\345\315\275E|\236\275\003\212\366\275\352\266\303<\013/u\276\253\311T\275\300\246\'\276\263\245\310=\311\013\354=f!\232<_$L>\312\243\360\275\024\354%\276\005:R\276\316\364\\\276\242\360?>\267\223\302;\334\031\335:\2470\324=49\033=\210\2136\276\216\000J>\326\275\325\275\177w\330=Ss\260;\356\017\006=\301wd>\376\347\373=~1\215\2765u\253>\310J\235\275Y\n\212\276\251\235u>\236\014\375\275n\355\216\276\007\003]\276\325v\305=\347\222\222\275\323BU\275\214\024\021\276\030\007\376=O\3025>7\035L>\252,\313\276\314\232\001>\235\371\222\275\244\302e\276\"QG<\"\252%>\307J\251\272T\241\226\273\344\304c>\345k\020>&{f>\262Q\257=\375\035\200>\324&\241>\306\311p>E\330C>Z\265\360=;\253 \276\226I\213>\335\231\265>r\204\315<\026\370\'\276\344\031\244\2762\236\204=\262\217-\276\270\341\314\274\366\3568>\032[\'\276s\376\237:\270n\255>MI\264\275\022\n\227\276aD\330\275\340\347\205>v\275|=|\263\213\276)\344#\276I\374\013>\344l\232=\212\372\265=9F\321=\217\225\221\274YY\321\275\331\364\033\275W@\354=\222f\200=\241v1\276o\211\340\274P\251\210\276\010\356@\276-<\032\276\035\352\240\274\347t\005\276\006\245u<\246\020\232\276\034\000+=\265\254\001>\033\216\262\276N\327C\273\263tj=\030\377j\276wo.>;D#=\360\375P>O\247\364\275\345\001X>0s\215=\004?D\276a\0021>\232\207V\275\006\256T\274*g\303;GP\236\275\266`\034>K1J>\263\375\200\276\324=4=\2274%\276\004#\025\275\253\0349>\350@\322\276\352O=\275\367o\300\275r\030r\274\t\213\216=\243W4>>g\326=\307b%\2765\347\326=\336\221\244<W}\205=\277\024%>\315n1>\322\325\236\275c\260\231=A\t\376;\026/\241>\201\276\224\275\273\365?\275\370r\361\275\322\025\330\275\371\252\346<9\265\037>\r\311*\276<n\026>\314\356\036> \220\367<\202\026a\276\240d\326\274\036\204g=/dI>\025dk\276s\263\035\276\364\3324<\rN\264<8\262$>\277\310Z=\371dx>\266\311Q>0\361\316\275 >U>\375\314\025>7V@\275\340\312Q>\331\352y\2762\201\342=\022\355\025>\373l=>\263\333\030\276\252\313\025\276JZb\276\210\332\t\276w\232c>\026\025g\276\374Z-=\327M`\2762\205\343\275\314\352\274=l(\267=\270\2461\276\240\233O<\250x\375\275\260\003\355\275#\375\203\276\323\245\265=\312\207\372=OXG>2n\203\276\364\360\020>\001\036b\276G\231\020>Y\245B=y\025F>\2422m\276O\304,\276w_\230=lX\001\276\220&\340=\204ER\276\r\325\037>X\003\226\275\302\003Z=\325\273;\276q\335]\276\2343\037>\330EO>\265\214\343=\372\006\037=l\3748=>\377\256=J`\243\274\362A?\276$e,\276P\244\304=\nw\374=\337\343;\276\300\307U\276ag\272=U\250\345\2759\re=cCP\275\223p\270\276\367\221\231\275\311\256\326\274\265Y\027>G\tv\276\020\032;\276z\376\301=\005\250S\275\352\3523\276\007d\217=8G\236\275\274#B\275^\2407\276Yc\266>\300{U\276\014\275\210\276.\300\204=a3\252\275\300\313I\276L\025\331\274\324\3302>;t6\276\030_\241=\263h\001<\310\360x\274^4\006\275N\227c\276\334\036\216\275;/\013=\232r3\276Aj)>lx%>\177V\203\275\264LQ\274&<9\276\217\261\363\275C\277;>0\004\212\275\\\230<>]\376\340;h\327\374;\030\017\322\275\355+\200\274\273\323p\276mpy\275C\007s>\016o\332\275\326\245\235=\2519\317=\347c\201=\334\\O=Y\274\310=\007X\n\272\250\236\001=c\r\032>\367jH>\n6f>\200\030\250\273\246/\226=\352\014\223>\364\204\233>H\006b=\324\332G\276\003{\r\276Wh\214\276c\242_>\243\260\r\276\032oa>\345I\343\275\301\237\002\276\227\364\376=\306|\225=\261\272\234=\356\035\000\276f\245\353=O\ry\2760\331Y>z\323\003? c\203\275\224\201\306>\004\335\221=\276!\264\276j\016T>\262\262\r>\\\022\241=r,f\276\314\236}\276\275w\264\273{\272\312=\254&~=\211\336H=&z\\>\262#\234=H\345Z>\215\330\202\275\244r\010\276g\373\363=M\376Z\276B@\017\276\316\366\210=wZ2\2761\326m\276\310\264\327<\343\231^>*\366z=\300\353\260\275\352D_>\257\342\301=\321G\326\275\305e\253\276\305H0>\261cu\274\316\025X>o\376W\274:\3046>\372\252\000>w\333\035\275\203\213\331\2757\267p>`\016R\276pkw\276\036s\r\2752\302c\276o\246p\2757\002\254=u\002\351\2759\252\264=\336;I\275\010\034\307=\210\263&>0\030:>\277\267$>\327\007\364=\357\222\235=@\341N>\353\365\360=\355+\327<\250\326\000<\373\272\371=\300\\\357=\031\206;\276 \244\340\274\226\0140=\361Q\t\276\2551X>\355\313\031>og!\276\333[\220\275\032\210\240\274\350o/\276\322\257Q\275\271\373B<Q\345\251=r\247\213\275_\202\243=\277\200+>\316\250\270\275\246\331M\273\251\366\372=\3546`\276<\261\237\275\365\236h>\240?h\275\016~\016>\211V\332=\236\001*<\030\270G\276EeP\275\016\024]>\216,c\276\222H:>\237\337:\276\305\373\016\276\366\206`>\227#\320=\255\002\004\276\320\202\022\276\217\367\022>\204\234s\276\321r:\276\214\026o=Nw-\275\311<.>\262\375\245\2741f\024\276\260\341\311=\366^\235\275\332\313\026\276\375\ty=\007\005J\276\017\030\177\275\215E\220=\3110):\034om=K\326j\275\327[\377<\217x\336\275\350\225a=\245e$\273Th;\274&\276-\276\013\250C\274\364\014\271\274\354D\003\275\252\022\217>\254\350\006>\242\337\216=\r-\332=r\205\223\276~\322y>|\2437>\276\016\303=/\371\316=\270\034\034\276\254\005*\276\301)w>\003\365$>1{Z\276\250..\276,;#>\231A\027\276Z\344\035\276\223\240\004>\333\252\250\272&\213i\276\027\322\007\276\376\317\016<\305\212\265<\257\201\200\276aT\032=;\261\013>\"\320\201\276C\240H=\205\007\037\276\237\243I>Ct0\2764\251m;&c\005=\304\265<>0\315\026\275=\202\264=o\375!\276k\027\303\275t\352\001>%}:>2\2415\276\254e\330=f+\202\275\235x4>\347\212\250=\306\020&>\0209w=\320\353Z\276E\214Z\274\302\277D<@\313\">\363\235E\276\200\364\237\273\224~\027\276\204(\340\275&\203\340=\254\266|>\030\033\251=&\355\r>\243\275\001\274\271\220r\274\325\201\315<X\357|\276\203\334m\276\335\037\037\275f\323$\276\326\276\356=%\306~\276\004\2419\276=*\003\276\245t\255=\261\322i>\212\"M>C}\"\276&\376\317:(\336\261\275\031E7\276\210\304z=\362\265\362\272\350I\\\276\332&\020>rkP=/\023\213\276mk\245\275\332\376M\276\312\n\034\276\017\206v=\034\356B\275\033\226\230=,\256e\276\223>\004\2768e\215>s\244\260\275\341\354~\276\020\274\222=\373\243w\275\350N\251\276j\3323\276b\222\325\274\202/\232\275\315_\031>t\242(<?\324\310\275Zwf\274\332S\316=\"\263>\275\352\036\211\276\005\217\305\275]\237\207=]\224\t=\316\206\t>\326zi\276\321q\360=\025!%\275~\220/\276\313\310\252=\314\254\240\276\014\364\313=\001\333\032\276\023\303\350=\r\017D>\344_\322=\265\353\254\276-\200e\276\254\323o\276\316\266\300=\234\026\177>P\363\371<\242\032\265>|s\206\276\001>\366>\21142>\263=U>B2\222\276k\326\246\276\274\370\001>\307\\S\276q\t\333\275\343\247\261\275 \207D\276\245W\"\276\331O7>c\002\027\275q5R\276\014CT>0i\220\275\360\354y\275\323\331\233>\006w>\2769\201\210\276\345\336\245\275^AI>H\266\306=\272\274\276\275\244\332n\276\001\240%>\364\330\207>Rn\346<\004\010\266=\232n\254\276\202P\034>\265O\305=\221\264\333<sS\223=\371\244\310=\326\373\313\276\226\211\n>k?\221=T(\276\275t\274\252>\357\256\224<\262\005\310=\211/\336\275\357\303S\276\227\033\025>\214\307b\276\234\334\306=B\267=\276\315\300*>\303\204A\272\316\315\212\276\312\244{=xie=\211\351\033\2768\224\342=\034\036\000<{\246]>:c\034\275\237\314\353\274\242\244-\276j>^>\270\013\251\276\010J)\276\326\242b\276eC\303=wa\372=\247a\365\274\330\"\035\275\331\023u\275\271\202\264\275\036\3245\276\324\254\246=\201\272\344=b\205\372=y\022k\276}z\326:\212d\333\275>\352\253=\266Q\344\275\245\302v\276\306\362\350=\240\360^\275\326\357\266\274\313c\265\275k\377E\275\000\246\333=\267\237f>C\244A\276\361\337\271:$\314\367\276F\000\222\275\271=m>\3379\212\276b\276,\276\264\213\201\275\021\350n\276_>\223>\365<*\275\243+\026\276\210\373H>\024}\215<\014\307\002\276\213\312[\276\303\003\345\275mPz\274\375\213\251>\257\270i\275tg\240\275\2063\034>K\340_>>\206\005=\"\344w\275~-0>\364\330\265<Q8S\276\'\014_\274\214:*\276\273\277\250\274\313Lh\275\366\210\313=\350\302\211\275\020\216\345=\371\372\202=`2\300\276\201\270S>\035MR>\203\375\364\274\303\031|>\2327\310\276nk\020>\3709\376\275u\033\200=M\220&\276\241,\233\275\305\365\240>\014#\307>\247\345<\276g\3649\274Y\2048\276\334ik\274\347E\230\275\253\227\377;?\222\252=q\276\270\275\300\013^>P?/\276\345h\216=\2272\221\275\343G\227\276e!\232>\022\261\017>e\222\350\275\r[\223>\262\017\235>\017\n\371\275h~\177\276\311\322y\276\372y!>\221K\300>\030\232\004\275v\350\021\276\3569\254=d\036\265>7\334\016>\006\020/\276\262`\265\275\375\311r\276\3655\265=\237/m>\320\331\000\276\000\260Q\276u\357\017>K\326\005>D\rH<\t\216z\275O\274@\276\276\357\300=\265zh>\215w\204>\322A\005=v\235\"\276&\201\000>\307\311\254=\367H\200=\2359\300\275\005\'\241>D^0\276R\242f\275\303\203\'\276!\252\233\275\366@D\276\002[\211\275\201\031\373\273T\266\326\275-`\026>m\354,>\021!\303=wfw=\264\023(>b|j\276\276\274;>\302\206\007\276\311\200N\275\217y\307<z\215\"\276Y{?\276\245\317\364<\321\332\336=\325O\323\276\262<\326\276\375\374\210\2762\223\356=\016\376\323=|\361\020=\001\244\336\275~\3220=/\374\260\276\023\241[>\\\004\037=\007\365]\276\0218m=&e\016?\255\037d\275Eh}<\313\274\r\277h\226\017\275\037\243K\276W\r\005?\344\032\001\276n\362\250=?\356;>f\324\220\275\220J\346\275\253\316\005={,\205\276%$~\276\326\207\276\275Yjz\276\342\025\211=3\366_\276u\032\264\275N\205J>y^\302\275\347\267o\276`\301T>Y\250d\276\207\304S\276\364\022:\276\346\007\341\275Dhm>^:l>\315=\017\276\241E\002\276ES\351\275\264\'\273=\365\374\236=\212\034\177\276\375d>\276\341\017s\276\\\307j\276)\210\227=\334\301\003\276\0263\220=\037\274\245<\356+\216\275\027;8>*\027\232=\237u\020>\037j\353\275\314sw=\257}\020\276\315\3240\276\274P\002\276=\276*\275\033\225\371=d)\212=\016\325$\276az!=Q\000\254\276\214\372\244\274\002\241\032\276-\352\353\276\016\356b\276u\037\215>J\326->g\220\023=\274;\010\276\363\004n<\265\277\235<r\204\352<\376\343F\275\000\347?>\261sP>\023\265\301>\034;\026\276\2621&\275L\230\r\276\254\241\224=;;\t>= \001\276Y\250\306\275:E\031>:bQ\275\\v\362\275\213\237\344=!\250$\276\217\363\230>\253\351\034\276\324-\256\273\231\246f\274\311\336\203>\342\334?\276w%\221=\325.E\276+\330\257=\262\027\353\275\211\300\257<\361L\210>F\207A>Tv\024=rL\263=\224\227\026\276\r\'*\275\264\363\326<|\367@>\356\222\037\276\211\212\">F\340\365<\363Wg=TZK>\270\212O\276\242e[\275DHH\276\232vU<\367\243\325=\215\204\035>A\"=>\307\237\207\275;\023\323=\247\003R\276\241\214t>\365\266\273\276\345\201\234>\002\3359>\005\355\202\276\022\317\252>0\200\324>@\374K=\006\231!=W\213\214>Z\303G\276\317^]\276\337\311\027>\317\237\036\275^\246f\276\215\250\250\276\024\3304\276\004\005\231\275\322\014\235=5\346+>vA\240<B\230\002\275):\273\275\257\016q\276:aH\276\327!\226=\236\251\235=\254\303\305<J1p=\212U\301\275e7[\276 \017\023>y\206\t>\272h\003>\2434&>QBJ\275\017I\315<\031\253\222=\353)\036>Z\351l>q\303\313=\310\020u>\3025p\275*\027u>H\nC\275L\200\004\276\321,R\275\376\021\323\275\326>\245=\313\254\323\275\353\031\240\274\0028\023\276V\240J>\216&;\276`\3630\276e\225\037>\237\336F\276\221JL\276\227\ts\275\025Q\334:\007\263;\276\242\252q\276\'W\\\276\251 \321<\360oC==\250\033\274\267\010G\276\225\026\254;\361O\263>\022^\202=>\223\n\276G\002y>\314R\020\275\200\334d\276\224\266\033=\236!S\276\322\327>>?\337\032>\030Tj>;}h\276~*\333\275\223\n\253\276\264\244\237\275p4\341\275W<\361=\375\250\355\274\206\266\354=\3669\026\275\266D\340\274<b\377\275\367w\216<\020\342\001\276o\372<>5\230\347\275J\320\315>\330\224\225\275\007\336\211\275?\034G\276\010\302\035>\214\276B\276k\337\310>\273&\205\276 \354\234\276\233\370\326=DP\333\275\214^\204>\324\023\346\274K\271\311\275\351\321A\276\355\322\342\276t\225\031=za:\276\307\2137=\357\320\335=#\'=\276\244\320\000>\313\r,>\034k\212\276\323\252g=\251\304C=\364\234\037\275)x\207\275\317x\003=\0052-\276\327\345\023\276\205\251\267\275\0206\240=\t\266W\276\005\226\013\275%o\224>\331Z\">\243\337\325\274<24\276\360\335Y\276\r<\002\276T\223\017\275\345\001v>\313[\335\274P\256\355\275\316^l>\212\250i\276\376\244\371=$)\343\274\035\367\361=\240\373K>e\351+\276\302\302\205\274g\255\342\275q\342\205>\351\236\203=\221/L\276\231\030\"\276\355\370>\275\374j\234=\265\274:\276\317\236\224=\037\215\270\275\273\314U\276n|\234=\r\265\022\276i\257W\274>\256!\276~\257e\274\023)\003\276F\222\217\276\r?\232=\017.\032>\3418$>\000r%\275\030\346n=~{\3727e\024\222=ht0\275\210\025\322>\034\2634\276\367\305\026>\013\0031\276\206\312\203\275\357-\003>\006\n->\010\037 \276\006I\377;\340k\217\275\375P\255\275g\261\367=U;\202\275f\324m\276\307\365\\\275|\352*=\231\207\006\276S\031T>\214\211\351;\375\266S\274\003\207$\2763\037\224\276\325\272r\276\300\273H\276sOJ\276\241\021o=\230\212\371\275Z=\340\275\236\017\017>\377\033r>\302\005\273\275\037\340\236\276\272\313\033>XA\210\2769\312C>\246\222\364\275\027.\252>;\314\223={\016@\275\271\260\346=Id\201>:\344&\276KQ\"<\375\212\364=\274\265\337\275\355\333l\276\212\356\301=\245\313C\276\262\221e>k\343\250\275\006?\003>\'o\007=\244\277\t\275\255\tI=\300\213o\276B\246\252\274k\r\217>U\322$\276\253\270\256=\317\210\000>\336\267o\276\016\230I\276\202c\033>\024\214\314\275Fp\024>\214\360\376=\000\033{\274\304a\003>S\251\370=D+\206=\320\022\201\276\360\361\230=\313Q\362=\207\205_\274\003\223D\276/\243z\2759\302\245\275\247D\221\276\252\0228\275\271N\302\276~\210\273=\303\323$\276\314~s\276jpl\276\265e\304<\300u\007\276\177\372W\276\267\004\n=\215\262=>\0142\225\276\023\212\003>\340\355\201\276\277\261\276>l\337\013>\004\365L>\313i\222\276 2\211>L\rZ\276\231\345\350\275G%\006\276\234\334\264>Hx/\276\"\305\014\276\204Z\224=6\3715>\267@\340\275L\341\323=V\372\227>\352\314\006>\n\2719>\357]\206>G\013\225\276R;\331>V(W>\214l\246=\347\024\n>\250\274?=%\221r\275\2307\341=!\313\214\273\277,\207:\270\252d\276\377\201\205\275\000R\032\276\345\340\333\275\251\364\r=\371I*\275\\\024\360>\272\322\262\276\350\342/<v%$>6\273\302=`\273\033>]\216N\276\252\200\226>\205\010\373\275\342[\024>\220\215\312\275#`\373=\225M.\276F\323Z\276\337\001\226\276{\3450\276\307:6\274\250\247\260\275\032\226\025\276\237\213f>=\000\204<N3`\273\257\340z\276\324\307%\276\251\232\210=.\021\202>\233\245\326<\322\251r>UM\220\276=\277\223>\0164\271<3l\243\275\256\352\002\276\360)\364=qA{\276\242`\327\275\034\367w>\016U\251=|\266#>\220\371\031\276\322W\310=\r\304\353=\220\246\005>\302`[>\225\000\230\275\t\275<\2761<\226\275\016\310]\276\350E\263\275O[\322\274\340)\304\275a\303\367<\242NO\276 \307\374\273R+\243=[Q\021\276\211B\255<\236\027V>\030>\"\276\243\005^\276\2765(>\306J3\276=7G\275\243\364*>\034\327\237=(%Q\276\224\237\216=\032b\247=\010\"\332<\365\003\355>(\211$\276_\344\016=d\312\213\275\035\000\373=\333\371\031\276\014,\342\274o\307\363\276\363[H\275\367\006\347=\301wn<\275G\360:\026\374\254=\265b\202\274\222\207\231>\245\r\222\276\324\277\336\275\226#\304\276\360\350\220=.a\370>\275D\212\276\004\022$>\036\210\272\276\246\020\241=\\\313\240>\241\226%\275z\373\370=\315\332\010\275\331[\210\276 \253|=Z\301h\276rD\221\275a\201\305\2744\224\001\275\236fv\274a\234\347=\251\253\000=\354Pn>\202|3\276d\227\310=\030\216\010>\03226>\250|\200\276\246_,\275\305e\001>4\005\334=#\300\353=\335\325T\276z)\262;3\263W\276uc\t=y\263+\275`9\354\2758\027\261<\214P|=\004\032=\276\024\316Z\276\013c\233=[\201~=\025\031\t=1uW>\323 P>sNU=t(\r>\327\000f\276\320)\035\276\3015\214\275j\341Q>[\233\224\275=\210D\276\353mW>.\270B\276_Y.\276~\2501>Wu\335\275I)\217\274\2440F=\0307[=C*,\276\351\253H\276\266\277\246<\003\024K\276\024\300\223=\337\217i\275X\006l\2767C\n>\330\200%>\020`\255=\251\257\032\276\032\317f>K&\005\276\':\334\274\247\013\333\275V\357(>\203\234\032\276]eR\276\266-T>\364*\356=s\353\222=\307\2628<\\\306~>\024B\330=\251\331\346=j\223\327\275\013\353\341=n\305U<%2\026>K-\256\2739\037\373\275G\306\020>\363\236\375=\341H0=\216\330$>+\023\274\275z\353V=\033\236\307\275\267\357L\276\373zy\2761\025J\275&\310\372\273\331\222\303>\267\230\326=\n\010\r>V\217\272\276\230{\024=\235\212\276=\242]f\276\235<\250\275\022\326~\276rf\235\273\377\341\331=\357\210\337=\342\345\217\274\303\020y\2769i\020\276e\373\254=\327P\032\276\017\362\004>\343u\244;\367>\000\275\224\302\317=\204}}>-\215\323\275]\n:\276\306<\314=\224\270\360\2750\247o\275J\020\014\276\343P\265<o\036\346=j\230g>\314\371\364=\327BT=pTL\276\344\271>\276\303k\245=\331\311\307:\311\347d\274\305*p\276nG\263;\002\025\016\2768\036\373\275\314\270\350=\026\262)>\347\242v>\244\3447\276\256e\250\276\335<D\276\204B[\276O\201\261\276\346u\246<o\330\205\276\006\314\326\276ak\207\276\342M\013\2761Q\200\276]E\213\270\272\350j\275v?M\276D\363\244\2767\323\206>\216{\354=\007\362\376\275\204\343\366=\245.\325>\013\245#>\275|4>XP\322\276\341\244>\276BkT>\261Z\364>\307Q\350=\340\202\035<\205\031/\276\330\355\254\276 \344\201>\307\252O\276\332xG>\221\217\347=\325\203*=\361+X>\370\003\207>\306\017\'\276\364/\005\276M\374\007>\035\370\205\275W\227\020\276\036[\215=\202\262\263=\357\374\006\276\310\t\312;m\360\240\275\352\2659=\010r\245=\360\352W>\243\274\262=\202\000\000\276\220k$\274\363\377P\276\300\334\326\275!\316J>\021\270\267=\335\032\220\274\232\027\032\276\203 \207>%7\355=\354\344\031\275\325\227\204;:D\007\276Pc\025\274r\010\356\276Dy\034>!\2425\276\033\247\022\276\020\243\226\275b\033\224\275A@;\275\241\036\203=\357\245\210\276JB\220==j\350\275\247\211\236<\245\377i\276\352>\316=\343)\024\276\014\"\032>@l\022=3\220\030=\247\014\222>\257\003\214=\253\315u\276\005\217R=\014\267S\275~B\255=\344V\261\275$\234\000>\246|\317=s\013\203>\3373,>\355\001\273>F@\217\2768\036d\276"
      }
    }
  }
}
node {
  name: "FCN/dense/MatMul/ReadVariableOp"
  op: "Identity"
  input: "FCN/dense/MatMul/ReadVariableOp/resource"
  attr {
    key: "T"
    value {
      type: DT_FLOAT
    }
  }
}
node {
  name: "FCN/dense/MatMul"
  op: "MatMul"
  input: "FCN/input/Relu"
  input: "FCN/dense/MatMul/ReadVariableOp"
  attr {
    key: "T"
    value {
      type: DT_FLOAT
    }
  }
  attr {
    key: "transpose_a"
    value {
      b: false
    }
  }
  attr {
    key: "transpose_b"
    value {
      b: false
    }
  }
}
node {
  name: "FCN/dense/BiasAdd/ReadVariableOp/resource"
  op: "Const"
  attr {
    key: "dtype"
    value {
      type: DT_FLOAT
    }
  }
  attr {
    key: "value"
    value {
      tensor {
        dtype: DT_FLOAT
        tensor_shape {
          dim {
            size: 32
          }
        }
        tensor_content: "\230\213\210=\212\001\251>)\246\007>\244v\204>\304\235\265\27539\337\276\204}\346>\272\007L=\212Z\361\273v\307?\275\034ug\275!\201A\277\356\217 \273\337\241\335=)\367\033?\177\370(\275\007R\225<_D\276>X1>>\030W\334\276\016J\347\274:\314q\276\205_\360=[p\232>K)\252>\205\220\n>\270\211\271\276{\221V;\025x\346=\030x\247\276\"\237^\276Um8\273"
      }
    }
  }
}
node {
  name: "FCN/dense/BiasAdd/ReadVariableOp"
  op: "Identity"
  input: "FCN/dense/BiasAdd/ReadVariableOp/resource"
  attr {
    key: "T"
    value {
      type: DT_FLOAT
    }
  }
}
node {
  name: "FCN/dense/BiasAdd"
  op: "BiasAdd"
  input: "FCN/dense/MatMul"
  input: "FCN/dense/BiasAdd/ReadVariableOp"
  attr {
    key: "T"
    value {
      type: DT_FLOAT
    }
  }
  attr {
    key: "data_format"
    value {
      s: "NHWC"
    }
  }
}
node {
  name: "FCN/dense/Relu"
  op: "Relu"
  input: "FCN/dense/BiasAdd"
  attr {
    key: "T"
    value {
      type: DT_FLOAT
    }
  }
}
node {
  name: "FCN/dense_1/MatMul/ReadVariableOp/resource"
  op: "Const"
  attr {
    key: "dtype"
    value {
      type: DT_FLOAT
    }
  }
  attr {
    key: "value"
    value {
      tensor {
        dtype: DT_FLOAT
        tensor_shape {
          dim {
            size: 32
          }
          dim {
            size: 16
          }
        }
        tensor_content: "\235\315\006\276\355^t>Z)\221\276\362\270T>\225{\227>\232\246\312>\323\275\026\276JI6=%\033\374\275\357b\017=\243\321\252\276\302\341\274=\327HV>\353\324\235\276XkU\276\241E5\276\242\371\026\276\301\217@>\223\272c=\021\327\342>rO_\276Y\362\340\275-\300\262\276\327\3433<\325\301\317=N[\251>\005y\240;Bk\023>\314\332->Mc]\275N-\371;\344h\014\275 \221_\275oC\037\275$\214M\276X\245\017\276\340q9\275K\372\201>?\t\237\276\0074\261<\213\217\340\275Fv\352\275T\315\273>\366\345\275\272\256#w>ny\305>\2169\211>\277=\252\276\306\244\327>M\367\243\276\3430\024\276*~<>\353\250\330\273\265\355\270>>\321N\275\323\301w\276\221s\226\276t\327\n=\375\373\345\274}j\366=\377\364\236=\203\354\315>\241nc>\252dh\275\333\350\341=\r\034\201\276;\342W>\201\373\224\275\233f_=.`\025\273\265\365q\276\021:\007\276\337mL\276\177V\306\276(\347\233\276Wb\246\276\354\366o>b \301=\315\276\214\276\266u\263\276\355\326}\276\363\312Q>\177p\031\277\275_\200=JR@>\261\004\213\276\334\004\236\273q|\267>\306\177\354=i\374\350=\322?\371=-W\277\275f\211\351\276\3479(\275e\206\007\275\203\365a\275%\355\343>Es\213>\275\013\366>X\357\266\275.\336\356=\272\375\322>\243\312\010\276\333i\205>\244k->\361\347\204\276\310$\240>\007#\177>\222\310S\276\255xV>!\266\222=\013\272\204\276\217\\\220\2764\314x>\005\377\344=\035\223A\276G\316\260>\253\246:\276\333>\201>\210\215\333<\255\331>=\3768)\276\202\3710\274\370t\242\276\3067\367=\033?\">\337+\375\275\316\306\265=\312\247\242>PJ\257>L\220v\276\366\356\301>m\225q\276\017dO>\301\'5\275\014\004F\274#w>=WC\235>\344\267\230>dus\276\014<\275\274\310\200\232\275\300\330\016\274\333\354\243=q\320\246>N{\225>\037}\373>\346\'\016\276\330Y\343\275\316\330-\275C\"U>\316\3420\274\327\203\320=#r\007>\033\246\247>\247\347\244\275X\313:\275,\305\214\276*\022\242\275\021\351\032\276B\177\033=1\257\324>\010\204\353>\034\000\310\273\027u.\276H\204f\276c\345\030>D\216\205>m\375\235>-\351\213\276,\251\177>\206\225\270>f\254V>\3124\001>yE\241=\275\332:=\335\023\243>\227\213\020\276\207\007\306\276z\013D\276\364\036m>\205\022\351=\354-\275\276\272:\333=\235\\\263<\\<\027>G\273X>$08\276\201\323\205\276\244\273\304=<%\002\274\205\256\035\276\"\'\343=\030\312\226>\224\261\331\275\275\257\177\276\201\215\205>\033\367\">\355Z\224\276\215\356.=\034Z\006\276\340\t\221\276\231\350\242\276K?\266\275\251\213\225>@\177{\276\212\0007\276p\343H\271\006\320g\276\2359c\2741\016x\275\000{\265>\027|(\276\366]R>\273R\262=\257W\207>\355\372\267<\266\222\230>#<\340>\205\353 >\374W;\276\324\277)=\364\373\250<z\000\241>\255tt\276<\376#>1\270\005\277\354\376i>J\252\255\276\343\272\354>\303\270\217\276\233\202\241\274\0227U\276\312\332\316<\n:\345>K\353\314>\201!\221\276\364\335\031>\244\334\332=^\2644\276\263\271\205\276\2266Q\276\200\'c=\206!\301\275\004G\226>\311S\375=Y\372\207\276\205\270\272=\367\007W\276\314\331\000\276T-\324\275rUe>\275\260\255\276\304\027\300=\027\260\313\275N\036j\276\273\340:>pU\310\276\370\214\004?| 2>\326\236\232>\323\276\272\275x\377\217>\354g|\276\331\221\213\275\250\260\215\276\220\251\365>\235\034\257>\253\\\226>\332g\255\274b\377\021>\271\242\271\275Oe\021\276Y\007\375\275\021\355\025>\275\201\337>\235AY\276i\217\017>\330\321\027\277m\344D\275\373\356\255\276\237\277\n>\341\371t\276\006\225\300\272)`\260\274 V\217>\273\273\255\2767[\216\276\356\273\332=\317\346\262\276\206\372\300>\010%\n\276 \"\232\276\260\254\016\276\302\027\243>\243\305\247\276\317n\351\272\227\264\325>\373\214 >\331d\021\275\312w\363>Z\002\033\276\313[\203\275\203\360\270\276C\316\274\276\236\3608\276\177\003\037\276\034\250\330>q\177\326\275\005\025S\276Q\205\255>\345^\n<V\357\262\276\225b\r\274\216\303z\276\314\315\n\277e\227\274<\377I\362\276\210\342q\276\216.\302>\256%\325\273\336\265\206>l\324\240\276\031\373\201>0\361\372\275\267\335?=\316\214\232\275\257@q\276\221Q\222\276.\361d\275\212\023\234\276\237\027\234\276\313\213\004\275T\016\207=D\263;\276)\014\235\2759\207z\276PTn\276}\257q\276C\010\t\275\266}\"\276\r\312\364=p\274\023\276\273A\022>\340\0371\276\236\237\234>\017;\203>Pc\356>\271G\036\276\247\350%>T\242\244>\177\254Y>\245\332e>t\212g\275\037\267@>\347sD\275F\226\316\275\343\0147<s\031\220>\351\316\260>&_3\276\270x\211\276\326\017\231\274\201\274,\276\315$\025>\"\202$>\307\2504>)}\223\276\213go>\225\335|\275\206\244\">\331q\302<o\355\340\275\003\363\210\275\n:5>x\215\262>dUR>\013\302\336\276\347BW>\342P\261>\350-\257=\211\222\342\276\370\363k\276\325\200}\276\217\324U>%|\253\276\336\217w>U\002\211\276\026\355\026>|\362\211\275\0334\326\276\305\323\346\276]\274H\276J\'\350;\336\253\323>1\306\272=d\363v>\314~\255>\275\0166>P\r\323<\324~\231\276\035\364~\276\211\314<>\344 \020\276\261\022\\\276p\330]>+3\254\276\252I \275}\215\375\274}W\271\275\256\232\326=4v7\276\261\333\220\275\366\262\265\276xT\210\276@\361\304>*\352\006=\314\313{>\275(m\276\334\340\361>\345L\221=\0145X\276,\256\251\275\237(\213\275\356\212\033>\202\334<\275lGi\275\231\033\235\276)\272\232>%\250\200\276\033\236@\276\350a\000\277\346\3050\276yU\201\276\344E\">8T\356\274X\031\322=\234\353\t\276\210\022\304\276\033\304C>\351\251\244\276<\277\253>\301\357\265\275\257\331\215<{\301V\276?8\207\276\310\355\333\275\310\270C\276V\r\310\275\234\331\356;1F\217\276S\016\250>e\2067\276\r\202\235;-\230\315>\262\265\013>\243\226\323=F_\353\273\337V\312>:\307\340\273\205\207k\276\214\301\325=\224\322X\2769\377G=[\220\205\274\342\207\230>c\356\242>\224\010\224=\3071\223>\364\224\353\276\2159\237\2744b\233\275\020\327\357\275\036E\274\274\310\365?\276\206\035\'\276$N\272\275\036\262\312\2752\377R=\207\207F\275\323\226\255\275\315k!>g\221\312\275\305\367\256>\362\370{\275\322\267\022\276H\347\354>\030\336\371\273r=\013>\351V\016=\326Y\277\276Z$l>\375\304\370\276x\021p=\310\310\017\276\377\320N=^\021\237=e\336\253\276\315\2275=\222\265\213>j?\306\275\334\343b>\375,\262\274\207K3>\225^B>w6=\275\312\301\205>5\'\300\275\204\367\010>%\235\r>\376/\261\276\322\365\341\275"
      }
    }
  }
}
node {
  name: "FCN/dense_1/MatMul/ReadVariableOp"
  op: "Identity"
  input: "FCN/dense_1/MatMul/ReadVariableOp/resource"
  attr {
    key: "T"
    value {
      type: DT_FLOAT
    }
  }
}
node {
  name: "FCN/dense_1/MatMul"
  op: "MatMul"
  input: "FCN/dense/Relu"
  input: "FCN/dense_1/MatMul/ReadVariableOp"
  attr {
    key: "T"
    value {
      type: DT_FLOAT
    }
  }
  attr {
    key: "transpose_a"
    value {
      b: false
    }
  }
  attr {
    key: "transpose_b"
    value {
      b: false
    }
  }
}
node {
  name: "FCN/dense_1/BiasAdd/ReadVariableOp/resource"
  op: "Const"
  attr {
    key: "dtype"
    value {
      type: DT_FLOAT
    }
  }
  attr {
    key: "value"
    value {
      tensor {
        dtype: DT_FLOAT
        tensor_shape {
          dim {
            size: 16
          }
        }
        tensor_content: "\230\237%>\326v#\275\341n\271>M\273\030\277=q\271\275{L\367>4ce=*\227^\276{\251b=H|0\276\204@\023?&\335\241>\r\017\\\276t\000\'=\240\342T\274\tM\217>"
      }
    }
  }
}
node {
  name: "FCN/dense_1/BiasAdd/ReadVariableOp"
  op: "Identity"
  input: "FCN/dense_1/BiasAdd/ReadVariableOp/resource"
  attr {
    key: "T"
    value {
      type: DT_FLOAT
    }
  }
}
node {
  name: "FCN/dense_1/BiasAdd"
  op: "BiasAdd"
  input: "FCN/dense_1/MatMul"
  input: "FCN/dense_1/BiasAdd/ReadVariableOp"
  attr {
    key: "T"
    value {
      type: DT_FLOAT
    }
  }
  attr {
    key: "data_format"
    value {
      s: "NHWC"
    }
  }
}
node {
  name: "FCN/dense_1/Relu"
  op: "Relu"
  input: "FCN/dense_1/BiasAdd"
  attr {
    key: "T"
    value {
      type: DT_FLOAT
    }
  }
}
node {
  name: "FCN/dense_2/MatMul/ReadVariableOp/resource"
  op: "Const"
  attr {
    key: "dtype"
    value {
      type: DT_FLOAT
    }
  }
  attr {
    key: "value"
    value {
      tensor {
        dtype: DT_FLOAT
        tensor_shape {
          dim {
            size: 16
          }
          dim {
            size: 8
          }
        }
        tensor_content: "\202_\352\276\364\376\302\276|<\264>\375\340\023>\350>\350\275\335\302\226>\356\364R\276\275\226c>\353\263o>qyo=\247\007e>\313\314p\275\016\226\341\276[\252\352\276\336\235\t\276\000\021@\275\374\305\220>2\226\210\275\341\t\214\275\t\244\007\277\304j\247>\020b\365\276\227\376\201>I\243\314\276%Q\322\276\313\327\005\277xk\215\276YM\254\276\374C\256\2762u!\276\377\032\021\276\372\236H\274{,\215\275\324B\r\276\201\033\331>\026\370c>>\356x>m\356\331\276\026\225\215\276\243y\t\277\335\357\325\275\244\275N>\275\366\257\276\322\030\216>s\243\021\275\370\241\270>q\037Y>\211\272\021?\370s\306>:C\010\277\202r2\277\021\210\032\272\264\316T\276\226\342Z>\334\374*>^\273\314\276\363\377\230\275<\225E\275\226\242\t\277\022,=\276Ik\232=`v\333\276n\252\000\277\263\3045\275\241\177/\277\213\306\340>\363\033\250=\300\252\377\276\300\'\205>x\032\362\276\354\037\027\275%f$> \202\264\276l\251\201\276xv\002\277; %=kM\323>\022\307\024>\020\325c\275+\032=>\306hx>\2717\360\276\353\373\263>`j\336>\374\325\321\276\3546\371=b`\255>\301|#?\233s\313\276\345\3040=\020\032\324\276\243\214\212=\351o\234\276\211Qg=\010\024\251=\376\200C>\323=\324=\203E\203>\346\t\243>\224\257\325\276P\220\266\276kM\276\276W:\031\275,\234\t\277K\010\"\277W(\016>\223X\000\277P4\327=*A/>H7\277>D\224\212\276m\370b=\247\371j>\200n,\275G\341\253>\005\266g>\362\275i>\211_\332\276\232\216\232>\316\353T>\014\344\n?\312\325!>\210M\031>\0172\324>\252\370\336\276\220\260\227\275S\304\345>v\324\237\276"
      }
    }
  }
}
node {
  name: "FCN/dense_2/MatMul/ReadVariableOp"
  op: "Identity"
  input: "FCN/dense_2/MatMul/ReadVariableOp/resource"
  attr {
    key: "T"
    value {
      type: DT_FLOAT
    }
  }
}
node {
  name: "FCN/dense_2/MatMul"
  op: "MatMul"
  input: "FCN/dense_1/Relu"
  input: "FCN/dense_2/MatMul/ReadVariableOp"
  attr {
    key: "T"
    value {
      type: DT_FLOAT
    }
  }
  attr {
    key: "transpose_a"
    value {
      b: false
    }
  }
  attr {
    key: "transpose_b"
    value {
      b: false
    }
  }
}
node {
  name: "FCN/dense_2/BiasAdd/ReadVariableOp/resource"
  op: "Const"
  attr {
    key: "dtype"
    value {
      type: DT_FLOAT
    }
  }
  attr {
    key: "value"
    value {
      tensor {
        dtype: DT_FLOAT
        tensor_shape {
          dim {
            size: 8
          }
        }
        tensor_content: "l\340W?{x\270;N\227C\274A\235\"\275\347^\031\276V\213\177=@\362-?y$\235?"
      }
    }
  }
}
node {
  name: "FCN/dense_2/BiasAdd/ReadVariableOp"
  op: "Identity"
  input: "FCN/dense_2/BiasAdd/ReadVariableOp/resource"
  attr {
    key: "T"
    value {
      type: DT_FLOAT
    }
  }
}
node {
  name: "FCN/dense_2/BiasAdd"
  op: "BiasAdd"
  input: "FCN/dense_2/MatMul"
  input: "FCN/dense_2/BiasAdd/ReadVariableOp"
  attr {
    key: "T"
    value {
      type: DT_FLOAT
    }
  }
  attr {
    key: "data_format"
    value {
      s: "NHWC"
    }
  }
}
node {
  name: "FCN/dense_2/Relu"
  op: "Relu"
  input: "FCN/dense_2/BiasAdd"
  attr {
    key: "T"
    value {
      type: DT_FLOAT
    }
  }
}
node {
  name: "FCN/output/MatMul/ReadVariableOp/resource"
  op: "Const"
  attr {
    key: "dtype"
    value {
      type: DT_FLOAT
    }
  }
  attr {
    key: "value"
    value {
      tensor {
        dtype: DT_FLOAT
        tensor_shape {
          dim {
            size: 8
          }
          dim {
            size: 2
          }
        }
        tensor_content: "\301\245\256=\351\247~\277~A\004\277!\214\333\276\354iG?.Df\277iX\210\276\235\177\352\275A\235\257\273>%\377\276=\347!>\2421\236\276\246o&?\'|\347<,\204\031\277\202\014\031?"
      }
    }
  }
}
node {
  name: "FCN/output/MatMul/ReadVariableOp"
  op: "Identity"
  input: "FCN/output/MatMul/ReadVariableOp/resource"
  attr {
    key: "T"
    value {
      type: DT_FLOAT
    }
  }
}
node {
  name: "FCN/output/MatMul"
  op: "MatMul"
  input: "FCN/dense_2/Relu"
  input: "FCN/output/MatMul/ReadVariableOp"
  attr {
    key: "T"
    value {
      type: DT_FLOAT
    }
  }
  attr {
    key: "transpose_a"
    value {
      b: false
    }
  }
  attr {
    key: "transpose_b"
    value {
      b: false
    }
  }
}
node {
  name: "FCN/output/BiasAdd/ReadVariableOp/resource"
  op: "Const"
  attr {
    key: "dtype"
    value {
      type: DT_FLOAT
    }
  }
  attr {
    key: "value"
    value {
      tensor {
        dtype: DT_FLOAT
        tensor_shape {
          dim {
            size: 2
          }
        }
        tensor_content: "\374\310\213\275\246\313\213="
      }
    }
  }
}
node {
  name: "FCN/output/BiasAdd/ReadVariableOp"
  op: "Identity"
  input: "FCN/output/BiasAdd/ReadVariableOp/resource"
  attr {
    key: "T"
    value {
      type: DT_FLOAT
    }
  }
}
node {
  name: "FCN/output/BiasAdd"
  op: "BiasAdd"
  input: "FCN/output/MatMul"
  input: "FCN/output/BiasAdd/ReadVariableOp"
  attr {
    key: "T"
    value {
      type: DT_FLOAT
    }
  }
  attr {
    key: "data_format"
    value {
      s: "NHWC"
    }
  }
}
node {
  name: "FCN/output/Softmax"
  op: "Softmax"
  input: "FCN/output/BiasAdd"
  attr {
    key: "T"
    value {
      type: DT_FLOAT
    }
  }
}
node {
  name: "Identity"
  op: "Identity"
  input: "FCN/output/Softmax"
  input: "^FCN/dense/BiasAdd/ReadVariableOp"
  input: "^FCN/dense/MatMul/ReadVariableOp"
  input: "^FCN/dense_1/BiasAdd/ReadVariableOp"
  input: "^FCN/dense_1/MatMul/ReadVariableOp"
  input: "^FCN/dense_2/BiasAdd/ReadVariableOp"
  input: "^FCN/dense_2/MatMul/ReadVariableOp"
  input: "^FCN/input/BiasAdd/ReadVariableOp"
  input: "^FCN/input/MatMul/ReadVariableOp"
  input: "^FCN/output/BiasAdd/ReadVariableOp"
  input: "^FCN/output/MatMul/ReadVariableOp"
  attr {
    key: "T"
    value {
      type: DT_FLOAT
    }
  }
}
versions {
  producer: 175
}
