node {
  name: "input_input"
  op: "Placeholder"
  attr {
    key: "dtype"
    value {
      type: DT_FLOAT
    }
  }
  attr {
    key: "shape"
    value {
      shape {
        dim {
          size: -1
        }
        dim {
          size: 23
        }
      }
    }
  }
}
node {
  name: "FCN/input/MatMul/ReadVariableOp/resource"
  op: "Const"
  attr {
    key: "dtype"
    value {
      type: DT_FLOAT
    }
  }
  attr {
    key: "value"
    value {
      tensor {
        dtype: DT_FLOAT
        tensor_shape {
          dim {
            size: 23
          }
          dim {
            size: 64
          }
        }
        tensor_content: "-\021\312\275\341\225;=)\022j=\030\314\036\275g\003\201;[s7=J\"\355>\022\302\007>C\307\\\276+\2012>\025lp=^X\320\276#zf=\375\034\223\276;\037\321=\343\360\210\276j\352T\276\353\332\224\276\314\217\260=v\354\244>\r/\364=\032m\256\2751\314\206\276\327`\220=J#l>\276\374t\276p\302&>\256<\023>\372\362\374\275M\373\273=\004\255\201\275,:\013>\333+1\276}\241\026\276\347\3450\2764\341\316\275)\272x\276\370\237\331;w_\034>\004\213\n>\n\327\201\276\031\275J>\216\370J>\245n\3339\320\n\330\276\350\305\214>\352k\357=j\033\335\276\363\343\261>\277\002\316\276\330!\276=\263S\037\275.\2522\276\216Yo\276\204\232\231<\204J$\276\215\235\307>)7\002\276x*j=\344\227>>\253\310,>\341\237\254\275\211\332$\276SFc=\301\253\000\275z\032\204\276\375L\250\275\033\260z>Y\'\r\276\324\214\320\275[\001\346\276\2334C>\271\342H>\226\224\017\277\030l\345\275\206\344%\276\\\2324\276\214\230\236\274_\322\236\275\3759\221\276C\007)\276\274I\013\276\013\324\211\276\373v\236<z \033>(\017\306\273Z@\224>\273\3236>,o#\276\226\324H;\314\200\344\275\364\267\221\274*\205f>\356<\231=\203\034\334\275\r\352g\276\036\310\336=\020W\340\275b\363\027\276o\376\231=\306a\362\275\n~\030>\303\345A\276\346\206Q\276\241\2438>\'\242\301\275q\375\226=7\330S\276\326y\233\276W\251@\277\006\030\007>\254\332I\276\261*z\275|\020\270\276\233\214\"?\273\336\223=\250\230`\275\2423\277=\274\232\010\275\335(e\276 \215\351\276\221\375\261>w\365\276>\314\311A\276\311\346P\276n{\350\275\226A\244=T\021\016=\307\2322=\026\231z\276\007\346\371\276\231\367f\276@\356\205\276$$\031\276h\362\003>\303\341U\276\364u0>\374\305^>\035\215\307\275\307O!\276\223P\211>\375\330\245\275\251\367\300\277\216$q\276r\205\372=\340\003\303=\320\330\034\275g\204\026?l]\216>\233\362\226>\337\233.\276P\260T>\267`\351>\332\203g=O\245\222>K\275\346\275\200O\177=}y\013\277\005wt\276\244-N\276UJ\261\276\363v\233>\220zq=2\200\035\275C\2102\276\347\363>;\037w\006?6\376o>6\224\321\275\241\356l\277\037[i\276\254 z\276\331\350E>\017z\253\275\234\234\017=\366\220+\276\352\265\334\275>\351Q=\355\364<\276\223l+\276P\254D>R\355\000>4t\034\277\365\326\257\274gW\026\276\177\311v\276I\203\220\275\371\307\357<\246PK>Vz\237=($\020\275\261\006\001\276\330\270\336\275\210N\207\276\266\177s\277\255\323\177\276^\261$>J\271\020>\303\201\324=\277p!\276qmJ=wK\315>ZG\331>,\274J>H\301\320=\336\245\020>W\233&\300\215\030\360=\347Yl\274 \\.?_\252\022\277\231\241\274?\334+\276>T\017-\275~\n\332=`\222\270\275\255o\r\275\014\372\r>\272\226e\276\365\363l\276\315\223j\276\027\255)\276D&#\275\245\\I\276j\351\317<\354\227\214>\360cQ>\313\342\347\2752sM\274\355\033\003\276\371\3752?\230cV\276\274\004\024\276\\\346=>\211\332\237=}h\205\276\221\227\216<4p\177>n\334\2429z\320\367\275oMJ\274\035\266=>\300,\337\275\261G\202>\301\370\201\277\335*\037\274\363?s\275\000\241o\275X\035\023\276\236w\203\277\016\014u\275\304\267x>4i\342?K\213<\276\317\237X>\335\366~=\306\267\025>\007R7\276J\224\241=<\314\010>E.\347\273\323&\215\275\212r$>SY\014\276U<\266=p\206\226\275\325su>u\241\203\276\272\314\322\273\354\277\315\276J\247\030>\326\212Q:\262\345\t\276\237]\213>y\\@\276\\\371I\275\307\332:>x\355\n>\326!\253\276\344\215\t\276/\301\366=\010*\021\276\336\373\031\276\216\241_\276<+\206\276 \327\251\276\371\336\342\273\260bT>\230\004\000\277Q\376\260\274t\254\013>\203:D\276W\374\303<m\003\224<\276\352\365=\213u7\276\202`v\276f\246\332\276\333TA>\026\205\202\276K\200\247\276\037\261J\275D\236u>\202&2\277\370\243\214>W:=>\010\355\025\276_\233K\2763\253X>@\311\t\275\310;\n\277an\227=\217\2032\276\014\263\026\275\303\234*\276\347\222\345\275\211P\324>x}M\276\366\361Q<\256\327\213\276\035t\215\276\002)R\276Id\211?\301\002\205=k*\3446\375]\270>u\357\320\275z\"\236\2758H\373\275$r\233\276i\352\250\276\272\006\001>\364\347N>\271M\246;a\351\354?1\316/\276\223P,\276E\201%\276ea.?\301\360c\277\'a\226\276s\251\207\276\367$x=\227\'\206\276\273K\200\275n\237d\275\274\305\362>|\210=\276z\021\207\275\034/\217\2753\262X>V7\210<\036R\270\275\364\343\017<)\301\361<#\331Q\276\031\332M>\225\374\200\276Y\240\262\276\367\274p\276y\317\367\275\225\357\341\275p\236\006\276\225UC\276\257\224c\275mm#\276\347\247\254\273\226\370i\275\002#\221>\255\312\241\275u\234!?\347~4>\264wA?\304+G;\375\264\026>\241p,\276\266V\200\276\257\246\270?\242\332\230\276\344\251\036>\224\001\274\277\353;\201\274.M\262\274\200b\201>\233p\264>\313/3<\241\005\274\277\r\241\251=\\\202*>\304\273\221\276\331\033\201\275=\212\020\276\321kI\276\033\245\350>\024\327\037?DH\303\275\204|\221>BU\276\276\356VD\300\227\034\001\274d\363~=\215w\255>\241\356j\277\2043\355?[\213\007?D\263\235>\214\246D=vV\201=\211\251\307>\211\242a>\007\277G\276(\264]>\0332p=\013\025\207>c\037\313\274\206\026\204\275/\255\323\275\361\277u\275\370t\256=_\334\212\275~\376\252=\323d\270>B\225Z?\032pn\274\275 \304\274%\r\311>\324\200\253=\306\373\203\276Hn\325=\337iE=\2346\030=\273\201\302=\013[%\276\270\245\363\275%D\001\277\213\304K>;\261\261\277 \313m>dY\316\275\025\235\212\275q\025\207;\341\337\362\277]2\362>\242\371\341\275\316\243-@\343\022\235\276=\276v>\331\034\207\275\035\262\234:W\021\326\274p\361\036?\3768\253\274R_e\2765V\364\275\273\225\032>\317mn>\342T\232;j\256\233=d\343\255\276\221\222}>\353$\2768\023\017\337=\000\340\253?\361\247\207\276\226\020P>\345\326\374=F)\234>\020B5\277u\334\230\276\006\351S>s\010M\276Jv\310\275\334sM\276k2\344\275\222\304:\275I>\317\275K~V>\031\326\032>\363\253\301=A\372A\276\324\025w\275ZK\262\275\302\356i>\254;\035>C\334,>\200\303\262\2753\355\253\276\263\014\361\275Al\000=\340\272\001\276@I\327=\r\363\203\276\367\2738>6\316[\276/\037q>\367\373>>\022?\213>\301\230\271<\237f\352\271\230-\n\276\034(\226>\364\010z\276\177=<\276\211:=>\353\305\350=*\304\271>8#M>Zr>\275\236\351\021\277\\\204f>h\033\275\2759\251\260\275\203\016\322\275cf$=\021\235\337\275\276\020\257<\260<\367\275\225E\224\275A\242\331=\014\214l\276so\215=\"{b>\247\005\035\276O9\013>\"\272\360=\274\243\374\275A\002\003=*\344\n\276\206U\267=\217\353\310>\366\0358>]\354P=\304\025\301>\274\251\033=\341\313\366=\255\247Z=M6\325\275\246\035Y=\243\3176\276#\256\307= \211\274\275\377\270b\276Q\371e\276\226|\"\275\334\002\264<\305\203P\275\r\323@>Ij\367=\376\251\302\275\013#\233=A\230W\276\244al>\227\241\017<\244\3058\276F\203\037\2762g\206>\310\215\244=\370?n\276q\354\020>4\t\376\274\246\000\307=\312\373\203>\235{\n\275\256\235~\276\360\2514\275(\020{\276\217\264>\276\220\223}>v\'\027=IP\233\276q\352\233>L\227\274<\260\034A=\317\260(>\371\305\"\276\2209@>u\031*\275\326G.\275\260^\023>\324\350\235\276\277]Z\276c\276\320\274\025\212\277\274\253\252\333\274%\362\177\275\225cE=\306\305T\275\371;\231\273\251g\322\273\2579\245\274\254\263\203\2736\236#\274\334\026\215\274\270/\"=\244F\260;\000\005N=\354\322\001=\313\202\004=L\335\003\276Z\374\225\276> \321\272\212\330v\275S\376\336\272\342;\033\2769\353\274\273V\342~\276\345\331\215\274\024\220\222\276p\300\013:\245\214K\275\t\267M\276\250y,\274\'H\273\273d\246\267\276j\274\320<\177\004S\2747\374\273\273\277\235$<\317\3323=\334\371Y\276\373\276\030\2748\375\374\274D\201\262\276\000x\002\274\000n\307\275\030\310\364<\342\254\203=\251\241\350\27548\000=Y*\204\276>\310\252;\347\002n\276\256?\021<\320\271e=\277f\320<+\353\323\274o\264\223<\021\316\274\275\333n\342\275\334\331\343\274\265\215&\276\356T\036\276\177\235;\276x\324\346\275:\007\317\275r\n\322\275\270\216\266\274\022\242\214\275\205\302B\275\206\255_\276\036\334\246\275\212\266\203>\351\024\211\276\370\361\204\274\036\322\215=\274\252\026<Pe\220\275\\\326\317\274)a!=z\371\215\274\006\354\223\275;\263\r>:1C>\243~\\\275f\256\247=\277\221\204\276\246\271\216>\3348o\276v\020X\276o\274 >ZB\002\276\2161+\276\260\313\023\275\306\247\032\276\265b\222=\304\337\243\275*\310\360\275gF]>\255D\366\275\025\021\221\276\314<(\276X\225}\275\200}\375\275d\275\370\275\007\002\257\275\353)e=\t\326C>\215L\304\275\333\366\033=E\204\213\275\021\374\n>\334\333\223=\316T\234<r\340\021\276bD+>;\335\371<\0256\237=;\277\321=\310\340\220=\272\032\316\275|\333o>%Ii;i\354\204\276XW\201\276D:5>\367\243\005=\372s\246=9\220\031\276\357c+\276\365\200\210\275\374\020\244<K\274\035\275}\3012\276\214a)>R*\257<\261\016\210\276\310\310\263\276{\033\340\273\3051\252\275:\302\322\276.\240\304<\007\317Q\277m:\354=d\322\266\274\376\025\326\276&\343\331\275%4\247=\030\261\261;\005\245\247\275d\204&\276\245^\223\276\002\030\312=\"\212\337=&]\026\276\245\203\021>\266u=\276\n\'\t>\022pF>\334\325\321=\003\325n\276\016\362\223\276\223\2510\276*\270?\275\241\256{\276\316\356A>\351\255\237=m\236\004\277\336\254\200=\017=t\275`\371V=M\233f>B\324x<+\005\216\274\373\362\002\277S\352Z\276\230\246/=?O%\274\2166\320=<k\224\276\003\367;>\356|\036\276~\234\"\276_\036\231\275\206a$\275&\356\213\276AE\036=\033\232\207<\253\036T\276\224\006\240\276\305\316\010>\rT\n\276\324\211%\276\312.\247\274K\003R\275;\370\024\276\017\316!\276\352\263c\276\322\213\022>,5\025\274\210\t\240\276@y\n\276\375p\036\275u\230\327=\300K9>o\336O\276\344\260x>W\201\274\275K\247\266\275\301\345@>\355\022-\276\377Z\241=9\250#>e\013\004>\030\247\314={\257\213=\325AU>\351\320\010\276TO\261>}:a\276\222\034\210\276\032f\251>\251z\263\276\360\311\256=\023/0\276\305\027H\276_0\252>\002\213R>75g\276\264j\234\276W\376\257=\014{,>H\021F\276\317\004\310\276\275\257\217\273\235\335\004\277\260\274\275\276\310\t]>\020S\325=7\204\235\276\366\353\316\272k\022\310=+\'\365\275FA\301<\204Kv==\275\357>E\223\027\275\351\202\032\276\360\265u=B\257[>q\316\370\276\266\2506>\371\366\350\275\220K\332=\211\337\"=\367\326\025\2768\203I>3vO=\231+\202\275yk\021\277/\270\231=^\255C\276\030. >S\022\363=\003\360P\275\335\346r=F&\343=Z\257\221\275[\301\277\275\225I\020>I\271\'?M\300\225>\274?u\276(\006w>\301O\031\276\335\245\227\276\204\030\037\274\340\330\377\276;xW\276f\030h\276\255]N>4\371\002>\247\3061=\315\034\212=\375\305\211\275*\301N>\007\240\205\276-P\220=\007i\201\276|\231\t\276\200}\242>\021\002\262>\2551d\276\"\331t\276\211\2716\276\030\322\262>\002\262\331=\212Zh\275\302my\2764\371\356\276\201\351G\276\2409\000>\300\255\241<\n\323\264\276\364\027S>H\325\335=\372\362{<K|\214>\220\334\027\276\346\335[\275\2433W;\215\357\274>\r\347.\276\315\340\025\276\273C\030=\354\314\242;\t\274\017>M\320\320\275E_y\275s\005Z>\025IJ>\022`z\276\030$\306\275!\270\247=\027w)\275a\270\212\275E\201A>/\250|\276Ez\014\276\352\016\030>\253\026@>@G\266>\326\027\242\275\366!J\276\2769-<\224\360\216>@\345\246\276G\206[\276\365\327\020>4|,\276\\\302\340<\224XD>R\234g\275c\253\362>\307\331\270=3\254\320; \000i\275\252\026\003\276\357\316\"\276\204V=>\025>\245=\362X\\\276\200\233;>\350\177\265=w\330\205<\3425\241;\343F\213=r\203D>Z\"Y\276?B\017\276:\346J>\311\001f\275\221zF>q8n>\333\005\367<\374\355N\276\034/R>A\r%\276\200\315#\276U\225\306>\202\022p\275N\217M\276|#\202\276\032\331\033\276\374\275\270>B\226@\275\r\242r\276\252\260\017\277\275\335n>\257|r>\236m\013\275\206{\216\276\200\026\364<0\334\333>\252\005:\275\002\032*>\357m\331\275d\257\342\275[\355\205>f\305\023>`bu\276\246$\270<\265\"\333=7j\033\276`l \276\313\220\320>\3755m\276\347\311[\274\260\312?>\321\351\277>\227\000V\276\016\321\253\276L?\177\276\024^\207>\246\300\364=\335k\021=\250\357\311=C\314\014?\267~\205>\302\362-\2763oP\273U\376\341\274\272\217v>\'%(>\257\243\225\275\244\247\363;\016\371\353\275\364GP\276\364p\253=\311X\337\2753\020\027>\"\317\256;\267O\246\275\236\241\305=\035\344F=G\316G>\021\033\201\276\034\345D>\206\367\341=\2430\272\273\332f\032={G<>>\2346>\245<\346>\374YS>I3s>]\033\245=\3114r\276\267b\325>\221\214L\276\030bP\276\265\343/\277\264\262\211\275\307\277\201\276X*\203\276`\034u\276\274?\203\276\345G\246\276\372\314\032>~H\013>\006\024\314=\261\264\232=\304\2202\276\274v\302<Z\314T>>\213\020\274\\\221\216=\224?\310\275~\376^>\307_F\277L\300)\276\177R;\276{k\230=/\035>\276S\317\366>\373\027l\276\254s\206=\361p0\276\277\001M\276=/\231>@x\214;\233_\235>\375\n>>,C9\275\213\377\014\276\367\210k\276\227\330\274=Df\214\276\345Ds>\252\223\014\275\257\243:\276\210F\005\276T\337\n\275\007%\221>\376/\254<.\203y>^\t\216\276\266\314 \276\0225f>\273Z\347\274\374\230\224\275A!*\276\377\321R\275\260\2627\276Mh`\276R\006\233>\351E]\276\372\365\001\276\000\226O>\370\265x;R\306\214<\374\352U>C2}\276\211\033\347=\375\356h>\275\022\025?\207Y5>?\205U>\014\037\202>,\261i\273\260>\253=A\2329<o\204U>Z\305\004\274\000p\215\276\014\214\261<W\001\206\276\210z\230<\n\214\021\277\207Tl\276\324Y >%\311O\276\251!\265=3\375\201\277\362\024\362:\030Vp>x;\000>2p\006>\350\212\340>Q\"q>v\263\265\276\005\213\343= \303\214=\360\234\213>\'\237a=\257\221T?\033}\007\276yn\004>\226\276r>$j\033=\007\306\250=\311G\352\276\256\217\344=L\336\237\276\250\'j\275%\344\201\274x\325\037>\0043\272=\225\377\007\276\326\001\320<K;\201\2761V\304=\343u\003>2\304\222=W\026\325\276\343L}\276\2035\270=\374u\375=\207L\256\276IA\021>\347\354\236>_kk=\344\014\274=\030\361\227<\000)e:\325\364D\276\363$\010=\036\013(\277\350\306[\271\272U7>\361x\006>\375\264\014==\344\342\276\236\0175>\243\2460>\304nw\275\n\203\313=\021\255[>\036w\177\276V\341l> \337\343<\342\3009=\332\227\311>R;X>\374G\001>w\356\213=\360pD\276@;\234\275*\341n=H\261\024>\274#\322>h/s>(\021{<\373\331O>\367n\327<\361\031T:\275;,>\236\340(>\333~\312=z8\373>\341\0071\272\001Zf\275/o\254=\221Q\314<\025\373\211=\272\350\220=(K\213\276\3560l>\000\354{\276\223\323 >=\\z\276a~\376\275\023m5\276M\230\004>%I\347\275\313\010=\274]\006J>goM>\306V\225=\263\323\"\276\242X\000>\242n\211>\371\267\246>\017\337N>!\243\232=/I\332\275\211)O\275R\315\317=:D\200=\t\177!\276?\251\244>\241\264\020\275\305\245l\275\t\337D\276\237\254\220\275~\337(\275\253yQ>\300\375g\276\006\331\261\275\302\026y>+\277\236\2751x\207\275\221\027G\275S\367L\276\261\010\203\276Y\345-\275\367\3335>\203\230z\275M\354F\275\277\232\001\276]\353\002\274\020RD?\237\206\200>\272\247:\276\313Ua\276\036V\016>w\r8\277\240-\300\276_\313\332\275.G\002<\342\256\353=.\305Q\276\315y\355\275\314\342\007?9\244\265\275ry\030>\355\264\007=\305\231l>\241d\002>\300\236\025>%<H>\312O\356\275GqG=\\\2762>r\217B\276 \305\203\276\366\216>>\023\235\200=\3450.\276=vE\275/$c\275/\252\022\276;\006\013\276\246\032\004\276i1\223=\273\303\r\276R\320\315\275\032y\317>\363$\006\275hr\007?lK\255\275\240\325\031=\344\321\362=}$A\276\343\260h?\'1\025>g`->\272\312P\277\005\177O\276\363\261[>W\224R\276\004\376\226\272\335\210\336\275V\311(\277\226Go>\267GD>\303a\003>\206\364g\276i\265?>\335t)=\210\024\036\276Y\207\252>;,c\276\256\233\000\276\034q!>!\005`\277\227\307C\276\"\300\024>\240i\233>Yz\243\276\177\322\027?\325[\271=\374\347\007>\343Z\240=\006\361#=\272(\260>\022q\027\276}c\204=\305\373\022>\346\354O\276\303\372\204\275\325\216E>\237\310\252<\030\356\273\275Zz\357\275a\233\204\276\377\360n\276\365\014=>\271*\301=\3068\234>-\254\367\275\213\201y>(\353->\240I\032>\256\247#\275\r\262\002\276\373e2\276b\247\357\275_Jy>\014)\364\275[UE>\267W\212=\242p,=Z?$\277\245\017\035\276\022\277#\275\000z\347=Q\334\332<\2434C\277\230\230\312\275\247W\211<\3659G?Q|\274<\311C/\272\335)s>\017\241\314\275\250nC=(\027\347\276\371\027a>\374\273U\276\375\251\277\276h\300\215\276u\010\200\276C\366\321\275\366+\307>\'IY>\016\242\365\275\3471h\276\246\305\007>\354)\245\277\374\361\031\276&\031\244=\364\250K\275-g\013\277\010\246\034?\3527c>\212\367\213>,!<\275\200\252H>zl\313>?t~=\213\303i\2761D\356\275+\351J\276}\363>>\361Ox\275\314\361:\276H\365{\276\366\353G<f\030\335=\371\375\243=\253\231\254=\242\201k>NQ\210>\376\207Y\275\300\332j\276T\017q\274\212B\202>\\<)\276\367*n\276\371\243\370\275\224E\220\275d\326\026=(\204\007\276\253\007D\276\3626\301<~\'\341=l\035\215\276\3415\010\276C\241\377=\340:^>\240p?\276N\023*\277\273\324\235>\324\251;>\226\340\234?%\262\250\275\351G\226=\353R\332=\327\244o\276\267\030{\2743\n\225?DJF>\021\010a\275\037\035\305>\352<m>\317!\024\276\263%\016>\304\273,\276)S\261\276HG\n=\252\036\210\275\332Z\376=\213\\\374?\334\326\016\2768\375,>xP\303>\224\353~?\255+\303\277\356\310\014\276\323 \037\277\356\356\271=\030\207+\276\337\332\303\276\332\310f>\250S\235>\247_\264=V\027r>\367\312\237=p\032\017>.\267\205>:m\242>\",\211\275\241\366\004\276\2745i>\335\313(\273*n\376<\273\222\n\277YU%\276\312\nN\276\306\013n\276\246?\240\275za0=*\037E=\231=\242\276\214=)=~\266\201\276\021\205G=]\034z\274wE\374\274v\010=\2763\312\261?e\257\r>\370\230\215>mo\213=\014\211\016>\2748\315?YT?\275m\"^\276M\213\337\277\2731F>\020\345\343\275\252\3502\276"
      }
    }
  }
}
node {
  name: "FCN/input/MatMul/ReadVariableOp"
  op: "Identity"
  input: "FCN/input/MatMul/ReadVariableOp/resource"
  attr {
    key: "T"
    value {
      type: DT_FLOAT
    }
  }
}
node {
  name: "FCN/input/MatMul"
  op: "MatMul"
  input: "input_input"
  input: "FCN/input/MatMul/ReadVariableOp"
  attr {
    key: "T"
    value {
      type: DT_FLOAT
    }
  }
  attr {
    key: "transpose_a"
    value {
      b: false
    }
  }
  attr {
    key: "transpose_b"
    value {
      b: false
    }
  }
}
node {
  name: "FCN/input/BiasAdd/ReadVariableOp/resource"
  op: "Const"
  attr {
    key: "dtype"
    value {
      type: DT_FLOAT
    }
  }
  attr {
    key: "value"
    value {
      tensor {
        dtype: DT_FLOAT
        tensor_shape {
          dim {
            size: 64
          }
        }
        tensor_content: "\002]\366<\332ho\275\341\337\260<kJ\225\273LP\2726\256\205\263\2751\367S=\316\221%\273\237zF\274\342\261 >\265[\"<\235_\354\274\202DP=\267\254Q\275\017l\024?H%\035=Er\215\274(\020\006?1\022\342\275\352\303G\274\322\242\232=\013>\302\275\312\024w\275kA\025\274\256\2544>\371\212\";2/\323>\327Z\023;>\216\201\275b\357\201=\227%l\271\225\261p\273t\200|;\333Y\025<\256\3336\270\025J\025\274-\223w<\373\200\'>\335\264\302=2Ry\273v\270\037\274I\317\306=\303]\274=+\035\206\274\022J\317\274\336\366W\275Zt\013=\t\356\t\275n\213~\274\177\2648=\221MI<\211j\036=\376J|>O;\021\274\227d\203=&\352\203\272\346\316U=\006V\016>\0004-=f\361\236\272\374\t\202\275\315n\232\2757\020x\272\036[\354\273"
      }
    }
  }
}
node {
  name: "FCN/input/BiasAdd/ReadVariableOp"
  op: "Identity"
  input: "FCN/input/BiasAdd/ReadVariableOp/resource"
  attr {
    key: "T"
    value {
      type: DT_FLOAT
    }
  }
}
node {
  name: "FCN/input/BiasAdd"
  op: "BiasAdd"
  input: "FCN/input/MatMul"
  input: "FCN/input/BiasAdd/ReadVariableOp"
  attr {
    key: "T"
    value {
      type: DT_FLOAT
    }
  }
  attr {
    key: "data_format"
    value {
      s: "NHWC"
    }
  }
}
node {
  name: "FCN/input/Relu"
  op: "Relu"
  input: "FCN/input/BiasAdd"
  attr {
    key: "T"
    value {
      type: DT_FLOAT
    }
  }
}
node {
  name: "FCN/dense/MatMul/ReadVariableOp/resource"
  op: "Const"
  attr {
    key: "dtype"
    value {
      type: DT_FLOAT
    }
  }
  attr {
    key: "value"
    value {
      tensor {
        dtype: DT_FLOAT
        tensor_shape {
          dim {
            size: 64
          }
          dim {
            size: 32
          }
        }
        tensor_content: "\351\342d>\342ws=\034\311F>\374\205\222<>\247W>\213S\264=I\334\237\275A\371\254\276Al;\2766\220\337=\013\305\002>\022\035F>\325\346U\275<v\304\275\355\032(=?\021e\276\306>\271\272\326A\'\276\204\343o>|\271\024>\251\347P\276V\303p>F\307#\275\211\234\253>\234\367\n=>\315\031>\340\251\036=\257\017\r\276\\B\354=\003\224\'>\324\212A>\005V\201=\034RN\2760\203\022\276k\273<\276\0377\037\276\256\353\216=i\361\375<(\003\035=\204\0374\275;\234\241<_|_\276\314s\n>\247\031\216\274>\321\036>\350\316R\276\007`I>\001\367@=\006F\210\276\326\364\006\276\364QY\276\004\0037\276\014\022\231<G\377\217=\256\251\317=UI\210;\007\\\035\276\256\"\203;\270\021\024\276(T5\276xgd\276G7\354=1\030w<|a\021>\323;w\274\354wh\276\254\366\216\276\023\370\005\276\270\330\321=\237\2757>\351\326\020>($\027\275%\371\303=\307\036\260\274\230\351\300=\262\244<=Jr\371\276\\s\037>\357\341\006=?`\036\276\342v\303=\271\266D>\n\234\031\276\264\330y\2761\244;\276\357\017\331\271\354/\326\273y\315\263>~\200[=\\n\324=9L\251=u`k\275u\3339<n\217\367=\260\030\036\276\335\207\203\276\346\203t\276\352\013\022\276P\216:\2760%`\276\177\251G\275\3678\270=Q9R\275\203\226\025>\035\346\202=\t\346m>\000Pp<\213c(=\337\364\340\274\020\336[\276\343\225\214\276\331@O\276T\233&>\232](=\300y\\\276\220\3044=\t~/>\304\244:\274\346C\370=`*\036\276m\263\007\276.\350P\275\255\306Q>\020\035\310\275!\264r\276\0218)\276\014\025&>\222w\007>K\027\006>\353\225\263\274b\037\032>\300\201D\274:\327B\276\t\247\t\275\365\266\222=\223\237\'>\000\312\301\275\214f\002\276\017\321\345\275M\020l>\271{V>d-X>\354qV\276{\270\204\275\305;w\275\007\002\310\275\240 I=@c\021\275}$r>\200\303\255\273\2445\243<3)\334=%r5\276\203\251u\276\350\267\255=`\210\303\275:\350\202\275!Q\330\274t\2410\276N\251\026\276\"\204D\276\321\002}\276*t\301\275\342\370\214\275\013\360\032>\357\002\316=\225\032\272=C\217^>\252jI>!\365\366=\245-2>\326\341\265\275\2443\307=*\234\375\274\242eF=\177i\342\2755\263e=\331\221[>X\237p\276H\307\232\275\256\037?=\333\006\003>r@\306\275\375\342|>\271\013~=\207]\005\274\3331\212=\367!\023\276\2224\213\275\177\225\207\276\344MK\276\002g\260=\265\372\203\276\027\371\372=\013\227\000>\366Z\014\276j\206\236\274\215\242\326\275\264*\252\274\310\\I\276\273\377>>\022\342?=38\224\274G\021D>\305(\213\276\310\3779>E\001u>\326eW=SJ\003>\224\350o>\212\264\326\275\240\257\013>\330\343\024>\364E&\276\311\245\004\276k/2>\257<\272\276\367\203>\274\355\037]>\266N\367=\2579v>\031\037Z\275\316\215\271;\315\2309<#\345\327=\340\252\200=\032\227%\276\350Mx\276\331:1>\030iG\276\007\256l=\270\376C>\210\031\240=\355\265(\275\222\347\202\276\235s`\276+\357\366<\201sB>6\346\t=\354\273E\275L;\335\275\001y*\276\331[X\275\270\3649>\276\231^>\376T8\276\260F\032\276\240\030\007\275\324dp\276\335\253]\273V{\240\275\246\236\203:\240)\013>\230r\034\276@\271k\276\301M(>\364\324G=\272r\016\276\322\002H>\343\361\254=\3146y\276\322\372J\276\217\304z>kQf<I2\343\274\263\360\021\275\225\036\036>\372P1\275\322\257\315;\370\316.\2764\335.\276\0224\246<Ml\032>\236\252[\276\030<$\276\310\255\232=4\325(>\214\201d<\321\274\371\275\331\024,>\r\366E\276\313K,>Z\331/\275a\016\332=\241\374\031>\313\324\222=\0003\035>\036c\265\275K\032\311=\022p\201>\346<\242\275\3023\340\274\211\306\302\275\345\246L\276\204\t\215=Y\0367\276e\023\311\275v6R>uq\330\274\213\212\346\275\'U\237\274\037\263\222>\360B\251\272\354\217\025=P\311&>\350\321\037\276\030;?\276\254\316{\276\253%J\276D\252\236>\2069\327=d\355\336=E+_\276i\2311\276\271\230\326=\372\033\030>\226%]\276\201\327\005>\240h\t\275oJW>\233\261\201\276*u6>-t\345;\225|B\276og$>\200G\245\273_\327&>\227|D\276\301t%>\306F\244\276\241(\247=\317\326\232\276X\023\322\275\314Hl\275Z\3122>!6\037=sJ\305=\221a\203=\272\340&\276\320\205Y\275\364`u\2764r2>\255\r0=\254\262\304\275\305c \276+a\342\275\343\367\026==9$\276:\341m>\027\346\362=\352\013\035\275\313\264\255\275;\221H>\371\247\232\275\254\027\247=\220\201\271\275\312\266\265\274\0250\223\275fH5>\035\341\276=p\365K>\267f\017>\241.\243\276\216~\001\276V\'7\275\200\302\036\276\t\233W>\264&\335\275\232\303\273=>2\014\276@\256<\276@c\031=e\2223>\255\367z==n\204\276\333\036x>,\0010>,|\022\276\006\337\016\276\213\226t\276\353\363\236>\213_\301=P\226q>0\254\267\275<\0327\276\014\201\037\276%zr\276\315\t\212\275\271]\210=\302\344\315\275&j$\276:q\033>\272\354\n\276T\316r\276\250\307M>\026\335\033>\021\273\312\275\312Q\322<\367\200a;-\234\311=xZ\223=_\370\307=p\274\312\275\000\202\367:~V\374\275\320j\333==\322=\276\321\r\215\275\307C\034>Sp\303=N\3325\276\335\373\034\275\2034\366\274E\"H<\260\316h=\250\273\254=\202\260\"\276zpX\276_\010\030\276,\360$\275\207\244\254<\361\357\234\275{L\001>\n\034\265=\375\031\'\276\272\006~\275\317\374\352=V\240\366=8\031\234\275\226G\212\2760O\257=\256\274*>\215l\343\275\231&\351\275\000\017^\274\240\233`\275\211\304\374=\215R\207\276\234*\024>\325\227\035\275\321\373\251\275.\325\327\275\027.6\276\371\243\376\275\332\327\233>3\371w=\234!w\276\352+t>\325_\006\276kt\004\277\213$\224>\200\372\230\274\347\203\037?\252\020B\276\367=\257>3S\215\276\177J\251>:\307\272\276o\373\207\277\004bn=Z\324\026\277\211\342i=\226\246\004?\376\304\326\275]\226\274\275\'\324\335\276\"<L\276@\271z<f\333i\276\225a\276\276\003OC\276U\305g?b\376\344:\031\267\304>c\302x\277z\035\021\276r\251\333>\275,L?K\260\027\274\261\227\253>7Q\326=\211N\177>o\027N=6\356\022\276\025\016\206\275\201\216x\275\304\255\014\275\305\366\251<\201\312S\276\223\'\177>\234\221c\276\373\007\260=m\361\003\276] h\275q\376\361\274D\004q\276\340\223b\276\343\365v\276XY\336=x\024l>\373\233\256=\261\002\031\276\231\220$=B\305\253\275u:\210=\312\221\261=4U\014>\0249\360\275IE\362=<Y\365=\357_E\276\007v\260\275\005\346\025>\236\034\233\276\271\020\207\276\370tX\276Y @\276)n\323=`^n\276\346\3525\275\023\320C>\300\020+\275\237\202\200\275\277\261\256\275\260QN<\336\3529\276\333\010O\276\032\026?\276\321\023}\276L\001\"=\344<e\276\210\3533>\t\207\346<\372{\312\275\261\";\276\003\351\005\276\027:M\276\271\312G>\277\205\330\274\236\026\244<X#~>9\265\030\276\340\327\344<\224\373\336\275\234\007\325=\251;\315>L\rM\276\373\251q\276\273\376k>\360\032\371=k\363\214>^\223\021\275G\320k\275\357\355L>FE\211>\300\214F<I\312\361=G\365 \276\226`\326=Y\'Z\274lr\024>\375y\\\276\270\274\207=\314\356r\276\215\032\375=\233\312*>\302\270%>7wp\276^\241\256\274\311\002\005>\032O\344<\331@2>\001\265\207\276\232r\205>\304\245\n\276\350\272V\276\327\032\245\274I\"<\276\037\217\227\276@\331\016>\356\004\274<G\267o=\230\304\210\274\207\3379>\227F\227\276?\213a=*O}\275o\256\206\276\244\341\010\276\226\277\257\276\361\210\262>\320\2232\276\375~\217\275\035Mk\275\343Rs\276\340=\237=,\275\354=\020N\227<\035d\310=\264\250\024>D\360&>\303e\216\275!\351D\275\234\337\330=* $=\024\2775\2765\366b\2762\363\331=yw\214\275\355\016Y>hr\030\273\365\230\207\276\035\037\224\276\207\t\206=gT@\274H\250\021\276\244\316y\275\032\361\203>1w4>\313 \222=\242X9=\362\346\216\276\216\003\230\276Y\025\260\275\242j\010\2741\342`<\031T\210=\000\363\360\273*\022K\2764\004\265=-+\014>\315]\344< \373Q\276\333\350\245\276\ty\335>\333\252\204>l\345\344\275\257\225\021\273\007\332<\276 \342 \276[!h=(\016\030>.\274\242<\316%\020>Y\322\333\275I\317\304\275d\317\235<im\253\275\211\257\027>\235\330\266\275D/\303\275&\346\304<<\270\204=\021Z\304\275%\275e\276*\260=\276g2\342;E6|\275\325\211\361\275`\301l\275\237\237V>Ou\004>\333\267\205\275\322a+\276(~\303<)\367k=\231\357\364:\371\001S<,!(>r\340\305\2753\336z\276=\365\254\275\327\316\004>\372l->Y\2215\275\220\312?=r\3471>O\022p>@a\221=\2476\017<3\010(\275r\0235=\357Z!\276\004\316\206\276]\020\320=NRF\276QK<=\234\221\005>6\236\273\275\032\332&>XqM=\240#\366\275;A\373=\371\203\017\276\002h\316\274\370\251 \276\240\263\213\276\261<\315=\215\003\352=\256T\331\2741V\002=e$j>\333e\007\276\226\260\250= \363\327<\377h$\272\020\250\242\275\340\346}\276\210M\236\275I\223\357\275\364\016\223\275Y\030\244<|2\266\275\337V\226<PW\201>w\304\357=\027Y\r=+\223\363;ytk\276\251\321\230\275r`\242\276\340\350+<\341\216\177\276x\034\026\276\031\364\302;0w\200\274\265\344\337\274\303\034t=\327\317\321\274\257\373\227\276\257/\264=\202\244\355=\267v\210>\t:@>}4\251\273T^\213\2763\365\336\273\221\373\300=w\3267\276\200\306>\2769\250\024\276\"1\317=\024U\252\275\302\035,\275\372\037\336\275\037\016\310=\177\230&\276\217`\256=\325\336$>\345\231b>/K+\275\226\221\331=\227\342\033\276M6\237=\224\331->\004\025/>m\260\336\275\310\316\265\275N\035\r\275kA\002=~PX>\025\232\030=?\222M\276\323\374\357\275H\017*\276\037\010{\275X\007\244\275\325he\276\343\376>\276\324!\311\273\014\235\200\274?!,\276y\261\320\275\253t\216\276\315 D\274\267.\377=\372\025\204\275\301@\332<\022\254\221=\352\032b\276\272\212\371=n\226@\276\310\366\362=\255\354w\274\302m\234\272\030k\322=V\316q\276p4J=\364N\273\275\000W\034\276\t\240\240\275G\276\327>~}\023\276\376\370I\274\342]\300=hlk\272\354\256\342\275\357b\036\276H1u\276\317\336\217;\330\360|\276\177\250A\276\213\347L>\340\322d=f\212\367\275\203\345\340=#D\354=\356\353\035\276\027&0\276\005\272\333\275h\277\002\275\267\271\r\2754\253\236\275{\236J\276,\241d\275q\035\212=\241\354C>\000\016d\276\324\230-\276\204A]>\006\243E>E#\277=\270\271Q\274\242\225\003\276\270\337\272\275\354\207\350<a\010\001>\241\216\273=\035^h>j\020#>pf\326=#\027x\276\337\022|\276\374\022\013\277s\347\217>\312\235\212\275\2200\035\276W\335\204\275rc:>\311=T>EEN\274\221_\020\275x\306\233\276\300v8\275\311E%\276\3138\322\2752\360\256=q\341\251=\320\002\327=\326\210\343=\3765i\275\200\247I\276\242\267\253\275\2331\367=?\300\n<\361!\326=\216\310\021>P\200$\276}\222\252\276\276\215\211>\035J\032>L\203\245\276\220\311\321\275u\013\272=0\227\014\275\003#\031=\374up\276\334vp\276_\234`>$]]>Y\334b>\022\363@\276\246\231\204=Tk\202\275\031\273\034>9~$>\356\303\353=\037\251\343\275\233\r\327=@\272\332=;\t\323<\347\360\007\276 \306\021\276\020j\310\275]t)>\332\3461>\252q\022\276\005@P\276\225\270r>P\0178>+\344\370=)\245N\276\235\236,>=\347]\276\364\360y\276]1T=R}Q\276\300[\000<+\210\177\276\247D)>.cG\276\304\331\210>G\256\"\276\234\367$=\302\203\016\276\213*\002\276\206\366C\276\246\0035\276\033\231\363=P\320\205\275K. \275q\025g>\242\351\353=\261\006m=@\261\303=\200\201\331\273\202\256\365=tw\037\276\252\036\377=?\213q>x\271\027\275\"\363Y\276\032\346\017\276:\"g\275\272\274\014=\335<\027\276@\272\255\275\327\3510\276\235\035\236=P\351\256=\r\247\233>\357Y\307\275m\035T\276\261\320\340\275s\310\243>\026 \024\276F\257\031\276_\252\244\275o\005(\273\277\254W\275\260\027\234>\306c\365\275\233\353{\2760\013\270>\343U~;\353Wa=x\247B\276\344\313b\276\357\372\n>\337P$>U\235>>U\240(\276\231\3329\2766\220\034\276 m\205>\341\224\266\275\260u\340\274\364\017l\276\330\256\223\2757\361\260\275\304@\215=\200\334->\212H\007>\255\3755\275#-@>\002i\206>\253C5\275\023\324\321=j\352\273=\024\2614\275~\345\201\276l\030\266\275\030\\\203\275:\0079\276\021\267f=R\307\330\275Qn)>y\220\350\275\014\307y>\000\202\322\272I\232\220>\374F\352=\255\234p=\031;\017>S\353\007>\022\323j\276\337\344z\276p\344\264=O\227\267=\204\1775>\330s\004\276.\326\r\276Y\242N>i\276\307=\232O >\261\237C>\351\342+>i\001b>\310\235N\276\027\262 \276g\3651\276w\221\257;\226\265m\276\367x\244\273\216\207\215\274\374\034W;\0045\013\276\206V\204\276\351b\206\276\213\265\006\276\200\317]\276\000\310W=\330\250\357\275R\244\270\274J\035&>\3300\206>O\332\001\276\300\346\377\275\236\250\214\275P\025\217\273\352^7=\307\251\203=`\366\017\276\336\307^\2768[\337\274(\360h\275\301\034b\275u\241\t>\005\215%>B\0104\276\375\034\222<\354J5\276\270\225\214\276P\301\252\275<\304\230\274\345\227\033\276D\014l\276\225c\n=\014EO\276u>#>S\254\213\2734u\027>\265\345\231\275\344%%\276OIj\276W\'\024\276\274Q\234\275\024[\260\276\373F-\276\247J\273\273JnA;%\'[\2753\353\214=i\351\030>H\252\354=\352\271\016\276\375\030\">\210\205z=\0057k\274\215\324\214\275\3645\230\275Tu\225=\010\334\342\275= \207\276X_\234\275/\316\027\276!\346\n>\350\212X\276Pf\233\276$\325o\275\227\241\370<\200\362\241\275V\311s\276\320\333:\276\330y2>X!\253\275\245\3139\276\304{\014\2749\206P\276\372\346\204>\211-3>\031\366\313=\365\245?\275\216\373:\276\337\252\330\274\274\375\022>`\351\014\275\360:!>\022\014+>\323\374\357<\326\271X>\010\375\037>C\322\020\276w\273\201>\365g\277\274\245V\370=\363\214\201=\030V\344;=\373\032\276\306\000}\276\316\242j\275\230\006\364=$ss\276\317_1\275,\311\036\2769)P>\366V\357\274\330\2369\276\023So>\030dA=B%|=\312\332\026\276c\031N>b@\205\276Zcn=I\302v\276\001\250\333=\254\262@\276<\332m\276\360\341\025\275\303\305\331=\346\033\004\276\317\332s>\2115m>\001\261@\274\231\231\227\272v\014\360\275o\204m>=\017r\276\022\n>\276\203\253\017\275t\231\305\275?\342\357\275\004\017\253\275g\321:\276\021dx>\344\204\270; \251g>\230\354\260=T\337\\\276\346\027\316\275\375\033]>\207\274\243=\3530\034>\251\")\276\254\222b\276V\023\032\275\201,\324\275\004\372\034;/\007\360=\274\242o\276\227\372\235\275\005\346@\275\231\033^>KU >wqb=\024\334\212\275\337\321\371\275\224s\302\2754n&\276\363-\">X\347!\276ZZ\317=\367\004\365\274+\345\243\276\030\2152>\374T;>n2\360=\001L\204\276\2521\374=\000\331\350=\\\277R\276\372\001^\276\216\334|\276b\265*>lC\306<p\340f>\331]\371\275\313\371\362\275?\361\013\275\006\000\252<\276,\205=\340\2615=Z\336\356\274\341\257E>S\372\224>\t\213\237=\302+D>\210\002\213>\246%\276=\250M\260\275\371\3477=\345\3540\276U\345X>\264\020!<\2734i=\202nQ>\303\212E\273{\\\233\275\372\214\376=\244\222\211>\361\271h>b\305W\276\364\0007\276\241*\320=+.\243>\277\360\247>\305\366Q=\362\353\026\276\264\277i\276\026\254\010>\366]\374\274\272\025\301\274\303\324$>\345\037\376=h\222G>A>k\276\\7\240=\232\3236\276\352V\375=\332\217\201>\211\312\241\275\272L\302\275N\226\026\276\236\277\257<`T\360\275\326\331%>e\362\365<y\320\313\273\322Y\374=X\224\014>z\2622\276\355B\357=B\305\261\275\325\226h\276x\273\213=\236\305\252\275\245\021t\275\320_9\275\305\026\351=\247\316&\276GA\304\274\253r\375=\311\014\264:\371\224d\275\035>0\276\263|#>\246\253\337\275R\366\255\275\271\007U\276\0209\235\275\230\215\030\276\022,\003>\307r\241=\312\376\354<\340<\222<\032\302\343\275\365Mf\276I\304\261=H\030D>\276\353\n;\350~\210\275\257\344\'=\363\306\211\275\025\310\020\276\273D\205\275@(\345\274\334\003\022>\357\262^>\234\332B\276\302M\253=Q \222\275Q\0162>\360\277L>\371\307\016>\026\016\322\275\265\227&=m.\244<\360\224s>\244K\201\275\\\313]>\362\341%\276\000\314\311\275H\347\271=\203\256\216=\324\246\240=\007z\016\276\"\241\003>\017\353\330=\026\237\242=rH\225=0\270@>\357\217\247\275\355\r\324=\t\017J>\366\035@>Db(\276\026\302\026>Dm\177>\340\3244>%\025H>\346\274-\276\300\342H\275\324\214\347=\354\306;=\314-h=x\231\362\275]\203\372=\016@X>\025c_\276@~p\274M\316\327\275J\252[\276\354\016\234>A\003\325\275\334\241&>\225\311r>&\247q=\324\235\202>\220Z\210\276\354\253\'>\240\3779\275\201\313\021\2767\202\204>\324IS>k\236\020>\363\002\236\275\266J\355>\271\340\213<\373\032\200>\204\017t\276@\360p\274\365\243\220=\014w\314=B\272\262>\326\034s\276X\027M\276\034\332\026>\177\007U\276\361\2523>\314\234\240\276\203\213\027\276oJ\200<\033\212*\276\333E,\276\267>A>]\033\3549g<R=\355\341\300=\304\264\230>S\324)>\247p\001>\376k\202=!\004]\276\252\212\t\276\316{->g\254\264\275 \273\t\276\2127\346;\377os\275\322\251\226\275\204N\027>\034\016\340=\370`P\276\361\025\240=\'\014\020\276\347\"\014>U\237\276\275H\002\371<\274:\235>\325\327$;:\317\220<b\200:\275\205\223\203\275\211\334@>\r\026S>\260\320\006>:.\300<\351Lz\276\224l\001>\354\310\201\274h\3333>\267z\214=\310\363\323\273\351\311\t=\t9L=\277Ob>|\235J>v\240N\276\264\367/>\366.c\276\3157\014\276x~`>\3076K>`\322g\276\310\013\330=\235e\021\2768T\225\275Q\312u\276;he>?#$\276\024C\017\276\024\240:\276\261\'E>\323\030d\276\375\240\371=\350\000\326\275\232dZ\276P\266\273=\253\342\206\276\007<\036\276M\"]>\313\215l\276\302\"\027>\245\302\r>\224kP\276\323\006o>\214\002\321\275j\010\343\275\260\305\357\275\233\312\350\2753\341}\276\254,C>\021\362*>\037\3349\276l.\034>,\nB>\020~\221\275\226p\t\276X\256s\276\361\3520\275&\274^>=n\255=\366+]\276\002\206\227\2768\233&\276.`\226>sve\2760\246w\275v,J<\366\000E\275\330\225A>\354i-\276\3518\211\276\230:\017;\263b\017\275\343\0342>\332\013\234\275\304c\236\276*sI\276:\331H\275\220/b\275\037I\216\276\334x\271=\376\202B>q\3775\276D\367\237\276\220e&=\220<\t\275T\231=>\000m\301\275\327\017s\276\266\004\236=\375\336\r>\036j\355<\240G\240\276\375\206G>\254\324Z\276\325\017\\;\202\347\033>\363W\313\275YA\034>\321\256\200\275\033\020\030>}\013\204\275\030\\^\276J\212\003\276\374\024L=\304\3512\276,2\177\275\211L\256>\247O&\276\002\300D\275\034=\233=\210^a>\217(n>-\234\2639~\307b>\0300\200>\301\315\205>n\037\030\276\320E]\276\304\257#><\307T\276\356\360`\276\350-\216\275\354\254\001\276$\253O\276\371\263\217<\275\356\330\275\275\370\356\274\244<\344=\'\003\013\275\207L\001\276b\350\364=\215|!\276\276\347o\2766\177,>\037\274.>\367\276\246>`\007\n<d\372\246=\2148\225\276\345\201\021\276\324\256\220\275S\367#\276\273\372J\275\353)g\276&\321\254>\210\370X>C\367\203\2740i\227\276\260p\007\275\340\347\203<\350\205\227\275\301\367\005>\261N\335\275\356\211\236>[\350>\276C\216\334=iv\010=\377\312\006\275v\241L>j\367\036>\020\321j\2754\345J=n\2579\276\372\265C\275\304\004\205<\236\336@\276F\343\032=u\215.\275\376\257\330=\351\016\244<\230\353\"\275?\231\026\276\260\002j>\333\361\302=\270\357\033>\304\367\014\275s\004\222>:j]>k\204\260\275\305\013%\275\216+\004>\214\224|\2767\201\256=\331\236\'\276,\322p\276%\274G>\304l\207\272Y\201B\276;\027\275\275\021Kk\276R4\031<\367\247\235\275*M\017\276\265p\231\274;nW\276\202\332\215\275Z\300r>XCb>\206\014\370<e\312F\274\035\343\347\275\315I=\274\214]\r=\313\230\004=.\336<>\303\005\032>\343\260\334=\314\\\013>qg\277\275\002\254~>\274k\255\275B&t\276H\007\243\275\350\366\216\275J\302=\275<\022\233<\265\257\353<\212.k=\177&\203>\203m\026\276\347}Q\276\330`4\276@\3263\276\351\254\004\276\321b\350\275\365I\230\2750\371\221\274 r\204\275\312\340L>\300\2240\276\2735\321=\335t\005>\311\233Z\275\344[p>\215\212\201>\207\2156\276\355\330F>\002\215\214\275e\206\243=)Wv\276\321\344\226\275}\370O\274\327\301\232\276o\345\260\276\233\020\375=\270\324\341\275\241W\360\275Cp\304\275\352\354\006>IS\373=M\220\232\276\000=\021\276V\235\037\276<6.\276b\232\245>\032\"(\275\022\240\322=^c\002\276\361|\257<]i|>\265\312q=\335\317\222=){~>W\201;\276\231\307A>\364e\243\276$:0>h\300;\276\032;\357=\016\006@\276\242\370C>Zb\007>\245\363,=\356\021\021>\217\330\356\275\"\003\271\275\336d\216\275\200=\231\273\r\222\343\274\272O8>\241\230\016>\337\351\375=cFF\275}\0149>L\230\005>\221\373$\276D\3077>\261\314y=R\355\213\275l\301U>\363\3460\276\275\255\024\276\317\355\216\276F\316<>\243\226\034\275\277\323\"\276\217s3\276M\354C\275\321\020\\\276\334\321\262\274\336sX\276\220f\304\275^kf\275(\310R\276\265ss>\327 \003\275\321}\220\275\260\2540=n\314\326\275\000W\243\275\217\235\032\276fi\230\275\317\020\216\276\341\022r> D*>\313\344\006\276\266\340\257\275F\210\035=\322+\215>\346J\001\276\3200\203\275\244I\201\276\277@A\276\365\264\002>!\376\3229\000Z\273;%\226.=\031u\252<`\0019\276u\266}\275\031\037T\276\316n\347\274\2009v\276\257\032\332\274N\037\203\276\3409\032>\303\222H\275^\240\356\275\211\017\250;\267\032i\2768\030\326\275\020\021A= \236->J=\020>r\270\t\276/&\242= \3229>\350\026\224\275\317tp=+.\032\276\345MC\2760\013\005\275\200\264\022=\275A\037>[cl=\222\0141=\001%\250>\302\0206>S\361M>n\362\234>\256\t\313>,\330\240<|\301\351\275\341D\035=\252\271G\274\304\206\223=\022HZ>]\371[\276\010\014\271\274<\361\t=Q^+\276S\202L=\316\2016\276 $\232=\257Nb>\315\223\263\274\016\320O>z\370R\276\224\247M\276\361\372l\276\253!\242\276;\266\033\2762\2048\275\322?\204>\004\204k>\331\034\010>\204nP\276C&\244<\241\335<>s\372[\276\207\212t>\022\222\014<$\351\035>l\3613>\310\263Y\276lV}\276\227\007\034>/\341v\276I\276\n=\323\217\t>oCX\276\226=0\275v%+>\361\207\235=\204ng\276\360?\252=L\312\245\275\242!n\276>\304\361=\'\370\221=\273\t\315;s\323Y;\355\252k\276H|_>\036/\">l\2522\273X\213\010\276v\321<\275%\267\005>\240jc\273\220\004|>\223\017\003>V5\310\274m\022\026>\256\277h>\272\277L>F\340\326\275\314\241\213\275\267\253A=f\355M>\366\345\225\276bc\256:w\312\356\275\366\272\225\274\210I\211\276\304\311\200\276H\'\307\275\000\367k\276k\314\n>y\022\213\275\257N\300=\356>x>\241zk\276\255^\224\275\024\236:>\024G\312\274\345|I\275PX~\275\017\221\330\274\3237\224\274\350\256\'=\267\230\264\276\212m\276\275\335E\226\276&\345\026\276\247pQ>e\255*\2760A\r=,~\036\276\302\316\276:\340\375\210=\205\254C\276\036\264+\276\026\027\275\276\344\337\263>\177\261\301\275\306$\304\276\205\243\">\002\300\003\276\324\344|\276o\345/\276\016$\340=\360\021\276\276\036\215\252>\374\032]<\272\365\002\276\211\327\213\276q\301\244\276A\203\017?\246\352\300<\343\332T>&\376l\276\027\357\235\276\212\307\037>]\343Y\276\277\tD\276\326\320a>\033\363}\276B\231b\276\014\354\020\276\316\000s=!d\334\275\032=w\275$\210\017>\320X\205\275\346\2762>\034\204\330=9\304\305=\364\366\311=\311\246\002\276\376\034h\276\260O\000=\270Y\245\274e\275Q>^0\265\2755xD\276\2067;\276y\225\274\275m\343\277\275\250v\347\274\002\331\001\276B\244\235=hv\377<%5\253=_\362\027\276TT\357\275\270c\372=(\231\325=\330\364\222\275G\037C>\202\021j\275\334f=\276v#\210=\240_\252=M{\275=\227\035,>\372\022\332=\303\311I\276t\240\032>E\253\211\275\316\024w>`\222?>4\262D\276$\335z>\243\340E\276,=\226\275H(J>\177&p=\317U\200\275,\262\320\2759\335\376\275\351\313#\276\214\023\'>\213\014b>\000\000\317;\010\373\002\276\021y4\276~\014\034?\005!\004\275XJ\370=\016\227\030\276\362\024\031\277\222\370\304\276\227\207\233\274\226P\341=\276\356\215\274\313\343\002?\3460\246\275p;\242>\235\245\321=\257!\354\276e\300R>\216\303!<b\316S>u\207X>@\207\377\274I`\017\276{T\247>\260l\313>U\214\014\277\000`\360\275W\301\370=\251\327\325>nC_\276\362\304\276\276\205\207L<\364y\351\274\270\345\000\276\266\032@>\334\357o=\337\002E\276\300\001\352\273\022\360\215\276\031aa>GK\333=\234\274\201>\336jZ<\353\317Q=\377\027\233\274H\006\003\276\200F\232\276@\262+\276\241\255\235>goq\275S\360\270\275\377]\311=\200\275\022\275\030\003\034\276f\344\201>^+b<%\253s\275\324<\300=k\006u\276\242\231\234\274\345+7;\350\222Y>Lb)>\020(>>\200B\233\273LIQ>vi\225=\270\025\251=\261\357\335=\307\'`>\177\225\264=\303(\304=\t\177\347\275\215\000\227<nQ\251\275\337\204:>\251\035;>\263^\337=\350L+>N\231Q\274\305\256\020\276M6n\276*i%\275\036Ly\275\000\254 \272\340\026\242\274m\016,>!\000j\276\022\321\220\275\237x\227=\252\361\217\275\035\203N>\372\264\370\274NZ\321\275<\301\203\276\027z\266=\000(\255\275Zk?>\276G\351<\242iS\276Z\302\236\275\205\316\001\276\207\'\\>\257\251\240\275\2267 >\177\031?=\255.\203=\216\335\"\276\002\003\266\275\332\264\264=\266\354\204=\372Z\230>\324\315\225<\013\255\301=\301\375\267\275\227\230\260<`o@>\304@!>:\001L>\005\233\216\276\024z\025>\376q\222\275o\246\273\273\316*W\276\033\364\001\276PT\t\276\217\372\265=\366\013\260\274p\274C\276$\343\017\275"
      }
    }
  }
}
node {
  name: "FCN/dense/MatMul/ReadVariableOp"
  op: "Identity"
  input: "FCN/dense/MatMul/ReadVariableOp/resource"
  attr {
    key: "T"
    value {
      type: DT_FLOAT
    }
  }
}
node {
  name: "FCN/dense/MatMul"
  op: "MatMul"
  input: "FCN/input/Relu"
  input: "FCN/dense/MatMul/ReadVariableOp"
  attr {
    key: "T"
    value {
      type: DT_FLOAT
    }
  }
  attr {
    key: "transpose_a"
    value {
      b: false
    }
  }
  attr {
    key: "transpose_b"
    value {
      b: false
    }
  }
}
node {
  name: "FCN/dense/BiasAdd/ReadVariableOp/resource"
  op: "Const"
  attr {
    key: "dtype"
    value {
      type: DT_FLOAT
    }
  }
  attr {
    key: "value"
    value {
      tensor {
        dtype: DT_FLOAT
        tensor_shape {
          dim {
            size: 32
          }
        }
        tensor_content: "\376\367\006<?\231\271>#\2324\275)\036q;\rBP\276\031\265j\276u\032\354\275x\2155\276\204\320X>\3655?\275%lZ\274\257)\035\275\221\346\274\275y\373\204=\221q\271\276\313=N\276\342\375$>\323\322\005>\035/3\272\000\000\000\000\357\342.\274\325\2334=%\301y\276\270\236\244<\270\0010==\267;\276\014-\306\275\365af=\326\031;\275\n\325\r\276\341@>:.i\3239"
      }
    }
  }
}
node {
  name: "FCN/dense/BiasAdd/ReadVariableOp"
  op: "Identity"
  input: "FCN/dense/BiasAdd/ReadVariableOp/resource"
  attr {
    key: "T"
    value {
      type: DT_FLOAT
    }
  }
}
node {
  name: "FCN/dense/BiasAdd"
  op: "BiasAdd"
  input: "FCN/dense/MatMul"
  input: "FCN/dense/BiasAdd/ReadVariableOp"
  attr {
    key: "T"
    value {
      type: DT_FLOAT
    }
  }
  attr {
    key: "data_format"
    value {
      s: "NHWC"
    }
  }
}
node {
  name: "FCN/dense/Relu"
  op: "Relu"
  input: "FCN/dense/BiasAdd"
  attr {
    key: "T"
    value {
      type: DT_FLOAT
    }
  }
}
node {
  name: "FCN/dense_1/MatMul/ReadVariableOp/resource"
  op: "Const"
  attr {
    key: "dtype"
    value {
      type: DT_FLOAT
    }
  }
  attr {
    key: "value"
    value {
      tensor {
        dtype: DT_FLOAT
        tensor_shape {
          dim {
            size: 32
          }
          dim {
            size: 16
          }
        }
        tensor_content: "Y;\244\274\236\365F>(kK>2\225\347>\227\375\246=\316\375\222\276\220\231A\2764+v>eG&>\235\032\252\276Wt\367=\321\231\305=\014\205\232</5\244=\366\343\207>\3306\315\273\014\221\217\276\255b,\276\370\220\317>\257\004\020>m=\247=\257y\324\273\325;\232\276\341?I>\225x\271\276vu3\276\347\361\363=\272{c\276\204.\000\276%\262\r>&i\023>\360\342\243>\001\344A>\367\303\201>\311\025\255>J}\364\274\351\007\300>\345}\022\276c\264\311>\332\330\277\275\224v\037\276\357\211\233>\0050\206\2760\034\202>\312\245\213>\345\307)\276\366z\264>\002LD>\247\267\331=$z\256=\214\024\260\275\220\214\031\276\253XY>r\237\225>\205t!\276\375\327\235>\376Hc>\372\344\337=\000I\300=+\351^\276$\262\234=L\300\237\276\306C\202\276\264\251\262\275\326l\321=\275\307\003\275b\331\272\276z\321\312>a\353>\274\255\314\227=`\320\201>\022M\243\275\270X]=9\365\037=\322\3138=\230 |;\221FO\276\257\204\026>\236mw>\224C\177\276=\305\026?\367\326\302\276\252|\'>\007\260n\275o\372[=%\370\204>\245\226]\2766\027.=\241\211b>\210*`\275\177[9\275\341d\322>nyh\275\201\271\331\276\261\213^\273\310SV\276\320p^>\005\017?>\351\343e\276\337\313\003<z\201\001>3\213\231=+F\362>,u\004=1\233\267\276mb<\276\301Q\005>\224\276\300>}}\217\276Q%K>\262u\020\275W\323\300\276>\350\216\275\240\322\235\276\312/\300\276\256\325\023\275\361-\370\275pA\212>\ti\356:\355\027\013\276\301\242\003\276\021s{\276\361~0>\344\372)=\266\302\253<l\213L>GD\321\275\230BW>\321\231\332=\357\224\260\275f\256\007\276\034\366\216>\307\245u>\013\000!>\325[\252=.7\264=\346\207\240\276M\227\212\275\277\003\314\275\346\320\241\276\004\024\354<4\200\017>\334\277\344=Z\363U>\2558\251>A\265j=\210\025>\276K\r_>\273ne=\303!C\275\323g\247\275\263n\021\276\303\351v>\303\317q={}\253=7\343\3049\037\246\267\275\016E]\276`\007x>\361`\314\276-$&>\316\232]>\372C\227>\311h\305\2769\233\300\275\255Jx\276\234\215\r\276\361\354\230>\3569\225\274kp\200>4\237\252\2753\327E\276\324\312\016>5(\301\275\255\374\261>\346\371p\276\267_f\274w\006\010\276\020P\276=f\213\020\276u\264\006>\220nu\276Y:S>\2410W\276\005\213\215>L\354\037>\313O\323\275\254G\254\276s\361\251\275\220T\025\276\244v\010\276\252\307\212\276N\326\200\275%5\254=\300@\356>X\202\362\274[\371\261>_\264%\276\357\"\206=\352\276\217>t+\220>.\005\235>\200\341_=E>\214\275;\344\r\276\264>6=S\254\217>7\215\003\276ph\247\275\341j\202>W\226*\276\037$\020>\202\265\267>\031\177.>R\344\352>-H\352;I\022\252>\310J\225\276P\234\215\276\220\275\217>\230\211[\275#]\005>\3574\243>\360)\216>\'G\327>\243\022\264=\2536:\276\030\313\275\275\201\237P\275\234\212V\275\272\007\232\276F\262(\277\247B\272\276PXV>\254\277\247=7\272\022=\327]$\276r\360i>\363\215S\276\365\213D\276\322\036\251>\345\325o\276\000\"\205>\317\254v=\230\344\212>L\330s\276g5\300>\347\257\t\276\276\032\203\276\2579\026\276\023zW>\322\222\222\276\024\237\222\275\210\017\226>\303\014\216\275\027\222\002\276\257\007~\276\217\245\275<p-~>,\023+\276\246?\317\275\010\272\253>\373e\"\275U\377>>\035Y\206\276!\177\273=T\210.>\202\207\216\276\377\237\241>3\030\215\273\304\225\241\274*\355\305\276\323\023K>T\251\254\274\360\372\305>\235\013\345\275\37473\27430\373\272\004I\027\274\222\2268\276M\356\201\276HTd>\035\020\357=\345\253R\276R_\000?\356\3376\275)\325[\276f\212p\276\226\006\256>\312\026\327=sv\375\275\024\232\'\276\254\317\202\276\t5\227>?\217\201>\302\343&>\367\027&\276\356\336\245\276\251\377\212\276\020\354\017>\026\204\214\276v\351\271\274n\023Z\276]\347\017\276\316^#>:@u>\266\355`>\202\364\264\276\026\250P>^\304)>\277\252\250>=\024\226\276\366GL>\014\243\256\276t\224\211\275g\220W\276@\005\305;\2112\257>L\021\343=\240\371N\275c\237\252>\214\005\260\272&\263\201>\372)\305\275\177a\"\276{h\270\275k\004E\276\261~\200\276\313\332\272:\333`->\241|\002>/\303e=\256rC\276a\001,\276\265\303\375<Mu\263\275\031\244\200>1\366\243\275H\313\204\275\314\324\350\274y\354\226>\273\351l\2738M6\276\352\217\004>U\207\017\275\246\377y>\216?\262\275\227\345\336=\212J\354=#\200\031\2768\302\253>\351\225r\275\0146\344>R#\021\276\r\374`>\245\333\223=\254\236\251>\245\3738\276\021\003\247>\242\362\227>\267\032(>\331l\033\276\250\363\211>\325\273\347=k\3637\276\361\344\212\276i\250=>\375s6=\261/\325>\203\273N>\311l\320\275?b\351=\244\221U\276}\303\221\276\215\371\'<\311f\001\277B!T\276E\001v\275\216\327`>E\244\016\276\210\202\255=lJ\312\271\312\222\241\276\021\022p>\021\211t\276%f\237>\007U\205>\213,R\276W<\267=\nf\217>\007K\303=\267\250\214>\366\370B>\332\030F<\006+\177=\207~\022\276+\365Z=\3704\246\276\200\017@>Z\352\256\276aS\261>\020\243\203\276\006\332,\275\304\224\\>8\245q\276\315\361M=\300e\233\276X\335=\276U\242\241\276`\366\214>kq\235\273&\341\305\275\333Q\263\276$\316\336\276qq\001\276\323\350\220>\257\234\237\276\200\'\340=\226X\204>\305\225\242\276\365V\314\275\026\273.=\323\336q\276\257\311T\275\007nS=\261*\233\274\326g\315>v\024\344\275\365F.>i4\265>\321\277\217<\315\243{\276px\201\276\001Z\223>~9u>9\235@\276;]\222\276\206\205\024=\2524*>\016\221\206\276Jh&>S\022P\276)\277!>\252\002S>R\3737\274\222\rn>{\362\275>\316\266\202>\257k\010>4\240\021\275\322\245\222\276\265\262A>&\t}\275\337\007V\275\321\240\257\276P\267n>X\332\273\276\016\215\301=Y\263\241=|5\257\275\235O\244>N\215t\276\232+a\275x>_=\306\253p>\231W2\276\027\n|\276I\017\004?R\203\267\276\020\n\236\276\200>\340=\252\214\345=\017\335\232>p5\034>\347?n>\252\210\211=\204\243Q\276\253B\265\275\310w~\274\247\362\235>\301\002\216=\325\227\320\275\303\323!=nh\251=T\274\263>>\273B>\206\356\024\276:\370\246>\322\3340=`H\003>,Q\223\276\276\243\321=\005J\326<\367%h>|\2757>\336\253\225>\207\254 >\247`\001\2765\212\226>\224\333\r>\325\263*\276/\372=\276\243$\233>\016\262\035\276Q\0208\276\262\2518\276\302P\223>1\211x>:\000\252\276^[\233>\034+\216>%gD\275"
      }
    }
  }
}
node {
  name: "FCN/dense_1/MatMul/ReadVariableOp"
  op: "Identity"
  input: "FCN/dense_1/MatMul/ReadVariableOp/resource"
  attr {
    key: "T"
    value {
      type: DT_FLOAT
    }
  }
}
node {
  name: "FCN/dense_1/MatMul"
  op: "MatMul"
  input: "FCN/dense/Relu"
  input: "FCN/dense_1/MatMul/ReadVariableOp"
  attr {
    key: "T"
    value {
      type: DT_FLOAT
    }
  }
  attr {
    key: "transpose_a"
    value {
      b: false
    }
  }
  attr {
    key: "transpose_b"
    value {
      b: false
    }
  }
}
node {
  name: "FCN/dense_1/BiasAdd/ReadVariableOp/resource"
  op: "Const"
  attr {
    key: "dtype"
    value {
      type: DT_FLOAT
    }
  }
  attr {
    key: "value"
    value {
      tensor {
        dtype: DT_FLOAT
        tensor_shape {
          dim {
            size: 16
          }
        }
        tensor_content: "Ov\201\276D;\204>xB\331>r1c>\270\200\013\274/\230W=%\004\212=\204\034]><|{\271\227\311\257=<@1\277\3153N\275\224\237\362>\333\314\301>@\244\245=R\370$?"
      }
    }
  }
}
node {
  name: "FCN/dense_1/BiasAdd/ReadVariableOp"
  op: "Identity"
  input: "FCN/dense_1/BiasAdd/ReadVariableOp/resource"
  attr {
    key: "T"
    value {
      type: DT_FLOAT
    }
  }
}
node {
  name: "FCN/dense_1/BiasAdd"
  op: "BiasAdd"
  input: "FCN/dense_1/MatMul"
  input: "FCN/dense_1/BiasAdd/ReadVariableOp"
  attr {
    key: "T"
    value {
      type: DT_FLOAT
    }
  }
  attr {
    key: "data_format"
    value {
      s: "NHWC"
    }
  }
}
node {
  name: "FCN/dense_1/Relu"
  op: "Relu"
  input: "FCN/dense_1/BiasAdd"
  attr {
    key: "T"
    value {
      type: DT_FLOAT
    }
  }
}
node {
  name: "FCN/dense_2/MatMul/ReadVariableOp/resource"
  op: "Const"
  attr {
    key: "dtype"
    value {
      type: DT_FLOAT
    }
  }
  attr {
    key: "value"
    value {
      tensor {
        dtype: DT_FLOAT
        tensor_shape {
          dim {
            size: 16
          }
          dim {
            size: 8
          }
        }
        tensor_content: "\256m\311\275=\225<>\267\3460\276\374\260\022\277\370\245\246;\316\302\260\275\212\020\354\276 \240\235\276<\341&\276\313\375\001\277\266\334J>\337\205\230>\373\215@>B\001x;\n\224K\275\255\351\344\276h(\375>>b\205\276H\003\310>\026\370}>\223k1\276\363e\003=Cq\217\276\341\206\200\276\245vL\276\315@u\276\306\033\365\276\240\226\207>);\244>\245\273\344\276\352\365\211>\032\n\256>\374\025\205>\236\\\016>\t\315\346>ri\236>\227Z\231\275\330z\205\274\255\304\207\276\340\315t>\"K\275=\355Y\221\276|6\002?\257(\026>\205\024\177>}i\354>%\227\312>Y\355m>\330}\\?\340[H\276nK\366>\203k\247>fp,\276\3512\351\276\\QJ\276\ni\230\276b\2743?@\344\227=\335D\217>\302\025\343=\376n\006\276K\260\217\276:M\300>\032\316\333<>\313\356=\214\322\203>}\014\357\276Z<\227>\251t\340>Kd\213=\3273\274\275\014\351\244\276\231\307\274\275_\202\205\276B|\035\273e\230\027\276b\226\274=\253\376\236\276\301!\216\276\260\226\213\276\310\031\210\276\370\207\231\276+\0043\274\301,]\276\027\r\005\277Zj\\\276\r/\362\2749\314\355\276\251\226o<\327A\347\276\361\331h\276d\216\021>YU\255\276N|a>\327\031\206>^zu\275\343\337\033=\002U\000\277\246jQ<\250=\263\276\260q\277>\255\2002>#\277\020>b\005\253>\\;?>\021\325\360>\212VH>\004\273\236\276\030N\272>>So\276\304\275\262\276\377\351\272>\352\226\272>\030\312\"\273J\344\005?\3053\032\277P!\222\276\347\203V>%\216\362>2Q\275\276\220Z\031\277\216\272\232\275\025;\031\276\336I\027\276\325\342\341>\341\315\264\275\272[m>\267(Q>"
      }
    }
  }
}
node {
  name: "FCN/dense_2/MatMul/ReadVariableOp"
  op: "Identity"
  input: "FCN/dense_2/MatMul/ReadVariableOp/resource"
  attr {
    key: "T"
    value {
      type: DT_FLOAT
    }
  }
}
node {
  name: "FCN/dense_2/MatMul"
  op: "MatMul"
  input: "FCN/dense_1/Relu"
  input: "FCN/dense_2/MatMul/ReadVariableOp"
  attr {
    key: "T"
    value {
      type: DT_FLOAT
    }
  }
  attr {
    key: "transpose_a"
    value {
      b: false
    }
  }
  attr {
    key: "transpose_b"
    value {
      b: false
    }
  }
}
node {
  name: "FCN/dense_2/BiasAdd/ReadVariableOp/resource"
  op: "Const"
  attr {
    key: "dtype"
    value {
      type: DT_FLOAT
    }
  }
  attr {
    key: "value"
    value {
      tensor {
        dtype: DT_FLOAT
        tensor_shape {
          dim {
            size: 8
          }
        }
        tensor_content: "\344F\331>\203\017Y=\004\353 ?/\030]\275\246\305\216?hAV\274_\340\354<\230\307\"\274"
      }
    }
  }
}
node {
  name: "FCN/dense_2/BiasAdd/ReadVariableOp"
  op: "Identity"
  input: "FCN/dense_2/BiasAdd/ReadVariableOp/resource"
  attr {
    key: "T"
    value {
      type: DT_FLOAT
    }
  }
}
node {
  name: "FCN/dense_2/BiasAdd"
  op: "BiasAdd"
  input: "FCN/dense_2/MatMul"
  input: "FCN/dense_2/BiasAdd/ReadVariableOp"
  attr {
    key: "T"
    value {
      type: DT_FLOAT
    }
  }
  attr {
    key: "data_format"
    value {
      s: "NHWC"
    }
  }
}
node {
  name: "FCN/dense_2/Relu"
  op: "Relu"
  input: "FCN/dense_2/BiasAdd"
  attr {
    key: "T"
    value {
      type: DT_FLOAT
    }
  }
}
node {
  name: "FCN/output/MatMul/ReadVariableOp/resource"
  op: "Const"
  attr {
    key: "dtype"
    value {
      type: DT_FLOAT
    }
  }
  attr {
    key: "value"
    value {
      tensor {
        dtype: DT_FLOAT
        tensor_shape {
          dim {
            size: 8
          }
          dim {
            size: 2
          }
        }
        tensor_content: "Y\240\316\276\303\213\010>\021\001K\277\031$\310\276/\271\t\277;\304\220\2763C(>\007\240?\277t\370.?koy\276B\250\335\276\250\364\330>\211\216\016>\362\3234?c\322\353>\326\000\225\276"
      }
    }
  }
}
node {
  name: "FCN/output/MatMul/ReadVariableOp"
  op: "Identity"
  input: "FCN/output/MatMul/ReadVariableOp/resource"
  attr {
    key: "T"
    value {
      type: DT_FLOAT
    }
  }
}
node {
  name: "FCN/output/MatMul"
  op: "MatMul"
  input: "FCN/dense_2/Relu"
  input: "FCN/output/MatMul/ReadVariableOp"
  attr {
    key: "T"
    value {
      type: DT_FLOAT
    }
  }
  attr {
    key: "transpose_a"
    value {
      b: false
    }
  }
  attr {
    key: "transpose_b"
    value {
      b: false
    }
  }
}
node {
  name: "FCN/output/BiasAdd/ReadVariableOp/resource"
  op: "Const"
  attr {
    key: "dtype"
    value {
      type: DT_FLOAT
    }
  }
  attr {
    key: "value"
    value {
      tensor {
        dtype: DT_FLOAT
        tensor_shape {
          dim {
            size: 2
          }
        }
        tensor_content: "\021\0261?\374\0251\277"
      }
    }
  }
}
node {
  name: "FCN/output/BiasAdd/ReadVariableOp"
  op: "Identity"
  input: "FCN/output/BiasAdd/ReadVariableOp/resource"
  attr {
    key: "T"
    value {
      type: DT_FLOAT
    }
  }
}
node {
  name: "FCN/output/BiasAdd"
  op: "BiasAdd"
  input: "FCN/output/MatMul"
  input: "FCN/output/BiasAdd/ReadVariableOp"
  attr {
    key: "T"
    value {
      type: DT_FLOAT
    }
  }
  attr {
    key: "data_format"
    value {
      s: "NHWC"
    }
  }
}
node {
  name: "FCN/output/Softmax"
  op: "Softmax"
  input: "FCN/output/BiasAdd"
  attr {
    key: "T"
    value {
      type: DT_FLOAT
    }
  }
}
node {
  name: "Identity"
  op: "Identity"
  input: "FCN/output/Softmax"
  input: "^FCN/dense/BiasAdd/ReadVariableOp"
  input: "^FCN/dense/MatMul/ReadVariableOp"
  input: "^FCN/dense_1/BiasAdd/ReadVariableOp"
  input: "^FCN/dense_1/MatMul/ReadVariableOp"
  input: "^FCN/dense_2/BiasAdd/ReadVariableOp"
  input: "^FCN/dense_2/MatMul/ReadVariableOp"
  input: "^FCN/input/BiasAdd/ReadVariableOp"
  input: "^FCN/input/MatMul/ReadVariableOp"
  input: "^FCN/output/BiasAdd/ReadVariableOp"
  input: "^FCN/output/MatMul/ReadVariableOp"
  attr {
    key: "T"
    value {
      type: DT_FLOAT
    }
  }
}
versions {
  producer: 175
}
