node {
  name: "input_input"
  op: "Placeholder"
  attr {
    key: "dtype"
    value {
      type: DT_FLOAT
    }
  }
  attr {
    key: "shape"
    value {
      shape {
        dim {
          size: -1
        }
        dim {
          size: 19
        }
      }
    }
  }
}
node {
  name: "FCN/input/MatMul/ReadVariableOp/resource"
  op: "Const"
  attr {
    key: "dtype"
    value {
      type: DT_FLOAT
    }
  }
  attr {
    key: "value"
    value {
      tensor {
        dtype: DT_FLOAT
        tensor_shape {
          dim {
            size: 19
          }
          dim {
            size: 64
          }
        }
        tensor_content: "\010\004\'<=fl=\243\017\241\276\370l}\274\004\235\207\276\342\320\304\276:1]\276L\254\334\275\241/\320\276\3277Q\276\016\n\023=\253\276\016>\212K\342=>4=\276\220Br\275\207\005M=\333\312\316\2759\023\274>\355\226u\275\372OX\275\031\002\257=\374\214\'=\333\036\301\272\026-\356\275\002\346\266=Z\022\253\275\224\373\216\276\377\311\257=\3221\320\276\321\250\035\277\370&\215\276\332\304\312=\362\264\311\274\323\207\241=\216\"\213\275\263\375b\275\231\341\226\275V\024U<\213p\321=z1\233\276h\016\210\274\000\3040=\336\0141\275\314w\225\276\200S\374<1\035\225>\301y&>\351tt\276\210\025\301=\366\'\247>0O\005\277\333\363/\277Q\233\342;\307F\251\276S\260#\273\212\331\241=U\261\007=\026\370\250<\014\n\361\273~e&\274D\351\002\275L\360\023\276\353a9>\324j\241=l\030\007\275\350\305\326\275\307\342\355=\370*\n=\017\252\235=\230 \237\273qOX\276\001\264K=\207V\033\276:\275\007\276\033\236\\\276A8\321\2753\010\n>Z:\222\275\251\021\'?<\036\036=U\343\017>\312\224\254\277%k\262=i\246K\276\347\245m=\000\213\006>\364\001\263=RS(>\346\344\000>\351\032\261=\306cV>\344\304\335\276Tkq\275\231W\004\277\233\374\023\276a\337=\275\n\241\362>\274\312U\275;\253\246\275a?4\276\274O,=\324\366i>\215\227@\276D\322\022?<\240\353=\26705>\246!\256\274l.\323\275cr\210\276\024T\257\277\350p\240<\274?a=\233L\367>\325D,>\317_-\276\264\350\360=\305\033\004=Q6X\275g\'\203>\005\214\317\277R=\r\275\367\373\254=\000\223\201\276\211;\375\272\304\355\'>\n\027\262\276Nlg\275\2262+?\362v\030@i\352\226?]\341\202=g\224\024\276\360%$>\002\347\n\276\304\233\035\275\317\210\265\277\201Bc=uL1>]\227v?\206\312\244\276\205\274 \276\254i\210>\250\213`>\370\341\223>\204r\211=\254B\210?Z\257M?3\242G\277+\255\217=\202k\350\276\n\276s;\216\362\351>\3609\340\275\247\'s\275j\324\236\275\306\020\300\277\032p]\276\003\330\225\276\001\305\334\275}\335\372\2762\373\357\276\251Z\'?\320(\376>\242\325 \276\256\303\215=\034\027\237>\004u\202?\361Z\353;\2330\237\277\200\265\206>\251H9?\301y;\275!_\311\275Z5\257?\234\275\'\277\231\370}\276\325_L\275*K\227\276\346a\253\2762\265S?\231Ul?\243~f\276\217j\221\277\375\032\215?\215\256\013@\017+Q=\331\261\336\274\340/\362\277\315/\222?\232\243\223;\361\227\374\275\341\312\001\277\345,\344?[\320\247=\350\000\216\276-\177\372;&\342v>\321\205\254;\200\372\266=\304\\\r\277\236\355\264\273r\0242\274\337\353/\276n\266\n=\361D\016\274\033\274\203>i\327\321=\261\311\275>\242\355,\276|\324\016\277\017\357\001\275\302\003\242=}(\204=I\264\003\277!\257V\277\001=K>\307W\300\275R5\273=\303\317w>\216\205g\277\rU\324\275\2076\"=\236e\020\276vM\233\275\330\302A\275%\007C>R^\377=\274\024\006\276\246\305\024>|:\300\276\363\234\273\276\014\275&\276\335\250\004\276\372}4=\356\263\\\276&Hf\276\336}\036>\365\214\002\276,\351\215;\222\356\027=\036@\214\275\340\016\242=\256\225\262\275Dx\234<\225\006\205\276\242!=>)[\270\276F\342\275\276\014\347N?\305?7\2778\301\n\276=\335\225?\027\301\373\276\336h)\276l\016\274>&\177\335>E\233\317<B ;\277\006\005*\276\321\275\251=\017\253\220=\014Z:\276\023\341\020\276~w\267\273Lw\374\276\320\260\003\2767\272\312<\315\346z\275smh\275h\353\260<\2008\336\276\233\315W\2756\340\336\274\266\006\321=\260t\300\277v4!\277b\345\327\271\343\270*\276\364\032\371<\314\030\257\277\356\336\205\276{\302\233\276z\3545\276\371\"n<Q\371\\\276\177\236\032\277\263?&=c:Z=\251\344\204\276\256:\000\277cE\361=\001\352a\276\250\336r\274P\213u=\334\255\036\276\252\373h\276`\326\207<\331y2=\346m\203=\330\257p>\007Bd;XS\347=\243A\243\276S6\022\276TH\217\276\253\023f\277\014\357k\277\303\3009>\215\332\354;\274\200\274\274\332\356\221\274\277\206\375=\235`\265<\344\257\366<\272\362\226\276\323cH\273M\326G\275=\213\270=\034\"\362\274\221\276f\275\1771\376\277\217 \226>\377\235G\276\323(O>l\034\014>\030\263\321\275\257\316\201\276\000\316-\276\003\036$\275%\211\363=\367\203]\277\201\365\026>\336E\210\276\026\004\341\275!o\032?\266l\224?_m8\276\341\006\262=\231\202>>`\274B?-\014\206>\345\301S\277\207\265\333?\334\036\335\274\242\337I>\374#\341\275\341\241T\276\204)^\276]\331\361=&\251H\276\201R\t\276{\007\031\276\334\264 ?\326k\221>\2038u>\346m\004\276\254\024K>D\376\276\276\231\317\007?\330&\002?\204\037\201?\\\214\326\277>\357\232\275\317\307y>\362\366\217=\207\217H>\3223\t?\345\026\300\275\243\307\370\275 \215\n\276)\341\'\274\306\004\364\276\316\230E\300\254\313\034\276\257\255Z>\'\024\205\276\335\2738\300\212\306\327\277\323X\271\275\255\247\t?\001J,?Q9\203\276\242\304M>d\035\376<\340j\353?\372\213\222\274\261\366\215\276\337\320\253\276\232l\303\275\323\216^>\376\202\330\275U\365\322>\213\201\273=E\221H>\tR\345?\222\001\025>Q;\200\276\000\271;=n\0200\277^\006\204\276~\3363=&\250\205?&\004\017\276\312\nQ\277\037C4\277Vy\204?c\205_\277\277xx\276\330\315\203\276x\200\026\276D\357b\276\341\204\216?{\034M\275\230\210\257= 2u\276_Z\335>My\005\277\316\252\'\277_\340\214=\365/)\276;\033&=cb ?fta\276\242\007\335\276|K\002\300\033K\206?s\253\204>\226Q\000\272\024\3331>\374\334k?\004\3071\277<\260^\276\237\345@>8<5\275\235iB>\307\334\000?)\240\320?C\t\205>CpE\277\357i\214>\326`\310?\275l\247?6\254\245\274l\n7\300\366h]\276\033\036\317\275,{\214\276x\227\034\276\206\026\340\277\026G\202=A{\255\273\2323?\275j8\033>=\305\333=\264\306\016>\342h%\276\227\n\006\276\262\030$\276\021\362n\277\362x;>2\230e\276\2700Q\276\204\324\037\275\t\373p>\\O\206\2765-\t\277\'\017\004>\030\241\205>\210-N?\363\\\001\275I\315\300?\020\\^\276.\364\n>\350AZ>\214\346A\274\370,\005\277\366\000,>\021\023.\276\311\3610=\330\006A>=\315Y=\360Al>*o\021>YB!\276L\210\010\276J\'f\276\3407\222<\024\n\336\275\225\311!@\014\350T\276@\2351>v\213v>\022\362\026>\0048Z\277\223\2772>-\307\010>\232\222\206\276G\373\200\275\362(@\276\3163\334\274n\302\203\277Y7Z\275T\324\321>S\363\025\276\016\302\251\2770A\215\276\003\262E\276\272P\271?/\312\201>lm\020\275\352\0141>\240t\r?42\226=E\207\230\275\311\217\023\276v\2739=\266\\\261\275%\032\353=\016\251z\276K\377\360;\370p0>\343\245\033\276MM\247>\217\014\216=\334\3061\276+~\240\275\333\273l\274V\221\204\276\313\323i\275\177\321\301=\2775\267\275_ \336\274_`!\277\025\232\311=\000\226\200\277\266\352\213\275\230\206\201<\266\2124>\327\262C=\341\327#\276\361\2437\2754a\036\275}\0221\2768\333\204\276\014?\305\276\204AL=\275\233O\276\212-\361\275\206\210D\276\371\312W>\301\213\235\276\371\236\257<gF]\277?\217\235\276\245\3646\276\313\3139\276\360\022\215\276Qx\363\273\323S%>t\252z\276\233\225f=\265:C\276(\332\313\275\252x&>^\363\232?9\230\367\275\211b\326\276\"\220\243\275\242\236F?\300\370\016?\214/8>\257W\201?\036\320)\277\025\313\250=1\330\254<V\243~>&~\036\274\006\202\362<\373PV\276 &E\276D\035\310\275\243\270\201\273\"\375(\275\307\316P\274\211\003<\275\312\256\200\273\222\002\233<.\364\261\276v\261\232\276\026^\202\275\020\223\026=* m\275-\205-\275\035\340\256\273q\334\221<\355i\002<u\252\276\274\245n\365\273 $*\275\260\246f=]\377\333\275x\327-\276\345\334r\2753$\326:G\346\034\276[\236\271\275\336\357f\275\353\207\200\276\221\230\031=t\024&\275\362\206\241\276L\242`\276i\353\337\275\355\037\366\276\377\207\320\274\032\033y\275)\263\202;\325W\320\275\n\244\n\277\004\206\250\276\315f\331\275\3342\013<x\353\322:\325W\262\275V\334F\276\253/\374\275\313<\322\275)\310\265<S\336\023<6\332\007\275\262&c<7\375Q<\305\365r\272\223\315\310\275\376\323\274\271\305]\201:\330\221\2358\354\224w\276\365]\304\275itd<\302\005\332<9$\\<)\205/>|r9=q\037\321\2761\262\250\275\033\263D\275\003\006\316\272\262Z3\276C2o\275\333\311\027\276\306J\021>j\0248\276\316w\020\276\t\224\241=\266w}=LD\025\275\235\205\247\276\202O\200=\351\265I>y~\262=\025\232\212<\342/\204\274\345Uf=(\371w\276\251\252&>~r\223\276\003\372N\27531\034>\354J(>T9r\275\020\275\277\273\022\321\017>\207\014\373=\353\323\220;M\r`\276|\352\323\276\340u\233>\275\373\037<\353|\316=~\371\246<\207*\374=Nv\260>t\366B=;\352]\276\003\356\234\276Y\237u\276\351\306v\276\0352\267\276{\346\'>T\257\315=\316m\230\276\312F\003\274\324\206\344\276\250\023\317=\363$\335\276\254d\327;V\263\275=\007\0033\276\r\000\202<T\372\354\274Vj\366\276\3577\005\277\022\324\217\277\301I\255\277\034\031\354<\0145B>\257\261\320\275\357\271\216\275z\216/=\265\214L\276\313A\214\276\372M\205\276{U\273\275\255\263\374\275\024\301E=\212\367\357\2755\236\365=\322\306\372=\336\237j>>S\317=,\323I\276\312;\341\275\363g\264>pW%?\221\002\'\276q)\364>+:\246\276Z\3202\275\361\222\204\276\325{G\274\232\022\024\277\037\312\307<r\337h\273U\026k=\222;\200\276\356t\346>~_o=\374\265\034>\301H\327=\263\270[\276\267$\224={\001\177=\303\203\310=\344\332\330?9},\277\323\273\007?z7w\274\030H\375\275\370\252\311\276\017\021\277>\336\301\342\275[\271F\276^\0355\276p\037\356=\027\032\251\275\0010I\277x\007m>\207-\007?,\304\030>p8\204\277\037^\335\276\357R.\276*\340`?/N\315\274\253cr\276\321\206i\275M#\320\276\364{}\277f\240\037\276\036IE\276\300\0025>GyU>\017s5;\340\346\272\275\234L\270=\331\337`=\007\275C\276\252\332\024\276\351\224\241>0\303x<i\366\002\276\213\261\265>]\022\020?\320\027!\276\322\006\n\276 \336\214\276\321\024\036=\376\030\201>`z\212\276\023\355\206?\242\347>\276}\\\207\276\014\0006\276\r\253g>\343~\211=\273\026\010\275\365\026\030\273\017\375S\275SD\347=\361V\002?1c\222<\016\350\016\275\235\277\226=\021\230\203>\372(\374=\3202u>\344\203\316>\225\273\023?{4\351\276O*l\276\025\261P>\242\331\315=K\244\305\275\036~\241>\010\235\034>\004\226\r\276\264\332f\276~0\346=\244w\272\275\343s\261\276&\210J=N\261\373>\327\337p=\224\205\227\277]\203\210\276\303\347\257\275\324E\231>zvO>\252\003\240\275\270\345f\275]\017\t\276=\315??\333\362 \275<Zl\2762\337f=(?\\>\262\324\257\275\361\261\202\275}R\267>ZVS\27676q>\270\217\260\275\345\315\020<?\311,>\223\200\004\276\257&w>\365\351\275=\204\006U\275\253%\215>\220T\223\2769T\207\275\017\375\373=\327\026\214=\364\207\\>\315`\263\276\335=f>S`D\276vj\0379\201\017\374\275^\230\207=\246\014\357=\336c\224=!\210{<\330\222\326=`3W\275\375\321W>\2643q=\271\312`>r*X<W\363,>\301r\013>*;\273\276\245\353$?\326eU\275\357=\217>0\371\017\276\365Kh>/y\220>\307B\254\275\271lt\276X\005\007>:\305*>#G\014>t\252:?\000\t$\276\263tS\276\025\247\003>P\206@>\274\034\017?B;\204\275\273\212\313\276\261\252\266>\234f\023>\0220\222\274\272\031Y\276B\316O;\347\r\003\276\2754;>W\235\347\276\346\324(\276\314\013I>\360c\322\276\3373X\276$K\301=\235S\323\275\347\226\222\276\256\236\232<\343}\t\276\236\243\255=\nO=>\252$G\275\267\217\031\276\316q\305>\371VX\276\303v\273=2\312\033>\352\317\365\274\275>\310\275\213\352R\276\034\332\255\275\275U\237>\324U\225\272\362\375\242\275\356\017;>\304Z`\276\201\215\253\276\360?\250=M#\345\274\2746\251=\3312\302\276U\360E=\265\343\253=\262Y,\276u\240\320=\336\033\001\276\354\275H\277\364Xo>qg\343=\230\006\305\275!G5>\001\343\345\275Q\345_\2765C\247\275;\351m\275:c\364\275\004\002\321\276\230\252\320=\002Y\217=i?\204\276\024\2305\275\242\346H\276\t\225D\276\231\267\002>zw\237\274p\264P\277\365m\271=_3\206=04\177>a2\005\276\262\346\004<\355\005\024\2767\3106\276\r\313\201>\235\303\212>`Q\333\275(Z\022\276\0368w\274\365\\o\276z\024z\276S\335\335\274\364(x=8HK=\266\305E>8y\367>~\223#\276@\3554\276&\271\017\276;\002\300\2754\303\005>\253|\204=\367\203-\275O\223\231\275z\241\224=\210\370B>f\226\250\276q\370\025\276$\335\317\275\007?/>\231\362\036>\030\016;\276\022\247\034=a\253\207=\352\r\346>*\223l\275.\300G>aS)\276\251\374O>u\354\312>@\225\252>\210\314\006\275\323\013\366=4\357\r=\246c\220\275l\036\327\274\321\326\307\2759@2\276\314\262\251\275I\227\206<\345\267\315\276T\251-\275\272\275\374<\305[]=\322=C\274\370y\002>\356\241\031\275n\210\236=\377%w=j\264\204\276+8N=\202\254\200=B^=>\271\346\004\276X\222`\276\203\001\206\277:r\035>G\227a\275\032\027\003>\324\366f>\346\276\001\276$M,>V\\;>\021\244\034>C\231\356\273P\366\377\276\275\247&>\005\350F==\326~>\330K\371=\335\";?\220I5\276\344O\263=:\241\235\276.\030\255>EN\377=:\204@<\327\331\242?\'\007\017\276\024U\002>\262Z\002\276\377\354->\014\340i\276\002\226\220\27542\223=\274\361\271>sy\203\275\200\274\345=\\c\260>\177\310G\276j\374\r\276\237[6\276p(k\276\206\202\326>\t\0019>\"\337\006?Zba\276\243\352a>\r\341R\276\205I\313=\001U\230=Ng+\275F\211\031>\255\300\016\276\302R\237=u\366T=\255\030+\276U\213\000\2773\234\203\275N0\213>\367\254\221=\370\006E\277^\340\234\275\342\330J>\260 \340>\005\217Y>l@k=\347\325\312=J\370x\2768>\237?\335\301X\276\036\375\\\274\320\345s=\n.\315=#\302\367\275\231\276\346\274\266\3441<\362\306|\276\270o\341\275\037\337\177>\312\215\317:B\253\250=\000z\027<\031\345\301\276t\374\017\276\n\203\376\275\022\272\337=\207\r\213<\025\357!\276[\364\213\276\241Cr>\360\\\205\276\021\233!>c\206\223=%0D\276\017\r\203>\264+\353>\330\021\351=\201e\200>\233\2340\276s\345L\276\016\2558\276\320\334\214\276\274R\372\274\312,\340=OW\010\276T\304r\276r\247\354\275^\334\"\276k\230\315\277S\323\236>IT\203\276\243G\207=I<\020>\372\267\320=\233,\365\275$\211+>o@\003\276B\313G\276\376T\273\275=B\212=\360[w?\272\000\001\276\355\231\361\276oF&>\262\376\223?\300\240\235>\'\214f\276\\#g\277\221{\010\2765_6\275\017\266g>\261\014\227\276\262K|\276\036\n:=/\'\346\274V\001r\276\005|\206=\306/\224\274\006A\206\276\365\264\357\274\277\3540\275\232(<\275[I\026\276\313Q\n>r\331\216\270\326R\023=\310\205\342\276\346\361\206\276\255\255\201\275U\263\301<a\320\t\276\261y\035\277\212\363\266\2766\2566\275r\344\206\274$1\254\275\307\224=\276\257\224\253\275\363Ud<\353\232]<#\"\255\274\257w\200\276\233\003\000>fG&\276\374<\301\276\344\010\224=\250\253\246\275A`8\275\221\204\324\273Brm\276Y\360-\275Sl\227=\323\224\177\277Xm\033\275\013\331\036\275!t\302<r\264\363\274\231\270\364\273\t5\343\273$\341]\276\223\0071\276\275\356Q\275\277\264\t=.\367\022\275\354\346c\274B\363\031\276B\324 \277\231\226g\276+\006\233\2762\251*\274\266\2478\275\326d\363\276\030\225A>\361Z\023\274N\364\206;A\374\371\275"
      }
    }
  }
}
node {
  name: "FCN/input/MatMul/ReadVariableOp"
  op: "Identity"
  input: "FCN/input/MatMul/ReadVariableOp/resource"
  attr {
    key: "T"
    value {
      type: DT_FLOAT
    }
  }
}
node {
  name: "FCN/input/MatMul"
  op: "MatMul"
  input: "input_input"
  input: "FCN/input/MatMul/ReadVariableOp"
  attr {
    key: "T"
    value {
      type: DT_FLOAT
    }
  }
  attr {
    key: "transpose_a"
    value {
      b: false
    }
  }
  attr {
    key: "transpose_b"
    value {
      b: false
    }
  }
}
node {
  name: "FCN/input/BiasAdd/ReadVariableOp/resource"
  op: "Const"
  attr {
    key: "dtype"
    value {
      type: DT_FLOAT
    }
  }
  attr {
    key: "value"
    value {
      tensor {
        dtype: DT_FLOAT
        tensor_shape {
          dim {
            size: 64
          }
        }
        tensor_content: "\254\210\206\277\252\302\004\276\321\022\235\274\310\331\375:\226 \314<5\333F\275\364>\037;\242\313-?\241\212u\274\t209\360\332\373>\213_^=\210P\253\273Ge<;9<\365\276\226&\000?\014\273\241;.\263\270>\036\362.\276\252\352\213\276\261\277\337\276\240GV>\222\241\001?\322\253?\2764E\010\274\024\010\227\273\030\006\360\273\021t5?\250\214a\274!?\265\275\004\322\330\273\331\357\240=\nk\354\276\273\372-\276%\317\363=\243\t\372\271\010\222N<\241\244\034>.\201y\276(\245\203\275\345\264\207\274\246\237-\277\266\236\244>0\217\364=\363Z5<Nw\226>\201\357:\274\315\360+:k\366\232<\203\373`\276\270:\\\275\000Et>\004\361\201\277+\241\035\274\331\020\014\277\372\363\220\273=1\301\277\346#\220\276\014\253&\274+\250#\277\334\212\304\275\223\270\373<\331\223\220=\3017\213>"
      }
    }
  }
}
node {
  name: "FCN/input/BiasAdd/ReadVariableOp"
  op: "Identity"
  input: "FCN/input/BiasAdd/ReadVariableOp/resource"
  attr {
    key: "T"
    value {
      type: DT_FLOAT
    }
  }
}
node {
  name: "FCN/input/BiasAdd"
  op: "BiasAdd"
  input: "FCN/input/MatMul"
  input: "FCN/input/BiasAdd/ReadVariableOp"
  attr {
    key: "T"
    value {
      type: DT_FLOAT
    }
  }
  attr {
    key: "data_format"
    value {
      s: "NHWC"
    }
  }
}
node {
  name: "FCN/input/Relu"
  op: "Relu"
  input: "FCN/input/BiasAdd"
  attr {
    key: "T"
    value {
      type: DT_FLOAT
    }
  }
}
node {
  name: "FCN/dropout/Identity"
  op: "Identity"
  input: "FCN/input/Relu"
  attr {
    key: "T"
    value {
      type: DT_FLOAT
    }
  }
}
node {
  name: "FCN/dense/MatMul/ReadVariableOp/resource"
  op: "Const"
  attr {
    key: "dtype"
    value {
      type: DT_FLOAT
    }
  }
  attr {
    key: "value"
    value {
      tensor {
        dtype: DT_FLOAT
        tensor_shape {
          dim {
            size: 64
          }
          dim {
            size: 32
          }
        }
        tensor_content: "}\260-\276\355h\273>\340\016e\276xz\212\275\271\300J>\244\333\222\276\372~W\276@\006\313\276G\ri\275\\\034?\276K\307\023\276\325\336\216\275`\226\206\275\257\030\241\275\037\002D\275\222\203_\276k\025\n\275\322\3568\275\020\201B>/\224\007\275\002\230\371>J\260\320>\035DJ=\245c\314\274\303\200\236\275O\215\021\277X\202\357\275q\273\\=y\250\243>\263\213\020\277k\033\027\276>\022\001\277\376\332\201\276i\241\221\276\332\251\321\275\262+\217\276!\036\203\275\255\t\212\276$\016\310\274\310gC\276\026\253L=\246\335\300\276x{\233\275v\006e\276\330{g\276\354K\226\275a#1>\367c\333\2755hR\276\345\204N<il\276\274O\032\255\274Qa\267\276\353q\264\276\231\023\267\275&\025\305\275TY\367=\216j\024\276yV;=\340\306\257=nn\322\276\310U)\276\206\372\n\276\253\262\366\275\241\361y\276C\367k\2767\354\254\274\313\034I\276jMn\275\267Xd>l\322\002>OA)\276\341\002\022\273\231\2769\276y\231v>r\r\036\276\206d}\275=B\221>D\254Q\274\344\\x>H/y\275I!O>\246\017\030>\357\000\007\276\036\007_\276\204+\234\275\257\226\007\275\211\335\271=\310z\003\276N%2>=K\025\275\223&\231\275d\376\026>H&y>\001pA\276.%t\276\026\023D>J\376\360=8\017D\273\316\202\021=\347\017F>\313\214\252\275o d\276g\237I\276\014\007\306\274\200\315\237\276Q\001Y\276\252\373\034>\200\310\366=\204,\240=\261\244M>\360\272j\276\263LS\276\007\271Z\275\370\\\230>\263B\210>\260%\r\275\365\221c\276\372C|\276?\007>\276)Aw\276C\216\r>\222G\t>m\314\017>\226\r;>\177P\203>\300ur\276k1\235\275\202\226,\276Q\014O>#U\022\275\267&\214=\351\221\250=a\312\200>C\262\"=N\3621\276\202\363 \276\376+g\275\237\306\320=[\321\020\276@\336\017\276g\213)>o\3746>@3+\275~6\010\276k\355K>\260\036W>\013\231x\275\034o\306=\351\330\024\276\221\332\024\276G\302\325\274\2560\327\275\304(,<\323\315\237\276\177H\031\276\026\315\005>\361+\370=z\341\031>\034cT\276\247_\342<t\362.>-\262P>\210\225Z=\2177\014\276BB\313=]M\037>\236\214F=\247\257\'\276&\025\036=e\003H\276\031\237\261=\261LO=\315\246\246<\322\276\216\275\304U7=\026\253\213\275X\357I\276\235E\271= y\345=\026W\366\275\356\013\177\274w\234e\276n/\206>\266\244>\274%#f>\031\002`>\200\372i>(Q\354\275\351\000\033>\252\033L\276\027\010b>\020\323\317\275\351\226y>\204\tY\276;\307[\276\216,\212>8\'U\276\270L^=\n\3755\275\305\343\\>\212\343\306<\260n\024\276\207\366\364=\372R+\276O\007\207=\312\342\257\273\2041\276:M\365+;\017/\006>\001\202\277<L\002y>MD\342\275\277\343\217\274;s\347\275r\225\305\274\004:0>\304\324\322=\364`\006>SL\366=\211w\033\276R;@\275Nj\300\274\n\027\001=a\024o\276M7j;\271t\003\276\002J%>\310GN=qU\267\2768\361\327=\023m\365\276\356\246L<\247{\267\275 \356N<]i\225>\316!\262\275\244\2405\276eqv\275\030\212\254\275\364^\212\275\306n\331=\263\251\332>~\304\231=\375h\240\275\032\302\350>\360\361[>3\232\245\276<\224 \275\377\363\325\276\226\2628\275\251\000E>:F\352;am\277\276\312)\313=\227\357d\276\372&\242={\365Q=V\307;\276x\013\224\274\024\263\217\276P4\215>?\220\226\276\250\264=\276\351\261\377\274Z\t\025\276\272\220S>/\221M\275@\r\027=|\371\365=\375O\003\275+\244\201\276-@\3348\202\332S\276\256\034\347\275+\036\333=D\344_\276\003\257\025\276\300\372\327\274\336~s\276\032\020o=\245\237\033\276\372\376\267=\230\257y=\341\204\024\276\262\237\310\275M;\016>\005\204\312=-S\212\275\244\210\263\274* \221\275#^z\276wN~>b\3420>A\360\342=\233\n\303\274\360\253\'\276\230?a>\366\321\334=%\336\257=!\212\261\273a\327?\276\177\362\214\275\353{\303\275S\002\344<\220\244d>\275\nY=\365D\032\275\013\036N\276\304-\326\273@/\006=\244\272\037>\274\201<\276z\'@>\230\004\252=\276\022\024>\311\\\323<\213\204%\276\335\234\231\275\014\324\033=\245\323\235\275\001\335\276=o\t\234>i\037\272<[\t\034>\363\263;\275\221\241\004\276W\003\361\274\203^\022\276\0039\322<\244L\254\273\216zP>\330\014I\276\317\311\"\2760\353\353\274\014I\032\276\003So<\0228:\275\222\366==J\356\303<\020\204[\275\310\306\266\275\275\210\302<\005\353\212\276\206X\016=K5\031\276y\203\330\275_\025m\273\352\200G>UW\017\2765\353\031\276E\007 \276\315\2655\276\014\376\356\275\332\310\025\276\267j\316=\231\006\233\275\331\301\250=\255({\276\234\250\276\275m\353\014\276\020T\242=\327\2323>\313C5>\324\337.=\262j\350\275D\227[>7(\345\275\033\227i\276?*\301<\234\334!\276\223\310;=\t\344\244=\030m\'\276\353\331<\275;\310i\274\272\374\246=\355hP=\216\245\206\276\350\034\253\276\007\311:>\005\341u\276X\336W\276\355\263R\274\222N\004\276\352E1>^\036L<\326V\003=\362\333<>\242\002\003>kgF\276\212\320\337\275@S\023\276\000@0<K\216\336=\310Hk\276\270?Q=\021Su\276\224\322\024\276v\264\023=K\313\014>c*m\276\351\030\276=\2606\267=\307\251\004>Xv\351=\321z\376<N\246]>V\216\210=@!\226>\305V5<VU.\276^\357\261\275\273\204\317\275&@D=\276\364!\276\215\255\254<\341y\031\276[5\030>\322\317D\275\213\216k=\233w\340\275\325W\346\275\340\323\210\274\300\356L>?\223\231\271\377\362\324=u\305\357=\257\265\023>\035C\367\274\'\004L>\316D\350=\357\3350\276\216\242\326=\031fN>\353\214\205\275\272X1>\276\234\370<6\354\263=H\256\200\276%\323\215=\367\226\313\275\2374\014\275\357{\344=<\352\036\276\036a\300\275NKF>\032\266\232\275\034t\352\275l\030x\276>\324\252\275\312v\227\2762|>\275\253\315\021=\356\306i\276\276\335\026<\024\355@:\223\263\227\276g \230\275\362\320\374\275\252\277\313\275[\325\262\274\037_*\276%o\266\275\"\243\206\2759\331\211\276\n\237u\274\000\324@\274\026\224\225\276do.\276\236~[\275\234&\034>\"\215\351\275g\354<<)\304\026=\326\3465=Z\357\033\275\203\347\001\275\317\3132\276\252\237\260\273A|\016\276\314\016N\276\377a\007\276\340\326\202\276{\230\003\276GfB>\205\360S=\276]\026=\210j\260>+L\004\276\023B\271\275\220S[\276D\007\313\275<e\345<\206\316\027\276W?\032\274\331\264\267\275\230\351\247\275&\217=\276\243\312\350\274\004\003\241\276f\210\350\2765\226\274\276]\036\273\2725f\021\276G\306\354\275\000\362\010=\217]\206=\017\030\301\274\006E\265\2732-\301=\t\315\226\275\223\362@\276\3713\024>\2170\213<BKE\276$\312Z>AO\006>\251d\033>\014e\023\276B?~>U\324&\276\354Z\332<\311\336\302<h\302\314\274\'\366F\276\251\3359\275\327\213A\275\250\006\225=W\005\224=\225\234\243\2752Bs\275\005\262\360=L{O=\271P\r>\250\3706>\210CZ\275\035\023c\276\023\003\221\275\037e\013>mA\214=\212\243\302\275\014i\225<qv,=k\234\217<t\303\333\274\317O\337=\023@m<\363\346R=\252y\227\272\265\2601\276\030\342f\276\227!p\276\205\033\236\275\003\304\247\274\310\202\326=\343\265b\274\252\213\205\275\303><</\303\337\275\212p+>{#\214\274\360 \251=\300\\\277\275\347t\244\275\025\231\274=\344\375\222=\363R\260\27630L\275\343\323\226\276\325x\300\275\327\346\257\276\356\246\211\275(\014J\276j,O<\336jW\276\037\373\250\275\302\236\\\276\211\027\225\275}\032\243\2766\014\231\276\227 \310<\030\226\r>\027\tp\276\306\205\025\276<\264\241\276\337z\013=UG\350\276A`|\276\361\222\357;T\373#\276\356\021\010\276\304\223\333\276=J\021\276\"\357\216\276\2710n\276\317|\315\276\261\277W\276\320}\232\276?\005\214\276L\230\304;\231y\035\276\3028\331\274\327\236\014>x\311\330\276\364\002L\276VI\307=\333Cv\275dv\023\276\370\262B\275\257-\211\276NU.<\025\307\225\276M\326a<\323\271\353=\3148\240<s\017F>5\363\211\276e\326\204\275\355\005l\276*I\376<\360Oj\275\242\346W\276\344\362\261\274\365\334b\276\253WB\275r+d\274\367/\035\276\255\261g\276}K\016\276{ck\275\306=\257<\010\235\026\275 fL>\0274\231=\177\035\340\274`Nf\273\233\273\314<\0208e\275)$\036\275mh\302\273\252\000(\276\207n}\276#@\n\276\201w\364\275\224\266\024>\276\222N\275(@\204=h\202\261\274E\311\223\274\246.\257\276\'\245\030\276\0175\t\277(\263\010>\270*\314\274e\026s\274\254^\017:T\020\372\275Qi\232\276\356\371]\275i\354X=^\316\016\276K*e\276\377+\271:\037\r}\274t\320\002=\222Ev\276\264Yp<\354\322h=0 b<x\306\307\274\272`\215\275t\254\240=\350Z\246=\212\177\016>\236\223\225\276\"\342E=\230\354\271\275\274\250I\276,\'\010\276\311\244\032\276m\301\242=\037:/>\325+->\254\274\022\275r\241\226\276 hD>\365\225<=&\200\326>_\351\205\276\302\271\254\275o(\270<\021\314\367\275O\267e=\330b!>\337Zn\276Be\356\275z\204>\276\323\3455\275\307\373\202=\214;\221>\317\2516\275\332F\034>\246\227!\276\034\016e\276xo\331\276\020\300\031=sU\306\276\354\366:\276\225\245\002=\374O~\276\350P\004\276\326\270\303=\212q\220\276\023\254\366\273\304\025\322\276\240Qn\276P%J\276\353\260n\275\247\001\240>\223\305b\276w\037\201\275\037B\277\276\304\313\177\275X\007\206\276R\216\t\277RI\016\277\257M\235\272\t&\001>\243\272\307=\347a\355>R\367\377>\336\204\334\275\365\270\"\277\004\340\022\276\317`\243\275\221\224\n\276\226\241\276\276\207p\227\275\026{\315\276\364E\266\276f\026\354\275\3778\215\276dM\001\276\214\244@=0(G\276\214\374z\276Nsr\276\272_g\276\320\332F\276\013\'8\276{\306\016\276;\201\212\276\203\202R\276eot\276\317\250\231\276\033\342\232\276\357\210\253\276\270\002`\276\341\222\363\275ED\000\276x\351\317\275\334\254j;\225\374W=g1\264\275\324\263\356\275\031,m\276\247\010\216\275\323\267,\276unx>X\222\356\275\300\267\266=\3612r>\362\371\340=j\304M>\177\264\337=g\347j\275\010\3638\276\337\324z\276\360\200h\276~\277\360<\335TB\276\245\036]=\017\204\275\274\361\307x>0\357a\275lT\223=Gb?\276J\245E\275\030\321\017>\320b\334\273\203\264r\276\035pT\276[\034\016\276%\376\250\275\032OE>D\333C\275b\347\342\272Z\202\255=D\224\266=<\363p=er\256\273(\330\003= \304]=8P\005\276Y\244V\276W^X=\224p$>\357\347\302=#El=C\030\370\2759\331^\275\221L:>)\3751\276\205_\326=^\277W>_W\214\276>\364\276=,Nc\276\311\2530\276ctd\276\224\350\"=\364u\230\275\333A\001>\212\263\014\2763\026\203>\237z\273:|\321\315\275\'\\[\276M\332H\274\242\231{\274*Y\004>\324O\301=\235k\002\275x\321\010>h\314\203\276\344>O>\311\201W>\361\323\t\273\314*\227;\256\r\n>3\357\001\276\205D\304=>Z\312=Zl\270\273\r\271\027=iOo>\2670\263\274q)8\275\004\034h\276j$\030\276\360\027+>\342\360C=C\341\257=\271(k\276\036\002\031\274`\324:\276w\007\017=e`\371\275^zI>}a\034>\375\355M=\315\'\311\275K\nJ\276\242,3\276\217J4\275\361\260\000=\"\224\037\276v\275\004=Q\2542\2767\317\267\275\225\216\260\276\375}\216\275\307\017\277\273Z\304\'\276Z\006\345\274F\020\205>|\365W\276s\261\246\274\346xB\276  \2579t\341N=>\355D\274L!D\275\320N3\276=b\221=\304\371\314\274)\244\302\276\257\370\240=$\020\204\276\226g7\276~\270\246\275\326v&\275M,\317\276\n\254P\276\217\362\230\276j5\017>\r\334D<_E\005\276\316sQ\276>\327\302\274\261\335u>\3446\215\275\264\307\247\275j\314 =_\314\207\273Q\204\010>\213=Z\275\306*e=\002-)>\355\261\244\275\333\341K\274\250\200];Y\213\025\276\207\342S\276u\335\370=\316\257>\276\032\352%\276@A\343=[\334)>W}K\275\003*\231>M\332t\276\314\266\000\276o\343*\276\310}\210>j\251D\276\233\274x<\014\357k\275/\372/\276t\010P\276L\261\016>\316\233\331\2750\0005\276\021\313]=r\262\246\276x\226\251>f\220s=\322\311K\276\020\2142\276\364|F\276\301~t\275\373\247\201=$\032I\276\375\200N=\031Ek\276\375-5<\205p:\276\267\273\004\276#DL\276x\317k\276K\315\361\276\377\253[\276:\340\303\276\313\037\202\276\351Oc\276fKz\275\345B\324\276I7:\275\307\327\323\275c\200\014\276u\2551>P\336\372\275i3\340\2755M\033>\241zb\276\240\203\322\274Y\016\003\2752\361\205\275\312\335E\276\276\333\353\275@\224\n\276\212P\022\276~\314\210\276j\360\363=\347\261\340=V4G\276f\3740\275\r\210\251>\375\260\272\274%&u\275i\202&\276\375\275\034\275\274\315\377\274\0161\325<E)\364\275JLT=\350\333&=TVm\276\275c\223\275\302\354y\276\324\330Y=\006eg>\355%\205\276Jw\014=\220T\363\275b\332\314=n\257\013\276\373\262\324<\262]C\276\334\373\007\276,\236t\276\236\344\234\275\265\373T>\262\341\177>\031\317w\276;.3\276T5\227\274\007>.=#[\272\275\320\217M\275b\215\330<\007\216#\276\342\243\272\274\351\247\344>PUw=\225\261%\276_\335\303\276,E\003\276S\302 \275\330G\301\274E\'\242\276\221bS\276\337\341&=puR\276\224%\210\276\256~\202\276UvV\276y\241\200\275\267\275\246\275-\030,\275\315\356r\274\375\3026;\tM\013\276\315^\036\275\306\204\366\275;|\r\275\234\"8;L\355\233\276\242\254\221>q\362\362\274\310\265A\276^\315l\275\337\213\240\274\014\275\227\275\377\374\323\275\330[ \275\'N\223\273\225H4\276\001r\n=\347\237\313\274\353X\253<\036\001S\274mJ\"\274\271b\244\275\232\254\224\275\362\301!\274*\246\243\275\\\217\005\276\247\325\304\275c\352%\276c\260\220=v]\303\274p)O\275\246\252\257>4\355\337\276|\355\262\275\034\023\260\276\334\257#=\207\031?>%\033\375\275[\327S\275=I\243\276\336\353!\276\253\336I\276QwF\275_l\351\276\360\273J\276\333\374\331\275c\t\r>\006\300d\275\325J\003\2764\254w=\200@\354=\254\272\241\276/g\303=k\002O\276P\177\205=\201\315\'>\312\307\222=\241\004\354\275\020iH=u\200\320<\030$\001\276\337\206Q\275\006\353\210\276\013\332R\276Imx>\237\243\036\276\215\351\232\275Y\035\200>/t\027\276\005S(>\236\350k\276\377>n<@\356\243<\206\274\230\275\273\340\246>\322+\007>Q\307\360\275\227\351\206>\006\3171\276\230\262\337\275#\227\254=\353\032=>\211\253\347\275J\315/>Y\031\301\275aJ\347=\244,T\276\213:\037>^\002`\276\257p\002\276o\360\262\275.\321\375=\001q\301=|\254X\276\336cz>[\217\'\276\341)|=\236m^\275p\365\024>\222\333\231;}\300\031\276\262\336s\275p\236`\2762 `\274M\240\n>\310\302\345<\234k^>3\361)>\3062E>\372\3055\276$\327\206\273o@\271\275Kq\233\275>\344\345\272\234\225A>\001\247+\276B\227\302=LuO\276y#\n\276ln:>g<t>\r\333@>\321YU\274=\344\002\276\3206C<->I\275\177\274\312=\236\252\002>O\006\217>3\257c\275\2543U=;\260(>~\271\005>{\231\373\274\363\360|\276\3102\262\275\322\362;>\367\217z<\276\324\024>T;>=\212\017`\276\0205\321;Iu,>\236\032m>\224\303A\276\206F\204\276M\231B=\362Yu\274i\235;=\340\364\335=\245!\312\275P\275\006\275\227c\305\274|pY\276\245H\257\274\374\222\310>\303\371\014\2760s\010\275\300)\022\275rA\235\276\234\302d>\322m\\=\'\341\270>\010\355l\275\330\366\357\275\313\243\211\2759\024\025>\366>\315<I\\`\275\356\271\345\275;\222&\276O\n\244=~\351\307=\222]{>?\207G\276\352\344:\276B\307L>|5I>\271\213u\276g\002h>ex{>\274\340S>\257.&\276\305_^=\270H\371\275\001=\036\276\273\346\266\276\325\243\315=\377\226\263\275H0\344=Y\016S<S\230\237>\200\177\362\276\331i\236\274j\023u\276\365\321\006\276\301\375V>m\224\024=\277U\000\275\2018\233\276\310J\352=\271\221E\275\250\270o=\004O\326\276\252\273\335\276\205z\353\275\362\305\205>I \226=I\255\260\275\005?S\275\364mJ>\033\332\321\276\007\243|<\325,!\276\243.I>,f\023>\312\271\213=\276\315\361\275L\316w\276\340\\N\275wP|>\303.\021=\216\005\203\2752e\213\274\355\325\352\275\235\307\323=\3761A\275\031\257\216\274\313\013\306:\226\336)\276\267p\314\275?\370.\276\017\223\014\276\374P\032\276\354\006\210;\245\242\350\275\252D\274=\353\226\212>x\235\004\276\323uP\276.\226\327\275\246\260+\276\373\341\331\274\272\371\212\276\274Gm=0\243\205=\2512;\275\370!a\2768@?\275\250Q\231\275\247\343\002\277\355=\244\276\232{\223>\021k =\332\261Q>b\211\217>\321\022\303\276(\317\020\2765-\303\276<59\275\002A\342\276\342\252\000\276\205yY\275\202\303v\2763s\202\275\025\032-\276\217\3209\276n2\265\275&\233\022\276W\010/\276\254Q\221>\322\252\036\274\0061\235\273\304\306/\275h?)\275\372\037\250\275\265\347\215>\r\016v\276\037\035B\276\301\026X\275xNa>)M&\275Z\363 >c\220\026>\211\217\247=u\200)=\250\355\007\276Q6\224\276\203:\022\274\\\355)\2769\337\271=\274\204\016\276\'\035\022<\t\253\370\275\236\261\031\276\t\004\200>\267\234\031><\312\203>\010\017\220\275\"[@>\022{\220=\177$\177\276~[\035\276\237\330\036>\"\354\230\276\273u\347\274\000m\210\276\256\024\017>\031n@=\245\216d\276\020\2328\275\260\205\245\275t\206!>\2132Q=\251M\305>[0c>\361I\345\274i\236\'>!e\010>*5\323\275i\363\201>\231o\004\276h\207\312=d\026\356=-\213\035\276\007Z\005\276hA\344\2758S\200=\226\3271\276\265\277\030>\014KC>\343\324\307>s\212\244>If\207>\361;\007=C\023\"\276\341\201\250\274\304\342\204\275\220\3350\275\322p\247>\315\313\204<\234qL\276/\327@>qJ\201\274\237\317\202=\322\004\204\274\365\317\255\274\2733\276=\307\2178>\320\0049\276Fin\276\254\301/\276\2739\231\275vC\306;|\355\007>\303\336\332=\377=1\276\2602$=\317\370B=\027h\320=\230)\n\275\2272\303=\002\035\223=\201\035\r;g\017\032=\2111\315\274\266\036\036=\037\253#>05\210\276\304\322W\276\007d\277\276\221\262V>\337\327\277=\352kk>\022\244\342\2752`\257\275n\330o\276\' l>\347\206`>s M>\373\324o\276\035G/>\346[U<\256\210H=\232\360\330\272\303K\301\275\217\270\003\276m@e\275\336\315\217=\220\252e=\031_\263:\013\262H>:B\201\276q\350k\276\213\264/\276\361+\254=\035\030\371\275\010\363\324<\273\337\304\275\\\360\201\276\r\230U\276\317F=\276>\3517\275\317I8>\213Z\033>\352\030\001>\005\240Y\276\360\220\000\276\004\241a\275x\\z\276\ndp\274~6\004>\347\324\026\274\344\366t\274\344\333=\276\347\300\213\276\030\221\022>{\365d\274\373*M\275\'\274\000\276\306\264\323\275~\323\247\274\205^\244\275\246\004b\275\205L\261>\231\226\202=\325$\022>\233s~=\331\206\002\274\301\257V=n:\222\276\020\221\353\275q9\331\276\237\252\253\275\252~\266\276\024\013}\275\371-%\276\366\222\316\275\032Qy\276\343\340\024\276\363\023o\2743\250\021>nX\235\276L\271\320<=h7\276P\363\304\275\3607\355\275\353C\017>Y\363)\276\345!\262=8\210\263\274\375d&>|\275\373;\365\337\356\275W\237C\276\223\t\241\276\017\337X\2765\004\260=\215\2679\276v\262\267\276K\211\265\275Ec\241\274\326\265\313\275\362-\274\275\216B\211=H\265\037=\262\316\364=\0302%\276Q\275\212\276J\267=<\027v1\275`\033\022\275B\251H>+\2025>;\362\364\275\245S@\276\366\016O\274zU\236\275\217\312\272\275\013pV\276\341/\201\275z\276\017\275\214H\343\275h\342\023\276\3409\361\275\014\005m\275_\231\016\276\272\314X>??j\275\216`]>\032K\234\275\303H\034>/\345\240\274\2118{>\354:\214\275Pd\022>\226A\302\274\204O\003\274@q8>\010>\370\275\323\263\221\275A\221\361=f\234\001\275\207P\017>\rp2\276f\244\241\275|\274^=\037LY\276\024\004\271==\220*\276\276\233\215\276%\177\004\276u\020\224\2755\351\003=h\207c>h\234\373=P\271\014>\222<\005\276q`\274=An\354\274:\037)<\251\360\200>\315\376\324>\303\327\n\276\331\321n=t\330\305\274X\025+>_\223\031\276\362\336\342\275\031\032K=\002\000\214\276bA\334=\271\327\226=\rbe\2765ta>L\000*\276\273\322\020\276\220Z\314\275\014!\372=Q\374\276\276%\376\267\274\034\213\213\276i\005\337=E\324\352=\364\310z\276\031{\025\276{\004\003\273\237l\210\276\223z\177\276q7\007\276\004\036\177\275\332\355\375=5yx<D|\377\275\304\216G\276\347\024g\276\3166>\274\010\340I\274\326\004\214\275\370`b\276\037\036\314\276\354\031\r=0\010b=~\312\313=:N\3219\263\275\251;\355[\242\276\365\\]\276\256\362O\275\307\014;\276\023\312\307\275\212\213\033\276b\257\204\275\316\231->tJ\002\277K\210\257=\'\257\342<Nm\243\275\317\353\232\276\332\354\032>\234\343A\276c\227\363=f\327\275\276[\245\031\274\377@\023\276\345\250\204\276\355F*\276\2339\026\276\353\217\3629=\244B\276\376\336\001\277K\tk<\300\241\300\276\270:\260\275.\206\t\274\303}\226\276\243\235\274\276\021\246M\276h\031Q\276\301\206\275=\033\354\006\275\376SU\275\306rJ=\327O\347=F\032\220=1\310\343=\263\232\254\274/\363\306\274\371\270;=\006\0046=\032\251T=\010`n\276\360I\201\274\n\022\273=\375\320\004\276hK\021=\020\252\035\276\233\002\203=\025H\272=Z\363[<\2566\001=\264:{:!h\343\275\261c\231\275Ar\201\2757\253B\275\342\005q\276\332\021p=\'\202W\275WS\355=\371\362$\276]q\227>\177\205Q\276\277)\001=<\205l>\317\215\343\274Q\267\320\276\363\371\211\276Q\351\226\276\271\263\351\276\254\373&>\270zU\276\266\315F>HR,\276\036\007\323\275\000\357\316<\336\037y\276\027\276\340>\334iE\276:\030\372:\343\3276>\245\255\216\273\326\262%;O\367\203>S\220l\276\377\230\341<\211\224\013\277)~\213\275o\212\230\276\302*&>$\237\233\276ED\030<\357b\030\276\372\373\016>\310\325>>\211\317?=l\267@\276y\254H=\022\337d\276X~-\276\310\271!>\n\013-\276\007\363p\275\314\273K\275\331\007\021\276\022\353H<J\347\255=)\021I>\r\332k=\344>n\276P\250\302\275lv\230>\315\251\253<\030&H\275\3344\353\274\322\241h<\313o\274=M\200\363\275X&\352\275\'\242\211\276\031\213\216=n\266n>Z\260;\275\223D\013>\231[\004>1\031<\276\'\342\303\275\334J\232\276\324\354\023\276{1\220\275\226\244\221\275\252\265\210\276)\362\031=\033\271\245\274\024\336\304\275\371\005`\275\366b\001\276\324c\357\273\361\272\214;\344\341\211\276E\026\207\275\022RV\274\016w\207\276\334\024\"\274\327\314<\275\374\t\350\274\370\177\273\275\352\2552\2759\323X\275\n\376g\274\226\243\335<E\366\263>\031B\350\273\010\r\013\274\022`\032\275>\270Q\276\207\250\222>\335&X\276\321v\036>\365\360\354=\2057\244;g(\212=\260\372\270\275\252\377\004=*\214\230\2769\017\225\276\224\272\210:\241\213\330\274\2172\311=6\026)=\177\250<\276N[\250<\265]@\276\357\277/<\305+\304\274\035\270\022>\013\355\210\275w\2368>C\325\247\274\277\331\216=\310\361\246\276\327\031\032\275\255@\260\276\251B\013\276\244\264\177\276\272\343L\275\202\035\230\276RG\207\276Q\0343\276P\r0>\007\235\334\275\023P)=\302\003W>;\365\032\276\211\362\005\277\rCL\276\215\020\332\276\250\017A\276\272\223\327>\241_\034\276ui\333>\317\200\021\275\235\016\037\276\342\'\231\276\236<\244\276Ph)>\364.\317\274\216\000\262=Y\204\254\275\312\"\337\273\353\232L\276\006:\\<\026\274\243\275K\275\330\275\017\267$\277\272g:\276\370nc\275r\303w=p\304\031\277\013\246\027>H\211\377\276\014\256\373\273>c.\276&\321\332<S\201\332\275\027{\337=\020\001\000\276\317\213\032>L\232\275\276L\246\347\276\373A|>\366\\F\275b\342\001?o\226\331<F\002\337\274hV\032\276\031\331\235\274n\340\276<\272N,=\177\0260<\025\221\177>_!#>\250\310N>\202\353\027?\211\266\221\276\246\3230=\364\373\246\276\317\271\022\276d\230\364\276z\202\220>CZ\370=\022O\221\275\315\322\350=5dR\276>M\334\274\253\021\366=\200zM>\306t\233\275\003+d>}\255\227;\345\000\362\275\304\371d\276Wm\313:[\367=\276\215L\216\276\322\'A\2758\021\333\275O\276e\273\347\330\034\276a7\232=\356\026}\275\262@\"\276\307k\343\274ml#;\256\371\246\275\021\255#>\234M\331=z\2153>\377d\373\274\'\214\r=\220\212\227=\346p\337\274\003)Z\275\335M\221=W\021<>>&\252=\334k\247\274\225\214\255\275\206U\341\276\r\366\233\276\302<\240=\350l`\275#\332\220>\244\351E\276h\371\014\277wY\250>B\212\245\276\332\201\263<\264u\323>\265\220v>\242\016O>\216C\342\276\031\351\224\276\250\313\373\275nYA\276\375\205\342\276\232\354\366\275\000WP\274d\262\022>\212\021\357\275\213\005\362=,\310\242=Z\315s\275\361\"\237\276\214y\357=\363!N\276\375\363s>\357\0037\276\227\"\341\2754a9=\3329\203\276\275\3110\275\252\006N=\177\356<\275\232\242\245=CSX=\3765\315\276\243\257S\275\024\261i\276m\000@= \351Q\276\224\231\347=\"/\301=\211\210I\276\315G\270=/r\027\276d\'\200=\255\312\276\276\262\213\307\2761\362m<\031\351\244=\004rZ=l\301K=U(~=)\017\205\275\302J\333\2767\207\304=\243\314\362=A\252\365;\251$\267\274#g)\275\3433Q\276\347\005N\276N\220\354=\221\325\235>M\350\n\275\017G8\276\217\307\371\275H4\200=\324\037\"=\261F\254=l\312L\276l\025\267\275\210a\222>t\303\273\275\232\376\244\274\020\231[\276a}s>\277\357\270=\004Y\202\276\005\210\r\276|]\215\275e\035\033\276<W\001=\250\026<\275f\266\020>,\207-\276\371\260N\274\253\202\000;\314\361\023\276\347\357e=\n_\r>\204\266R\276\276s\013>`\236\023\276\013K\006\275\360\234\241>\325\375\021\275\200E0\276X\310O>r\026\004\276m\304;\274?5\314\275\224\364\325\274!r\367=+\201y>0\224\242<\372=X\276\031\355\350=\n\223\362<\321\221\216\276i:6\276l\232q\274*R*\276T\216\275\275w\3306<\003l\252>B\206\027>\342>\254>?\2140>\207\3452\276/\341<>\203=\366=\241\216\024\276\250X\006\275H\266\316;~\352\344\274\206\216 \276\2060><\270\267\203=\264\2608=\276\220\023=\033\373\373\274\330XM\276\315\245?\2764Y\036\275\223\222\265<\020\034a=\327B\206\276\345Ao=\312H\026\276\203^e\275%\202k<\241\365\245=\360\301L;s\307|\276\335\277\034\276\343\256\262<.\250\033=\370\006\221\276m\342\177<\234\235\341\275\351r\317\275<\004]\274\317\306\013\276"
      }
    }
  }
}
node {
  name: "FCN/dense/MatMul/ReadVariableOp"
  op: "Identity"
  input: "FCN/dense/MatMul/ReadVariableOp/resource"
  attr {
    key: "T"
    value {
      type: DT_FLOAT
    }
  }
}
node {
  name: "FCN/dense/MatMul"
  op: "MatMul"
  input: "FCN/dropout/Identity"
  input: "FCN/dense/MatMul/ReadVariableOp"
  attr {
    key: "T"
    value {
      type: DT_FLOAT
    }
  }
  attr {
    key: "transpose_a"
    value {
      b: false
    }
  }
  attr {
    key: "transpose_b"
    value {
      b: false
    }
  }
}
node {
  name: "FCN/dense/BiasAdd/ReadVariableOp/resource"
  op: "Const"
  attr {
    key: "dtype"
    value {
      type: DT_FLOAT
    }
  }
  attr {
    key: "value"
    value {
      tensor {
        dtype: DT_FLOAT
        tensor_shape {
          dim {
            size: 32
          }
        }
        tensor_content: "\277\004q=R\222\006\276*.\314\273-{\253=\256\204\231>\230\014\007>\343<\247\275\265\217x\274\336yx\275\325&\200=S\031\312=\347}\005?g\253\375=n\210\357=\037H\203\275G\242:\276\335\360\262\275\336{\014\276\243\020\363=a\260\000>\376\023\344\276\025\266a\276\221!\014?z\252#\276\256F\326<A\303\364\274\272\022\206\276\263\233%=\230\236\241<Ny\225=\233\231\r\275`w\346\275"
      }
    }
  }
}
node {
  name: "FCN/dense/BiasAdd/ReadVariableOp"
  op: "Identity"
  input: "FCN/dense/BiasAdd/ReadVariableOp/resource"
  attr {
    key: "T"
    value {
      type: DT_FLOAT
    }
  }
}
node {
  name: "FCN/dense/BiasAdd"
  op: "BiasAdd"
  input: "FCN/dense/MatMul"
  input: "FCN/dense/BiasAdd/ReadVariableOp"
  attr {
    key: "T"
    value {
      type: DT_FLOAT
    }
  }
  attr {
    key: "data_format"
    value {
      s: "NHWC"
    }
  }
}
node {
  name: "FCN/dense/Relu"
  op: "Relu"
  input: "FCN/dense/BiasAdd"
  attr {
    key: "T"
    value {
      type: DT_FLOAT
    }
  }
}
node {
  name: "FCN/dropout_1/Identity"
  op: "Identity"
  input: "FCN/dense/Relu"
  attr {
    key: "T"
    value {
      type: DT_FLOAT
    }
  }
}
node {
  name: "FCN/dense_1/MatMul/ReadVariableOp/resource"
  op: "Const"
  attr {
    key: "dtype"
    value {
      type: DT_FLOAT
    }
  }
  attr {
    key: "value"
    value {
      tensor {
        dtype: DT_FLOAT
        tensor_shape {
          dim {
            size: 32
          }
          dim {
            size: 16
          }
        }
        tensor_content: "\361\2428>*\177\370=\347\004\003\276n[M>ge\255=h\031\243\276\255i\030\276\026\006)\276\367\032T=2\004\207>\315\307\204\274\260\260\343\275K\346\361\2750mQ>\314%,\276e\352z>%\006\360;j\355\253>\367F3>\235\025L>\301\007\345>E\026]>L~,\275\324\304\376\275\246\222 >Yx\010?Ip\037\276\355\367\337\275\345\341\211\275=\340&\276B\005\003>\372\'\007\275\272\260|\276\342\225\347=\304\020d\275U\250\253>::S\275\"\013\013\273r\361K>0\201\301\275\346\240n\276\014\027\243>xM\261=\344\224\376\275\204`;>&\277\214\276\217\016\017\276\331\377[\276qR\'>>t\274>n1k>\\\332\006?\330]\323>\362@j\276L\310{>Y\234\252=\234l\266>\367h\026?^\355u\276\027\237\033\274J\201E\276if \275\364c$>\373\212n>\254\265s\276T.\275\275\364+C>*\231\314<\306\357\216>(\325\237>\351s\353\274\363\265f\275<x\232==\347\223=\212\326\305\275\3177\200>\217^\347\276\367p\025>\300[\240>\2237\232\273\275\231s=2\235\261\276\361\205\257\276\t>\250\276\263\3453\275\343\006\331;1Q\324\276\265^\021=<P*\274m\034\242\276\2230\t\275\354\331R\276\211\365}<v\\\001\276\366\217\223\2758$\236\276\036c\217>\331\273\326\275\320|\343=\3323a\276Fvk\276\017I)<\263\227\241>\206\345\242>9$\361=\006\261:>\010\013<>)#w\275@\240k\276\267Y5>Y\000\201=meZ>a\354\307>\2444I\276D\360\356\275\373\322i\275\220[2\276s\365\263\274$p_\276\225\005\352>\353\250y\274g\302\307;D5\324\275\354\031z\276\326\314\000?\326\230K\274\345\030>\273\373\'x=r\361L;\316tf\2765\177\370\276\307-\002\277t\336\007\277\230b~\274\221{\021\276\253Y(\275\365l\0278\346\337)\276\007\330\271\275\321\311\236\276\020-=\275\263\327\221\276\271\337\251\275\265\376\036<\354\356p\276\007\213\215>\032\277\377\273\266\224\264>\237\370\037?\266\230|>\233l\036\276\203\315\343\276\354u\000\2763|\330=\216\027`\276\177Z\033?\036\250\303\275\230\365#?A\250\241>\034\\\217\275\245\260\372\2755\212\006\276_O\263\274\245f\221\276`\214\337\275\316\217n>\266u\224\276D&\275\275Q\345e\276#+\245\276\013\203\010>\372,\263\275\243\364;\276\251v-\274\211[5\275\365W\330\275\341\222\217\276\367M\347\274\255\035\336>\300\010N\276\246\350\226>S\373\351><\303\310>\215^%\274j:\242>KcM\276\001\351\362\275\034f\255>\351\256/\276\206\224\353>\"}J>\276\236\221\275U\327\274\276S\0141>\007\023\255>]6\r>\306\277\246>/\223\203>\314\364\224\276r\312\255\276q\002F>gmq\276\370\360\324=\242yD\276 (\235\275\301\213\003>\004\254\251\275,\325\326\275X\217\354=\3357\246\276\342\221\n\276\314\201\365\275I\022\263\2758\267\313\275)\204=\274\362\237\224>\210\317\n>r\314\303\276-F\215\274\245EZ\276\313\211\013>7\347!\276\306\301\345\275\301b\231\276\235\233$\275\254\227\n\276m\030.=k\341\253\276u\366\331=\023\376\214<\327V\213\276@\205\221\274\2628\245\276\232\301\275\276\364|\203\275t\235:=\373\314\202\275:\374w\276\352D\231=\343\215\021\276\370\304k>\020\200\370\275\206p\206\275\'11\276}\275,\276\212=\315\272;\223\257\276\022\333\254=\0352?<\353\232\356\2757\332\355\274\027\213\245\2753MU>\265I\233\275\rp\266\274\360C-\276\023\004\313\276\031\331\t<\350\360\223>\302\231G>\336)]>\273\306\n\276x\371\350=7\245\026\276\330\351\277=>\241\027>>\231<\276\336)\203>\002\215\010\276\274\330\010>\010Q\270>\244\366\256\276Z\234\267=}3\215\274\372\177R>h7!>\315\365\224>S\274L\275`\235\217>\227\230\246=!\022\031>>\371\035>J\020\250\275\227B\027>rx\202=\354r\240=\234!\205=\304O\263=-\344\212\276`v\233\274\207\217\034=\013\232\037\274\206\200K;.\317\002>\215\214\272\273\274\300\363\275J\314V\274 O\227;(f\367\275y\271\235<`UU\276\002\225\334;]\277w=\254L9=]\032l\276\225X.>l\013\223=\2334\360=\354\257\344=NR\261>9\320\003\276i\231\234\276~\313\310<\327T\206=\257z\033\276a!Q>$\014\267\276\356\276n\276f\253==\2206-\276u)\017\276y\220P>\252\r\343\274\345m_>\251\224\021?\226\305`>\272\254O>3\276b\276\264\274\234\276\376\277\235<Ggj\276\003\340\035?Z\000\215\276\241\025\335>\030\036\310>y\322a<\254\360\321\275\013\327\227>\361\333\221>\236\325\277>b\360)=\337:\272\275w\013\210>\347?\213\275\334y\223<\361\325\255>;\240\276\276\022i\010?C\006\212\275%t\035?\320\355\251>\203\203\251\276\351y\203\275\312Vc=\214\241\213=\252!\311=\365\373\242>\274\207G>\004\205E\274\316\020\302\274\242\010\317\276 \260\220=L\240\010\276]e\336>\304)\002\276\363\317\242>\377\240\331>\375\020K>b8\203>WxU\276\375\212\005\276H\311\001\276\205?\302\276\206\360\274\273\017\006\003=I\010O>ub\277=\276A\303\276\\cR\276\200\177\206\276G\240\250>T\374a\276\224\363\260\275\222\033\265\275G,k\276\006?\252\276\204\355\206<\354\027\237\276\346|\341\275I1A>-\027\205\275\245\242\367\275\034]/\276XM:=\240\201\240\275F\216\213=Kr\245\275\334C\002>\024,\331=\357\ne\276\2723\370>\327\340x\276\203\222m\276\224T\230\2753\337\222\276\014\023J\276\251>m=s`\022?p\314\377=5\316\014>\3203\347\276\211\244Z\276\250~\022?\364Yp\276\022\321\215\276\310\320q=\277\003O:\340\020\213\276\033W\323\275\203n5\276Q\211\314\275QL\305\274<\274\313\276\037F\033=(\370O\274r\3761\276X\317+<Z\007\264\274\235\207\013\274@W\313\273;\001\220\275\026\036\010=[23\2756(\336\276\032 \236\276O\243\261\276!\030N\276F\253\357:\367F\326\276\236\356\223=\303T\331\275\274\371\267\276\307\022\014\275\277\326\224\275\006\206\271=\271f/\276\367\310\233\275\010}\227\276H\261G\276{\253@=\024\347\277=^\023K=\233_\n>k\355o>\376,F\276\230G\204<\242\014M\276\210f\n>\024\316\326\274)g\352=\377e\214\275\376\317j>\377\303\205>TZ|\276\204\350\307>\373}7\276 \3175\276\335/\016\277\320K\007\276O\253\217\275\311\023\235\276lu\n?\373\3151>w\213\004\276l\240\360\275\362\2661\276\307\364\361>{\245\021\275\277\332\206\274w\227\241\276\031W\247\276\032\244\252>\346\235\033\276\251\332\243>\227Z\244\2769\233\005>X\002\254>\036IE\275\027\375\210>\307\254A\276\001M\206>\253r\252\276\212\030<=\367mO>\016\330V>\225\307\215>*\273\274>\202\246\314\276#\201\305\275L\021n\276\343;\356\275t@B\275&/5\275\231Bt>\230 \004>\306\301\231\276\357\206\323\274\352?/\276\301\232\316>\007\326\375\274zi\362\274P\222f="
      }
    }
  }
}
node {
  name: "FCN/dense_1/MatMul/ReadVariableOp"
  op: "Identity"
  input: "FCN/dense_1/MatMul/ReadVariableOp/resource"
  attr {
    key: "T"
    value {
      type: DT_FLOAT
    }
  }
}
node {
  name: "FCN/dense_1/MatMul"
  op: "MatMul"
  input: "FCN/dropout_1/Identity"
  input: "FCN/dense_1/MatMul/ReadVariableOp"
  attr {
    key: "T"
    value {
      type: DT_FLOAT
    }
  }
  attr {
    key: "transpose_a"
    value {
      b: false
    }
  }
  attr {
    key: "transpose_b"
    value {
      b: false
    }
  }
}
node {
  name: "FCN/dense_1/BiasAdd/ReadVariableOp/resource"
  op: "Const"
  attr {
    key: "dtype"
    value {
      type: DT_FLOAT
    }
  }
  attr {
    key: "value"
    value {
      tensor {
        dtype: DT_FLOAT
        tensor_shape {
          dim {
            size: 16
          }
        }
        tensor_content: "\342\350\205>q8\337=\230~s>\326\3361>\035\340\212>\263oa>$1==\214D\025>\224\3427=BR\303=J\027\334>4^\230>c\002%>&)\270>L\301\233>\367\247\017\277"
      }
    }
  }
}
node {
  name: "FCN/dense_1/BiasAdd/ReadVariableOp"
  op: "Identity"
  input: "FCN/dense_1/BiasAdd/ReadVariableOp/resource"
  attr {
    key: "T"
    value {
      type: DT_FLOAT
    }
  }
}
node {
  name: "FCN/dense_1/BiasAdd"
  op: "BiasAdd"
  input: "FCN/dense_1/MatMul"
  input: "FCN/dense_1/BiasAdd/ReadVariableOp"
  attr {
    key: "T"
    value {
      type: DT_FLOAT
    }
  }
  attr {
    key: "data_format"
    value {
      s: "NHWC"
    }
  }
}
node {
  name: "FCN/dense_1/Relu"
  op: "Relu"
  input: "FCN/dense_1/BiasAdd"
  attr {
    key: "T"
    value {
      type: DT_FLOAT
    }
  }
}
node {
  name: "FCN/dropout_2/Identity"
  op: "Identity"
  input: "FCN/dense_1/Relu"
  attr {
    key: "T"
    value {
      type: DT_FLOAT
    }
  }
}
node {
  name: "FCN/dense_2/MatMul/ReadVariableOp/resource"
  op: "Const"
  attr {
    key: "dtype"
    value {
      type: DT_FLOAT
    }
  }
  attr {
    key: "value"
    value {
      tensor {
        dtype: DT_FLOAT
        tensor_shape {
          dim {
            size: 16
          }
          dim {
            size: 8
          }
        }
        tensor_content: "\363\006#=\016\231(\277[,\321\276\031\245\014\277uh\355\276 ^\255<\305g\033=\343\372\022<\022\214p>\022\357\001?\364A\352>\350\313\322>7\301k>\341\216\217=\206K\312=\374=\331=\264\376\017\277v\317\223=\252.\211=D0S=\002\357\321=v\364\210\276\324\271\261\276\336\'K\275\264x\241\276\013\327I>1\300\254>\242\177B>\370\322\006?\3433\200\275tb\265\276\360\240\213\275\211\005\314\276s(J=\377}\177=\244\324U=(n|=i\307\'\277ex\313\276\021*$\277,Xw\276\265\t\367<\221\322\020=\267\022\027=\023\257\023=\203\241\243\276Xb\250\276Y\\\020\277{%E\276\327g\216>\270Ek>\312\250?>\300\300\212><Y\033>\322\342\323\276\233\222\223\274\311\010\371<B\316%\277\250\302(\277\355\004\033\277\221k\021\277<\230\223<xhA=V\230F<\213\327\210>$\322\034\276\264\"C>3J\352>\"N3>y\000\243>m\\\305=\014,a>\336(7>\210\355\245>\360U\305>\225\331\256>F\r\270>\375,\212<\204@\242=^\200\234\274W\276\003\277\024\376X\276\212\374{\276\275\300\025\277\275\330\207\276\263TN\276\2679\220\276=\224\314\276\272\020\311\276x\265;=~=\206=&\005L=\022\264r=\256\311\020\277\365b\276\276\375\271%\277\226\036\"=\377\0230\277v,1\277\340\374\344\276xv\332\276\030y\204<;\374\003=\313\035\244;\246&=\276`\346H=\237\3663=Tx\343<F\320\244=\200\025\310\276\221D\201\276\n\3573\277\263\235\376\275\346\237D=[\313A=l5\022=\220\353h=\332\257\263\276`t|\276\221\2372\277\270\271\372=\235\262\356\276I{\343\276\214O\267\276\231\227\003\277r\324\263\276\005\214[\276d\376\274\276"
      }
    }
  }
}
node {
  name: "FCN/dense_2/MatMul/ReadVariableOp"
  op: "Identity"
  input: "FCN/dense_2/MatMul/ReadVariableOp/resource"
  attr {
    key: "T"
    value {
      type: DT_FLOAT
    }
  }
}
node {
  name: "FCN/dense_2/MatMul"
  op: "MatMul"
  input: "FCN/dropout_2/Identity"
  input: "FCN/dense_2/MatMul/ReadVariableOp"
  attr {
    key: "T"
    value {
      type: DT_FLOAT
    }
  }
  attr {
    key: "transpose_a"
    value {
      b: false
    }
  }
  attr {
    key: "transpose_b"
    value {
      b: false
    }
  }
}
node {
  name: "FCN/dense_2/BiasAdd/ReadVariableOp/resource"
  op: "Const"
  attr {
    key: "dtype"
    value {
      type: DT_FLOAT
    }
  }
  attr {
    key: "value"
    value {
      tensor {
        dtype: DT_FLOAT
        tensor_shape {
          dim {
            size: 8
          }
        }
        tensor_content: "zdF?\203\000\312>\315\035\372>\013\216\362>7\r\363>*\310\033?\000\2108?qk\023?"
      }
    }
  }
}
node {
  name: "FCN/dense_2/BiasAdd/ReadVariableOp"
  op: "Identity"
  input: "FCN/dense_2/BiasAdd/ReadVariableOp/resource"
  attr {
    key: "T"
    value {
      type: DT_FLOAT
    }
  }
}
node {
  name: "FCN/dense_2/BiasAdd"
  op: "BiasAdd"
  input: "FCN/dense_2/MatMul"
  input: "FCN/dense_2/BiasAdd/ReadVariableOp"
  attr {
    key: "T"
    value {
      type: DT_FLOAT
    }
  }
  attr {
    key: "data_format"
    value {
      s: "NHWC"
    }
  }
}
node {
  name: "FCN/dense_2/Relu"
  op: "Relu"
  input: "FCN/dense_2/BiasAdd"
  attr {
    key: "T"
    value {
      type: DT_FLOAT
    }
  }
}
node {
  name: "FCN/dropout_3/Identity"
  op: "Identity"
  input: "FCN/dense_2/Relu"
  attr {
    key: "T"
    value {
      type: DT_FLOAT
    }
  }
}
node {
  name: "FCN/output/MatMul/ReadVariableOp/resource"
  op: "Const"
  attr {
    key: "dtype"
    value {
      type: DT_FLOAT
    }
  }
  attr {
    key: "value"
    value {
      tensor {
        dtype: DT_FLOAT
        tensor_shape {
          dim {
            size: 8
          }
          dim {
            size: 2
          }
        }
        tensor_content: "\220`\214\276\033\201\225\277K\'\250\276\236p\371>(\363\226\275|i\031?/\r_\277v\2362\275\370\t\r\277\310\255\277=\304\217??\245\320\371\276\035\323\025?s&\313\276\272.[?S\267E\277"
      }
    }
  }
}
node {
  name: "FCN/output/MatMul/ReadVariableOp"
  op: "Identity"
  input: "FCN/output/MatMul/ReadVariableOp/resource"
  attr {
    key: "T"
    value {
      type: DT_FLOAT
    }
  }
}
node {
  name: "FCN/output/MatMul"
  op: "MatMul"
  input: "FCN/dropout_3/Identity"
  input: "FCN/output/MatMul/ReadVariableOp"
  attr {
    key: "T"
    value {
      type: DT_FLOAT
    }
  }
  attr {
    key: "transpose_a"
    value {
      b: false
    }
  }
  attr {
    key: "transpose_b"
    value {
      b: false
    }
  }
}
node {
  name: "FCN/output/BiasAdd/ReadVariableOp/resource"
  op: "Const"
  attr {
    key: "dtype"
    value {
      type: DT_FLOAT
    }
  }
  attr {
    key: "value"
    value {
      tensor {
        dtype: DT_FLOAT
        tensor_shape {
          dim {
            size: 2
          }
        }
        tensor_content: "\206\301\324>\270\301\324\276"
      }
    }
  }
}
node {
  name: "FCN/output/BiasAdd/ReadVariableOp"
  op: "Identity"
  input: "FCN/output/BiasAdd/ReadVariableOp/resource"
  attr {
    key: "T"
    value {
      type: DT_FLOAT
    }
  }
}
node {
  name: "FCN/output/BiasAdd"
  op: "BiasAdd"
  input: "FCN/output/MatMul"
  input: "FCN/output/BiasAdd/ReadVariableOp"
  attr {
    key: "T"
    value {
      type: DT_FLOAT
    }
  }
  attr {
    key: "data_format"
    value {
      s: "NHWC"
    }
  }
}
node {
  name: "FCN/output/Softmax"
  op: "Softmax"
  input: "FCN/output/BiasAdd"
  attr {
    key: "T"
    value {
      type: DT_FLOAT
    }
  }
}
node {
  name: "Identity"
  op: "Identity"
  input: "FCN/output/Softmax"
  input: "^FCN/dense/BiasAdd/ReadVariableOp"
  input: "^FCN/dense/MatMul/ReadVariableOp"
  input: "^FCN/dense_1/BiasAdd/ReadVariableOp"
  input: "^FCN/dense_1/MatMul/ReadVariableOp"
  input: "^FCN/dense_2/BiasAdd/ReadVariableOp"
  input: "^FCN/dense_2/MatMul/ReadVariableOp"
  input: "^FCN/input/BiasAdd/ReadVariableOp"
  input: "^FCN/input/MatMul/ReadVariableOp"
  input: "^FCN/output/BiasAdd/ReadVariableOp"
  input: "^FCN/output/MatMul/ReadVariableOp"
  attr {
    key: "T"
    value {
      type: DT_FLOAT
    }
  }
}
versions {
  producer: 175
}
