node {
  name: "input_input"
  op: "Placeholder"
  attr {
    key: "dtype"
    value {
      type: DT_FLOAT
    }
  }
  attr {
    key: "shape"
    value {
      shape {
        dim {
          size: -1
        }
        dim {
          size: 19
        }
      }
    }
  }
}
node {
  name: "FCN/input/MatMul/ReadVariableOp/resource"
  op: "Const"
  attr {
    key: "dtype"
    value {
      type: DT_FLOAT
    }
  }
  attr {
    key: "value"
    value {
      tensor {
        dtype: DT_FLOAT
        tensor_shape {
          dim {
            size: 19
          }
          dim {
            size: 64
          }
        }
        tensor_content: "\260\025\016\276\255\263\267>z\3643\276 \304\373\275\340\211q<\366R\277<8\tE>\035\372\261=\261a\201\275l3\250\275\225\310)\276Q\213]\2740$6\274\207\224\264\275\036\375Y\275\301d\274\276\227\212}\276\361\342G\276\306v\003\275\313~\374\2756U\036\276n\311\200\276\326{\311\275\206L\364<\304\200\227=a\305\267>\315\334!<8u\271\274O\301\275\275\355\306\212\274\001\324\032>AT\366=\253\027)=N~\321\276\255G\266\274\204\001\373<\331\263\017\277s\272 >X\261\250<&\324\341;9\2301\276Pj\246\276\014\\\202\276\035\310@\276}+\320<\356\214\376\275\237\021\237=\276\265N\275W\361\264\2749d\200;n\256\000\276[^\027\276\257\201\206\274_\247\364=\315h\002<\036\330\241<@\310\231>\335\234\300\275\374\372\027\274^:B\277bu\r\276\200W\203\273\244Z\204=\030\371\">\222\016\216\276\262^t\277\250\3446\276R\213m>\275Ns\275\376\002\035\275a\336\033\277\270\376\250\275\253\n2\275\377\312\202=\260\320\256=\2667]>HZ\273>\314\010;>NZ\312=5\243\027\2770\376\200=\346\376\265;Y\271\257>c\257\223\275^\300#\275\332\253(\275\343\367$>\244\337\372\276\353\373\260\277\271Y\235\277#\327 =\322\013%=r\037\341\276\257\260\007?\002\335\242\275D\255\002>\232V\346=E@\266\274\213\217\222\276\024\242\326<\266\201S>\017\213\005\276#\035\014\276\005\363Y\274\354\301J\276\030T\236\276\265;\014>+hG>=K\266=G\311`\276\373V)>0\351i>\03401>\3041J<\004}\226\276\354@\'<\230\020\264=p\232\027>\226F\343\275::m\274\353X\022\276Q\000\226\275\247\373\016\276\225~O\277\223\301;\275\r\304\367\273\347)\031\277\364\260\002\277\360\214\327>\330!Q=\354}\032\276=\347\277\276j\232\254\277\024^\303?4\217\214\277hl`\276\274$\">\260\244?>\235\020v\276\365\314H\277\035\301\016?\265\204\343\276\371\226\216>LcH?9\347\331=h\303\307\276\003\253n>\315\330A>\005\373\004\276\267\217\000=\3770O<\343x\216>y\236\001?\335\270\010?\034g)\277\010[\225>*\361M\275\003\312\305\276x\1774;\361\326\031?@3\031>|gr=\304\343\014>\226!`>#3\333>QcS>\233\323^?\177\320\270\277g\270\025>s\373b\276\235\\\272\276\315\305\330=\264B\255\277id\312\276\313.\272>\264\243\372\275UT\025\277\375o\002\275\316W\243\274Cf7\276\326\224\n;U\3645>\322\224\035>,[\313>O\371\317=\277\2272=\025\2168>\330l\263>\251@j>\357\226\307?|j\231?S]\025?\274_\241>\270B\370<\245\270\213>O\333B\276\"\252;\277[.\245>\3130\252=\212\026\327=(\370\031\276\222\tE>\016\2514\275_&\314\275\003\217.\276\337\251\273\275M\000\206\276\004De>\024\240m<\024o\220=\314\252\371\275\345\370\216\275\353\266o>\031\'\002>\366\023\004>\\K`\276k\204\014\276)S\263\276A\247\212>48C\276Sp\255=\364\260*>\353\231d\276>{\200>\311\006\037\276\312\324\312\275D\261w\276\024\231\347\276\242\220\237=y\243\236=\326\362\255=\006Y%?\342l@\276m\202\240\275\330\215!\276\262>T\275\217<\331<3\347\000=\367;}=\322\r\220=Eg\324=h\365\202\275G\222\002\276\304\3017\276l\315\264=.\247K>\222\001\332\275\361G\004\276\277q\\\275h4|\276\254\317\233\274>\">\276\336\003\202\276\025\035i?(}O\276\212\350\241\274\264\266N>\267j-=\342\232\300=._\345\274-s\223\274+\000\024<\207\347G\276]\302L\276!\364\310\276X36\276v\240\214=\360\235\266\275\235\200P\276CV\244\276\204\231N\276K\320\">\367\n\000\276_by>\230$e=\335*\240\275\305\316\342\275c\256\006=AM\321\274\373\020\214<W\266\261=n\335g=[\323$<\010v\202\277\270\201n=e\355\255\274F]\213<\320~\001\277\003\321\354<\230\230:\276\321\004\374\273\2366\274\273/\031\342=\2605\234\276\234\353\374\276^\327\250<\031\225L\275\032\031\375\2766\344\030\276\315\261\300=y\331\225\273\010\250\022\276Y\233\204\276N*f\276\376\341\023\275d\274\323;O\337!\276\370#\211\276|\264\r>\314`\003\276\037^<\276}\016\304=\\\232\260\274\352+?\275\210\032\361\273\272\223m\277s\224\003\276xkO<wW~=\243\025\310=j\204E=.T\233\276\241\215\023>\324\\\353=\363\245\255\276\316\214\376\2776\2776=e\252f>\271H\316\275\002\353}\276\352z\304=*\332\025\275yBc?\323\326\270\275\351(\000\276\020\306\000>u\177i>$\033\211=sZ\004\276l\002V\276&*z\276\325v&=\177\256c=\200|\307\275~2\224\275\350e\204\274\026\"\201?\306,0\276\355*[\275\216\334\204>\370K\230=\340U\374>\220\233\252\277\245\320\206\276\275\344H<\264\200\001\300T\305n\276\016\304K>\177N\t?\275\314\004?\203\002T\276\201\217\246\275\021\205\235<\353\235N\276\203\037\022?eR\356=\205\340\010?\345\333\242\275\253\025\003\275z\014\305?\212?\022\274\303\3308=\323\376\207\275\031D\305>\277B\000>\212\326)\2768\332\236=g\002\203\276o*\306<\240\342\026\276\002r\007\276\251\222\322\277#\341i\276\323\037t\2754\2571=\354\017\\?\344ID>\224\330\271\275\366\001\024?ZP\233?\r^\224>$j\376\275&,P\276:\033\317=\254\361K=\274\214\316\276\207\366\t\277\361\371\247\276\217\316\273=\260,\241<\332\351V\276A3\235=xk\315>F\235\271\275\314\267s\276\027\253\033\275+C\277=\346\365\203>jJ\013>\363\330\222>\020\215\353\277\033\361\245\275u\021K=\271T\240<R\375d>\345\201?\276\215(U?6h\023\276\261+\020>\377.\252?_\225\266>\327\006\224=M(}\275\244\352\335\277\346\342r>\302\206\303=%\276\377=\342:\324=\234\'b\277<}\324\275)\254\230=\016\317\027\276\257u>>\223\ra\277\300\033P>\375\251}>\024\307\301\275T\216\005\277~\033\031\276\324VI>H\334\022\276\216\2734>>\010_\276.Q\306<\\\336\025=/\322\251?\365\213\010?\246\346\037?\306\241J\276a\342<\276K\327 \275\305\316m\276t6\323\275[\311F\277p\177\350\272\372M\243=\237\312\002>\017Ia\276\025\2000>\235\276\301=D\274\323<\277\322Q\276\342q\347\275\037)\306\274\020\371\023>Lj\r\276\022z\312=\370>!=m\233\006>\234\254\324\275/I\027={\340\300=:\244\010=\224\237\303\276Q\260\321?.~T>\344\373\277=\217\r\252>\332\213g>\306\214_\276\362\210\265\276\305\2436\276\260\264\203\276\271\024]\277\360\354\\\276\036\334\350\275\232\236\215>Yx\233?\270D\210>\346\375\317<\357\013\234\275&\321\307\274\023Y->\013N\033\276\005\332\235>\024\357\333=\022\216\341\275\326H\202?\000^\373<\357m\300=p\267\366\275\350|\350>\301h\035>\0262H>\215Y&\275\323]\036\274\361\256\210>T\304\315=\374|\370\275\307\017\207\277\264\367\010\277\220Tn\276\211\256\204\276>P\021\275D\376\273=\312\236U<\221\355\200>\374E/?e\213L>\000~K\276{\207r=\336\263\231<\251\257\030<\241\377c\275o\034\321;v\376\361\274\362\261B>p\3642\275\375\261\234\275\355c\013\276%\006\254=|g\t\276\224\216\025>E\240e\276\256Q3\275b\206\256=\275\3671\276\254\234:\274\2005h\276\210\367V\275l,\332\275\237E\354\275\317\0220>\314\372V=\211\343\372=6\3153>\305BV\275a\256@?\021\317\251\276\313 \241=Y^\035\275-\201\n>\017O\323=\306\372\001\276,\235\025\2768\330X>w\216\034=\030\323\017>`\027\024\276\266\020Q\276\347\344\352\275\362\236\005\277\310\351]>\222\210\020\276\332\376\021\276O\237C\2760Y\003\276K\027\242\276\264,\210>1\246)=*\223f>x^P\276/\344I=\032\005\232>CtL>\360\003\230<s\303\343;\014b\351\273\22429\2763v\002\275j\226\237\271\027B\241\273\027\320\027=\023Z@\275fz\270\274K\240i\274[D\346\275U\355\035=\201\324\347<h\274\223\272\312\210\211\272\253I\247\272\2048\272\271\333\320\313\276\326\177\303\276=\021\327\275t\016\261\273\215D1\276\005kE\276F\222A\274z\034\014=!P!<\216{P;YP\001=\323\024\202\275\217`\375<Qh\203\276\270|\234<M\324\351\275>\377z\276\261p.\274\356V\250;Ifz\274\236\310\220\275y\366\217\2758\025\311\272GC\367\273\365\377\016\276@\252\270\275\304\333\342\276\242\236\372;2\\\301<;\346\004={\276\371\275\036\211\005\275Wh\016\275q\0329\273\020\036\205\275^\231\203\276:\317\231\274\313G\201\276k\344\241\276=\265\301\275\321K\326\275|\270k\276p\305\t=\302?`\276\264v\2408\340\352\213<\325\211\333<Y)\224\276\313\3525\276\342\247\027\276o1\250\276\3108\261\273\3476\312<K\353\366\276_q\304\276\354\330\210\276\222\314\372\276\205W\300\276\217\215\230=S\306E\274\252\223\213\2725\252 \276\031\372\310\276\030\211G\273a\034^\275\253+T>\027\216O\276S\250\010\276\360\306L\275l\013\000=/J\004\276\323|\371\276\230{\215\276&U\337\273\306\302(=z\231\367\276]^P\277R1\366\276\243\n\305=\231\335\362=\367pP>\237g\227\276\251u/;\317\335\256\275P\257\014\274{\302\321=\341]U<0\344\214\276\202T`=\277\276\217=\001@E\275\340\211\226<P\346\334=\221N\003>m\222:\276\336m\322<\023\030\334<\177\223\203\276\366\324q\2763\240\034>\275h\272=\265\036\017\276h<g=7\361$\276\231\317\207=v\006\206\276^\3443=\356\275\261=K}\007<\365(\322\275\027\240%\276\253Tl\276\221\215\315<@\322\354\275@\362{\276h\376\223\276TAO\277\211\224\'\275>\000\206>{\3324>\370#y\276\233\253:>p\301\326>\372\375\">\306\234R\276y%=\275y\271\234<\026\236\004\276\201m\231\275\362\017\220=@E\200\276|\265\027>\311\350&\276\037w\263\275\035H\200\275\263<\213<\266\246)>\032\327\201?\026\307\311\275\300!\252\275\310\2217\276#*h\276PV\231=l\032\014\277\001\353v\276\344P$\276\031(S\277F\021R>\337 {\276\214\266\217\275\267\302 ?^[\014\275\273qT\276\310\363\342<M06\276\364\305W?\243\372h\276^H\177>\037NN>\352\334+\276\245\303\247>\342\314\216\275\260\311\202>\242\216\365=\373\232\252>~\024\032\276D\376\215>\311\025R=\2778\002\276\347`\224\275\024/j\276\316E\024>\261\312\203\277\301\355^=\303\264\201\276\200-*\276a\246\014\275\232\372@=c\033\005>\3324!\276\332\267M\277\370\232D>\331I\343\275D\201~\276\242\324\300\275\356\273\243=\205\360\330\273\344\332N=\014\207(\276~\230\'\276\000\331\010\276\022\232\037>\257xm>\017\207\215\275f\362=>\232WF>\310\004\363\274\376`8>\350u\203>,\363\211\276K\002\243\276\363\274.?\231vS\276v\225Y\276\207dc\276pnI\276\340\265\r\275\244,\231\276\311\025\354\275h\241\001>\375\234\034\277\330\321{\274\356\210g>p.\233>\235a\013>\034\366\357\274Q\256\366=\375\270c\275\234\216v<\344*\242\275\277h\024\275\252e\305>\024\337O=;O|>\233\2538?\330%\360\274\375\214\202>\333\\&>a\023\332>n\301K\276\315oQ\272\227\246\235\274\020\317Z\276z\3201>\231k\331\275}(C\276[\376\364\276\255#R\276-\334\244\276e\'U>\346\374\206\276\262\235\273\275x\376O=\326\267\031\276\377\027\377=K\030\014\276=\265\016;\377C\203\276\223\311\244\275q\203\016\276\211\025\2619\242\2017\275\311G\227\275\241\016Z\276\202,?>\251-\371\275\352\325\314\275\225\353\206\276\272\267c\276\264\202l<\371\026f\276.\210?\275\332\020\323\275\237\270\233\274\3344~=x\214J\276EcW=\324\033\243\275C\247i\276\3664\306=\335\257J\275#F\035>\213\201\035=\244S\001=\024\203\244<\303\363\r>\331\271\255=\211N\245\275D\006\317\276\rT\351\275\346W.\276R\346\016\275\222@\204\276\277\001\220\276\240\343\361\275\226\013\333=\262\243\027>a\025\302=\304\346\302\276\230a\007\276z\334\032=\364\2761>\222\347\362\2752\003P\275|\031\350\275)=\241=\272o\333\275\202c\205>\003\365\346\275\254\t\016>\005@\224>k\246\277\275e\222\201\276\010\244\232>2\324\037>\304h\033>\361\001\267<m3\003\276\306\025\013\277E\352\333=\220\316E>\251\366\202=\347\031y\276\r\215\213>\256\274\027\276\356\221\034>o\222\214\276\373[\025>@\265\001\276\237\241\312\274jB\365=\313,\325=\217\255\226>Q\376e\275\201U\373\2752\212/\276\014a\342\275\313\2167\276\331\221)\276\217\336=\277ru}\276c\000\207\276\201\200@\276\251\010\270=,Y\226>\232U\363=\177\212\341\273*>\001=>\262O\273\240n\215\275\357 \310=Q8\202>\213\006\337\276~\022\275\276Av\335\275D\271\251\272\317\3454\276%\337s\276W\017u>\335;F\274\366\t#>\377/D>\026\247\224:V\321\033\275\024\010\222>\263\034U\275_\233\037\276a\266m=\257\351\017>\277\205\240\275\246\213\331\2753}\363=M\314\342\276\246=I<\n\004\022=7\351b\276\361\260\244<s\216\335\275\255\005\276\275P\333\262\275Gk\237\276\'\351\244<W6\345=<\000b\276\210\3576>\227!\317=\205\322\317\275\244\343;\274N\003\270\276\271 x\275\232\300\230>\335\"K\276\007\227*=[:\024\276p\321\024\276>\006\303\275\3016\334=}\216}>\222\214\004\275QVE\276f\261)>\332\024w\274\376f\204\276\265\223\337=v\216\033>H_\024\276\242ht\276\245\024\315=\377\035\004\276\314\257e\275\236\2657\276j`s\275\335\021\326=_ \004\276\016,[>\257!\254\275\230\3076=: \330=-\"*>uel<jGT\276\274;\302=\263o|>:\257\016>HE\225=\236+\031\276|C0\277\303\016c\276\"\303\357\2755\032\007>v\352\257>l\210T\276\323\r\306\275I\362\207<\021\317\001>fEi=\204\3565\276\226\326\004\275@\000\362<\206\267-\276<kj\275\314\276\374=\016\241K\276\263\272P>\307Y\032>^\360\211>\267\357g\277\366Z\220>\375.j\276.DA\275\307\025C\276\026\302\353\275\031\216%\275!\327{>Y\316*\276\220\010\321=\\\262{>\346W_\276 (\203=\276\362_<\264\315\370\274a\364(\276\324+u\275C\364\205>\224\314(<\222\216!>7p\001>\244\206.?\324Q\023\276\330K\273=\351\267\350\274@y\226>\363\256z\273\323\377\346\276\335\265\r>\n\373\013\274\302\322\004\2771\304\206\276\361\310\022\275$\211\347\275\003\273\344>o\340$=\033\0174\276V-\206>i\253\344<\002\242\016<\3573\201\275\274\225e>2\356d\275\356\271\004>\352\343\005?\242C)>\217\3321>x\345O\276\255O\321>\022\t\032\276#%\307:\001v5>\361\263\223\275\007\202\215>\276\030\215>B\2612\276\236t\325\276\036\251(\276\312\300\241\276\321W\r\276bR\353>zfM\276\177\242\256\275\273{\325;\231c\206?u\337S\276\333\251\002\276\315]\211<>Z#>\270\273\006\276,\311N\275\262\356\215=\267t\254\275\036\261\303\275\351\215\376\275y|f>Y\365\276\274\344\332\354\274\254\350\262\275bF@>\342\376\313=W\016\025>\251l\024>A\250\343\274\343\354\014\276\356k>\277N\216=\275\205\2603\275L\355\230\274\030\217\302=&\"\221\275\250\217\265=\240\374\026\276\232m\321=\331\360H?\022\206\"=R\256\037=SWY>\\\325A\277o#\032\276S\360\357\275\335\257;\276\265\221)>\356\250*\277\215\344/=\211\312\337=\332Z7>\237\323\332\274Q+\020\277\260\316a>)\357%\276\327\312\353=5\347\254\274zZ\244\275\205\304\362\275\003m\201<#l\n=r\307S\276\0215o\275\275\262\360\275\344\361\023?\345\2434>\375\273t>x\205?\276\300\245\264<)\362\037\276\243\303\267;{[>\275SA\223\276\342\3462=k\214\323<\302\310o\276\331\244&=\245\243\225\274*(\022\277\241\0063\276\217K\303\275\324P\'\275\2460\272\274k%\322\275\253\236\323<\273\375\242\275,k\263\273\202U\017\276\202q\036\275\342o\375\273!*J=4\363\320\275\206\301\"\276\203\327$\277\253\213i\274fF\230\275\320o\315\275\235/K<4\035-\276\\\312\342\275\362\025 \275%>\306\273G#@\276\307\304\364\274\036i\316<\204\357\036\276\321\013\002\276C\217z\276Zy\034\275P\241H\276\244\364e\276\361Z0\277\034\251\267\276q\261l\274\234\340K\276$\243\230\275\232\307\215\276c\243\002\276\342V\256=\255\\C\276F\007\023\2760\360\336\275\235\3171\272\014\240\r\276\321\214\353\275\211\365\234=\024\304\244\275\245\336:\275\334\312\031\276\244:\266\275tw\001\276"
      }
    }
  }
}
node {
  name: "FCN/input/MatMul/ReadVariableOp"
  op: "Identity"
  input: "FCN/input/MatMul/ReadVariableOp/resource"
  attr {
    key: "T"
    value {
      type: DT_FLOAT
    }
  }
}
node {
  name: "FCN/input/MatMul"
  op: "MatMul"
  input: "input_input"
  input: "FCN/input/MatMul/ReadVariableOp"
  attr {
    key: "T"
    value {
      type: DT_FLOAT
    }
  }
  attr {
    key: "transpose_a"
    value {
      b: false
    }
  }
  attr {
    key: "transpose_b"
    value {
      b: false
    }
  }
}
node {
  name: "FCN/input/BiasAdd/ReadVariableOp/resource"
  op: "Const"
  attr {
    key: "dtype"
    value {
      type: DT_FLOAT
    }
  }
  attr {
    key: "value"
    value {
      tensor {
        dtype: DT_FLOAT
        tensor_shape {
          dim {
            size: 64
          }
        }
        tensor_content: "*\025p=\221#\007?_.\323; H\242<\263\307\003?\327\014m\277\\\252/>r\362;;kcH\274b\024\272;\220f\027\274f\220\202\276P\204\374<\357\305\256\275\n\2403\273\204`\312=E2V\275Yf\273=\334\256\001>.q$9\273\307\036\273\301,L\272\364\005<\274\207\322\215=-FI<^\307g>\r\204<\276\003J\355\275;Q*=\216Y\035>z\302\001=\365\030\360\274o\276\300\276\344\2026\275\216]\020<\316\223\334\273^\242q=\211]\004\275\307\'Z\275\253\004u\276\360\212\205;T\371\225\274\223\016\333\274{\0136<\354Mi\276\'\304R\276\335\\\002>\374K\365:\306\377\025\275\354\002\"?\252(\025\272\247\336\330\273\365\340\352=S\233\036\275M\307c7\2201\202=\327U\001\274\320\237\3579\357\303\270\270\366\027O\275\346\017A\272\027\235P\277\223#\207>9f\270>"
      }
    }
  }
}
node {
  name: "FCN/input/BiasAdd/ReadVariableOp"
  op: "Identity"
  input: "FCN/input/BiasAdd/ReadVariableOp/resource"
  attr {
    key: "T"
    value {
      type: DT_FLOAT
    }
  }
}
node {
  name: "FCN/input/BiasAdd"
  op: "BiasAdd"
  input: "FCN/input/MatMul"
  input: "FCN/input/BiasAdd/ReadVariableOp"
  attr {
    key: "T"
    value {
      type: DT_FLOAT
    }
  }
  attr {
    key: "data_format"
    value {
      s: "NHWC"
    }
  }
}
node {
  name: "FCN/input/Relu"
  op: "Relu"
  input: "FCN/input/BiasAdd"
  attr {
    key: "T"
    value {
      type: DT_FLOAT
    }
  }
}
node {
  name: "FCN/dropout/Identity"
  op: "Identity"
  input: "FCN/input/Relu"
  attr {
    key: "T"
    value {
      type: DT_FLOAT
    }
  }
}
node {
  name: "FCN/dense/MatMul/ReadVariableOp/resource"
  op: "Const"
  attr {
    key: "dtype"
    value {
      type: DT_FLOAT
    }
  }
  attr {
    key: "value"
    value {
      tensor {
        dtype: DT_FLOAT
        tensor_shape {
          dim {
            size: 64
          }
          dim {
            size: 32
          }
        }
        tensor_content: "q\301\245=\312\001#>c\214->\335\364,\275\006\021\254=\025F\371\273\251\246\355:\247f\n=\r\241I\276\337\007\003=S\n\346\275\266^\315\274\376&\220\276\'\224\030<\310[9=A\nH=\253\232L\276\207\376@\276\205&)\275\002\225\022\276\013J\247\275\005J\007\276\255\302\311<\200/\361\275\322\250\356\274\3472\315=\026\312\032\274\023\326\201\276i\331\r=6c\330\275\024\r\351=\006\377\020\276\310\311\002=\331a_\272\037\014>\275\363\306B\276\203*?\276\207\324m<\374\242\210\276~\014\\:\320\036S\275\351&\362\274\"\265\265\276\353\037\230\276\004\354\313\275A\225\300=ty\006\275\274\351\007>\272\311\020\276\267\306\372\275\275\005\001\275\300\205\3629<\005\340\275\2117r\275\017P\343\274\317\221P\276\006\353\325\275\243\r\317\275\213\275<\274Ap\007\276kq\211=S]\347=\203\315W\275\331\375\240\275\377&,>\236\214\">\307\360+\276!\376\245\274h\021\373=\255{c\276[\304\313=\306<\037\276\004\214\036\276\271\255-\276\321\244\276\275\357\2573>ci\000\276\013\004I\276UD\215=K)\210=y\263\031\276DI{\2759_@\276\'p\275=\300K\266=\221\2410>;\017\017\276\357M1>\263\002\021\276\262\336;\275\204\027N\276\001,\201>n\025\037\274,-\364=yK\201\275(\313F\275\022\376\201\276\024B\224=\003\"\263\275\252\342F\276\260\377i\276\241\025\323\275\310\312\257=\323HS\276>tK\276\007\257\003>\376\313\237=v\230\234=\270\253\026>#G\213\276\027\207\245\275a\000i<\247\365X=\036d\227=x\032\352\274\010\256\255=\210*\250=\377q]\276B\272c\276{F\232=\367\315k\276dAM\276\245\2669\276B\216y=9\337a\276\232\257\301=\020*-\275\316?\030\276\313\250z=\257K\021=\024A)>U\177\324\276>\262]\275\372jh\276\246\324\341\275\367\335\200>\244r\007\275\225\2408\275\264G\251\276\235\234J=vEK\276c\275\305>\036]\022\277\217<6>\241\253\370\275$\303\263=\325\277\006>Y\356\215>\370\226\253=RM7\276\351\r3\276\214Nw\270\210\234\332\276\263\303\027=\316s\036\276\340{\214=\205\276\033>\243\235\"=\327\230\001\274\314O<\276\263\272\261=\021\324h\276\272\206\214\276\\\342\334\276C\314\222;\304\023\266>k\240\032=\010\220Z>\031\262\343\276m\334\250>\361\354\376\276\355\025\235\275\350i\372\275J\342\221<\252E\031\277$\221\240\275\251u\342<=`v=W\313\335\275\260\266e;|\260\323\275\214\213\215\276q\333\233=\337\335)\27475\330\276\206\301\232>\024{\337=\274\\w\274\034\350\227>w\375\243\275\331Oj>\251.\246\276%)r\276\2641\320=\013{\004\276\002\273\320\276\370\212\026\276o_\210=\304\222%\276\350\365c\275\223!\360\275:\331G\276\027\026\361\276]+\302\275\360\010\335\275+\307H\275\204\010\262\276\2663\373\275?%2\276\214\303\037\276: <\276cR\333<\252\227\206>\366#\305\2755)u\275\361.\273\275\367\375\215\276#\207{\274\212\000\037\276\243\242\375\275cl~\275h\226\333=Ka\037\275\371)\326\275\375\367\206\276\205\257\027=rO\253<\244\243\035=\355\327\'\276\324\367w\276\304\233\026>\255\275a\276\000\022\232\276\371lQ\275\253\250C\276b\361\375\274\353\343^>\031\014x\275\210\021H\276,j\242\275\372 -\275r\245\344=\272\233\307=\301\360l<d\rN\276-\002L\275\302o\035=za\007>/a\341\275\374\307+=\266\006\314\2730\013\"=\016\357<\276\315Q6>R\020\020\274 \306-\276-\341\315\275\357]C\276F\205O\276\343\360m\276\222\377\352=\315}\200\276\031=\021\276t\n\201\276Z\2156=\244%w\2762\263o\276\342\033\371\275\345\277\256\274\307\010;\276\357_k=\036>h\274{\033Z\276\252\305 >\224k\315\275j)\271<f\315n\276\037\260\365=|\274\302<\215\256\025\2752\213\224\276`}y=\266!>\276G\3524\276_\214Q\276\201h4>Bi\300=\245\251-=\344=\304=\304kG;\263\024g\274\333(\212\276\224\340\272=&eN\275N\204\002\276G\262\355\275t_\333\275\204\261\206\276\007\354w\276e8\032\276\200}\035\276\225AD\276\023W\354\274\237\'\323\275!\210D\276\271~\027\276\267\211\210\276\207\344\t\274\241\365R\276q\014\314=\270\320\242\276\271\250\027\276L\354\207\275\212\327\013\276\251\007\233\275\376\tg\276\235\317\010\276\002\3672=\\\262\271=\266T\202\276\227\3612>\031=h\276p\244\244<\332t`\276il\\>\275U$<\366\\.>\343?H\276 q\314\275\274c\004>\313/\212\275*\267\220\275Y\301P\273\334\351\234\274q\330\014>S\301|\274\003\265\204\275eN4\276`{(>\270\261)\276\335\345Y\276\202\336j>\274\230\034\276\255\234\305\275\217\225\350=\303\234\362\275^\330>\276\333+\016\276\'\330Q\276\247\333-\272\272\3169\276ubk\276m~\373\275\273\225\010\276\327E\207\2751\305\215=\321\246\243\275\021Ub\275\327\021\205\275\216\367F\275(Al<)\202\377\273\'\353q=kIH\276\230\331\"\276\325\331w<?\3621\275\273\033g\275\016\342r=\302\031\230\276\260`\236=\261\341\006\273\314\3505\276\311\330P=\346[W\276t\263\224<\017D/\274,\016.\276]-\023\276>uo\2760\347\357\273pV\242\275|\313\265\275\271\246\241>-(\264\276\221\037\212\275\330\020\017\276\232\024\335=\310\022M>\322xN\276\240\366B\276\205\263\366\273!\330r</W\362\275\277\010\274<;\256[\276\007\325v\276\004\323\013\275W`C\275\001\215c\275O\032\340\275wE9>\221\234\013=\231\021n\276~\370\r<.y\215\275\244\022\036>\324\316J>k\201\216=c\027\266\276\374c\273\276\322t4=\277\234Y\276\213d\017\276L\323z\276m\220\223\275\301uD>j\3142\276\342s<\275\017>6\276\357\n\315\275\326\321H\276\005m\327:\255h-\276\355\362z\276(\031e\276x\032s\276\312\365:>\234+\256\272\030\214\013\276\202\200+\276\325\017T=\211\3421>|\215\025\276\007\304\002\276t\016\027>\230\021\302\275\344\375\"\276\234\t\022\274\032]\326\272`\\\216\273\'\023\221\274\005\026\322=\260\213\363\275\270/B\276$\3717\276\215\312o\276\271\235\003=\332,\312\275\216u\226<\\\230\001\276\226\240j=\265\3436\276Fg\210=Q\253@\276\246z?\275n(\373=}\034*\2761\357\242<\357\3108\2768\216\023>\020:\332=\366\360\251<\256|m=\361B-\275\371\247R>\310\340\315=1\214C\276\206Y\006\276\026Bm\276\335 \\>\202~\276=2t\235\275\2740\003\276\353\301Z\276\025\016\307=x%\214\273\235C\022\275W9G\276j\247\021\276\243\003\017>\235\3325\276\240\242\326=\325*\020\276#:\273=5\211\372<\370\200\316\275\013@\265=\013\001\237\276\026\260\231\272\027\017\353\275\3557\202\276z@/\275\323(\376<|\343\'\274\232\030%=|\000a\276\222\366(\276L\320+\276G9\340\275H\216{>\316L\265\274\306\001;=\344\352N\276qTc\2765\347\327:\002kT\275^u\007<d\022P=\2527A\274~\001X\276\027\353>\276\313\235%\276\353>\211\276M+y<\337ZC\275n\273\033>d\326b\276\024\237\237<\324f\305\274[\302\342=\t\225\373=\354+#\276\024Ot\276&.\237\275}w\010=\373a\325:\340 \317=\004V%\276r]\213\276\200b\263=\211W4=,\275\002>4W\376\275\335\260@=\203\262\004\275\013\2707\275G\360=\276\0009\177\276Q\271p\276RDi\276\202H\220\275T\262I\276\007\327=>\023\254f>\0349\340=M\215j=\317\207$\275\306<.\276\254\r\344=O`l\276\303\027\207\273\375\020j=\214\261A<[TT\276\365\307=\276\342[<>\341\266\031>|\277E<\\T\200\275\030\215L\276<!\006=D2\002\276\362\214\025>D\203\006\276\363\334 \276-\035\037\274\200\365\274=\272GI\276:\210W\275\030\261N=\225\301\031\275{\310U=\346\312\267>\226\364\304\2759\221^<\3024\313=\355\330\200>#\372\264\273~\337)>\277$!\276\237+_=7+\271=\'v\330=\302\374\236\276\356\313M>\201W\225<D\266\310\275\207\343}\276\271\305\243>\253\236\210\2756\302D>\017\203==\244\312=\276\2352l\275r\227P\276\367]w\276\205\t\032>Y\366v\275\343\177\032\276\366P\310=\031\352\375=|\376\224\275!\200\036\276\330\246\276=a?!\275W:z=\364IF\276h\016_=A\177\007\276c\001\234=2\363H>\232\234.>\177\223]=\232\266*\276J\372\203=\270:\226\274\275IE\276\\12>\343\237\275=\227\212\013>\253w\266\274G\203\352\275\303IZ\275\217\310J\276\336\017\211=\246\244\327=\215\343N>\314<J>\177\200\274<L\370\260=\232/\200=\"Jo>C\373\000>I\314\001>\0249\236=u1\272<\333\200#\276w\321\202;\214\037u>\205\360A<\267\337w>\036\016\325\275\024T\023>\364\277.\276\373\0370\275\341,\006=\007*\202\276\221J3>h\031^\276\312\313\310\275\263\033\035\276\364I\304=A\273d;\350\306X>\223\350\235\270\2664\327=\272\344\325=5\225\'>^0Q>\210\026\274\275z\277\030>g\013\212\273\317\270\333<\315\004@>\233\327*\276\226yO=J\233\341;6\"\233\275\360\266\t\276\220X<\276B(\240<\331\250F>\213\003\327<\010PU\275\205\373\031>\0231 \275h=\352\2755b\327\275\334a\235\275\017)\275\274\005T\252\275a\'\006>\t\277\257\275\203^%\275\367^\334\275V\365\313\275vkD\275S\273\332\275\223-\031\276\313\344G\276\237$c=1\327(\276\310\322\021\276~\021@=!\342\276={\021T\276\376\342\242=\375\367\200=\335\365\026>xi\024\276\017$&>\217\367\244\275\006\2729>iN4>01\274\275R\014\240\274\234\221b\276\325\346\203\2756\321W\276?\"\013\276\032\312\000\275\234\0003=\242\344\003=C#,\276\'~\375\275\330o\257=\353\350\237\275M\023\331\274m0\337=\367\360\032=\023\314\251\275\013\257g>\025\2512\276\303\030\336=t\346M\276H\341\367=\025q\005=_}D\275\334D-\276v\364g>\254N\261\275\000\366\020\276\035t&\276\214\247?>`\036`>\314vm\275\322\203\233=\354\r\277\274f\002\217\275\205\2506=\026\032\017\272\201\037\362=\013\r#>\253X\023\275\205\206\263<-E\\\275A\372\204\276\242\201\247\275B\211\257<Y\235%\276\r4\267=i\302\336\275U\033\006>\377\222\025=\260\243\330=\201a\371=\014\2542\276\021\312\250\276L\345\205\276=\\=<L\330<\275n\025\242\275\033\317\203\276\370\311\006>\355\371\232=}\233\021<\277\324\261\275Edf>\274v\r>1}\341<N\215\002\276!+>\276\361J\360=\204hA\276\375\016&=\360\205\263\276\031\215\207\274\n\3665<\347m\020\275\336u\035>\357q\343=r~\002\2763\010<=H\206Z\276\nY\200<\233\010Q\276\343=9\275\242J\244>Y\'\241\275\177\003\217\276\004fJ\276\205\325\316\276e\016\236=\226H\247<\322\354\263=X\3013>tD\321=\375u\335\275\236\220)\276\225N~<,\274V\276\313\375\336\2751z\307\276o\273\027\276^?\013>XBO\276\t\310\014>&\245e\275ij\373=\335\200x\276\035S\375\275T\347n=CD\220= \211\210\275\013C\323\275\\\342{\275\265U\204\276\331\321E\275\\\236\352\275\260\221\000>\325\336A\276\255\272\271\275\211\301\260\276@\257(\2762sK\275\251\201Y=Do\255\275I\356\021=\253\317\364\275\010~\361\275T1\242\275\354\326c<\037\016\246\276S\263\372\274\317\320\232>.Z\214\276)\341\233\276\213#\207\275\204\320\343\276y\211\343=\357\002N\276\026.\336=\302\331u=\343,T\275\t\327\250\276\202+->\372\367\275\276\245gg\275-\017\216=\201\247\330>\350\252\013\276`\313\250<S\341\201>\270\007\343=.\212\022>O\375\245>\302\233\000\276\253\017\306\276\253\333*\275\263fd\275\252\016&=6\324 \276\355\253+\276\013\272\274\276+\035\"\276\350\2335\276OM\001\276\013\205\031\276\3754\221\276\0141\360\275\331\206\030\276\312~\020\276^zT\276\177\317\021\276i\253\224\276\236\034\032<\010\212\272\275Ka\335\275\344\n\241\276\232q\346\275t\246\234=2\311\326\275w\272\255\276i\231D\276b\002a\276Z\2024\275m\240\350=\226\315\307\273\007\245\234\276\207\256K\276`\353\000\275\002\205\230\276\020\326y\276\350\301\033\276,7\231\275\362\004\035>B83\2766\241\350=g1\221\276\033G\301=k\217/\276\204\004L=\352\353x\276\3544\211\276m\260\034>\277\221\217\275\266\313i\2743C\367\27550R=\266\230\245\276q\333[=n\202\201=\013a\027>`\003u\276N\211\251\275\207&1>B\215\321\273\35256=%\235O\275ZS\246\276\337\n\240=`\232\024\276+\264\367:\n\r\331=\223\311\317<\341\030\267\275\241\300\211\276]\243\314<\234<6\276\207\220\270\275!(\367<\211\262\203=I\232?\276\tQ\256\276\200\245\236\276\264w\020>\240\003D\276jp0\276\001 \215<\367\210\253\274\325\275\206\275\223w\314=r\362\263\276\217\335\344\275$_\312=\324\022\365\274\0340\322\274\333(\375\274\022\026\202\274Ly\252<\220\213\232\275\203J\014<\357\\m\276\r\310U=/P\254\275{jx<sm<\274\334\014`<\262\367\027\276\323\311K\276\211P\203<\313\245\"\276Pz?>Y^\020>\362\254\310\275\236\234\321\274\\f\234\276qA\213>\302\200\030=\315o\034>\022sF\276\331p{\275\027Jy\275fg_\276g\277\233\276\302 O\276x\1776\276+\245i\275\226Y}<\030\372\010\276\017\360T\275Vx6>F\234\177\276\207\372M>\362;}\275 \033\254\273\256#\013\276\341Y\020\276\373@\250>N\335\007\275\336\376\240<\212Tv\276$\270\025\276\326r\315;\nl\017<>\344\006>\350|\236\276\365\370P>\t\215\255=T\271_\274\023\257\371\275\'\177I<#3_=\214\030\364=\203X7=nfx\276\316u\242\276\301\336B\276\001e?\276\342\325\246=\036\0225\276R\000\223\273\352 \321=\327mH\275c\nm=\3022\r\275\367r\341\275\377}\336\276\341\220N\274/8\177\276\031yK<\336\237\177\274\373\333\016\275\000VA>+\352\245\273\342s\303\275\243\247\t\276|\361i\276\243\343\236>sg\255\274\254\t\306<<\035^\276IA.\275\002\005\246\275\325\320\\\276\254\351\277;O\246\">T\340\211\273\2052,>>.+\275\214\326\035\276\211]\254\276D\300\344\275\236~\004>\336\251\341\275+\0236\276\254\212\276\276\305g\256\274wc*\275P\216@>\345\366\264\276\336\213~>\364\315\237\275\274\024<\276\265^\242\275\223n\026\275\314U\334<\362<\335\275\347+|\276\016\257:\2733a@\276\017\240Y>\360\234\274=\242\252\232\276\305\247\204<\370\313\007\275\354`\237=\344U\341=\337\303\230=\243\tE\276B\201\267=f\021s\275\367\350F\276\225\230\201\276\371K\346;\232u\375\274y!F\276\212\302\310\275q\210\004=\265\277$\276Fb)\273!\ny\274o\362\020=\020\371,>\211\304n>\376\257\022>\003\213\266=\312sy\276\247\004D\276/\322v\275G\3348=\002EN=y;\314\275\243M-\275\224\372\355=\257u\335\27512\251\275T!=\276n\220^\275\027]\341=\244\265\227\275\202\214\027\276\216\202\023\276,\344N\275T\373\351\275o\212*=\"^=>R\231\314\273\222\214\341=\246\354#\276S\212d\276\276\221\357\275)\020I\274\334)\250=A\377\214\275U\215\342<`\220\345=\302l?\275\326\200\007\275\244\236=>\214%\233>\255\\\201\276;\322\311\276\024\006\206\276G\347\010>v\3716\276\005\311\264>\200u\022\277\177\000\201\275\271\323\210\276\373\352C\276e\005}\276V\013\177>\346r8\2766\2100>;E\030>\014\376->e0\252\276%\336\032\276\366\341\305=\205\332T\276~\256P\276\220\332\\\276\345\343\373\275\351\201\324\275\232b\330=$\207I\276\261\366\010>{e\353\274\377\003\347\275\253\003\002>\'\317R>|\241U>\302\325\253=#\235\211\276\267z(>\\\034q=\316\360y<\341\343%>\001\263\245\275\'!)>\344$g\276\245\0344\2753\260;\276\274;\345=-Z\016\276\020\026.=\016\204x\276\001\230=\276\362~\255\275L\206\311\275\007\345g>\n7\014\276\307\0358>\360\311I\275\177 \275=V\245\312\275?\375#>DOO\276\024\025\001>Q.\352<\341&r\276M\264\365\274\270\330Y\276!K\255\272\267\340/>\240\250\036>\223\024\234\275W/\216=\352i\t\276M\004S\276\345\353\024>\306\330\'=\202\225\030\275\235\026Z>_\223\224\275\213?\216\273}\014i>\351\224\204\276\235U\373\273M\334C\276Bm\371\275\036]n\276\253~\r=\332\246L>t\241\022\275\223\002\231\275\272\356\310=\027\232\025>\231\220\241\275\254\315\213>\371\024D\276\336\316\020>\316x<>\327\357.\276g\\P\276%}\203\275i\317\312\274\360R\307=\356k\020\276\027\222\350\276\260W\376\275\335\340V\276\355[\215=W`\263\276e\246\322=C2\345=!S\247=\375\\\222\276\0064=\275*g\305\276\234&\231\276\347\275b\276FG<>o\240\213\275W\356\252=\201\360i\276\250\317O>4]\260\275\243T\270\275\014Z\226\276}\014\260\276O*\216>\016\367Z\276+\325\200\275\207\247\002\276\242Q3\275\235\233S\276\301\260\256\275\325\300\340=-\r\300>!-\201\275\347~\265\276!\225\250>~\215\271\2764\010\022>@\251]\276Ss\325=\346\220\255\275m\303%\276\r\036\205\276\303\214\224>eb\273\276\254\246>=\315.\007\2763\246\030\276g^\276\273\202\315\233<\331y\244\273\234]\255=,\016\365\275\246\367m<\205\342\235\275\302:\235\276\301c\320\273d\252W\276\255,\317=3\362\337<\337\327\366=\373}\002\276F\263`\276\023\350u=\"\022\032\275`0m\276\330\320N\276\r\240g\275\024!g<)a\242\276\355\217O\276\337?w=l@\246=Kp\342\275\024s\t=\027\316\237\276\210\272\203=\334?m>\236\3138>\236\335\330\271<d\261\275\254\313k=\223\313\033\276\263B\307\275\227W\005>/\210\331\275E\364N\273\357\013\247=S\024\255=\204@n>/[\252\275\264\241E\276iK\352\275W\247\271=2\000n\276\3726\004\275&\371V\276S;\352<\343\265\032>\211\251F\276\256\027\203\275r\361y\276}>\320=j\326w\2768\330\305=\231!|=\347A\005>\246\023\263\275@\255\022=\370\321\233\275\230\376\260\274\203\2378\276\346\322\323<\004\375\210=\261\267\242\275\217u\"\274B\233\272\275\033\032\313\275\016\322\023<\0327?\276\030\321\363\2751\2072>\334\245z\276\354\361J\276gXp\276\201\301\\\275\033\232\010\276\351\321T\276+\001\024\276\327\367\227=\030|,\275qTD\275v;Q;\211\320P=O\371u\276/H\320\275\326\240I\275\243\327\274\275k\252i\276;i\332=\020\314K\274\3263}=|!M\275E\374\367\275A\266P>\211\336\265\275\214\361\310=\331A\013>{\314\214\276\216A\214\276\006\n\034>\'\237k\2744T\004\276[\366\300;\313M\017>X\020\272\274\233\226\304=\276\360\366<\242\2530\276\256\312<>^\206\240\275\205Jg\2720v\346;\035\300\304\275\231\225S>H\007\344=\233\260\027>\343\351\252<I\242\366<\3241\216\275\016<\016=_e2\276c\273\266\2757*|\276\212\003\365\274\234\2144\275\215\260\302\275\005\356(\276\312\315\000\276\321\263R;\213x\277\274O]>\276@\2465=\025HS>\037\356\200=\360\265\226>\264\010f\276\266\276\307=\264\216-< \326\313\273\321KO\276\357))\276w\367\265\275F\034\251=M\3714\276\316\255\222=\254\027i\276\357\271k\274@\314\210\275\211\314)>WKY>KN\356\275c\301+\276\206%\000\275\256\2076\276\311NC=\310T\333=\343\333e\276\227\224\222\274\266V\375\274\345\301\252=\035\265y\275\331\253B>N\005g>K\264>\2762\374\204\276\305Z\016\2752Bo\275\353\312\311=TU3\276\265\300\246\275\352\\\n\276\371\0239\276\210\007\255\274\371yp=x\352\252\274(x\007\276\027\277\202\275\265m/\276\232G\013=a*\224\275vz\212=\014t\004\2760\346\220\275\340\025\252\274\177-\016\275\034\276q\275B@\003\275\203H\325=\360\235\010\274\003\253[\276\302\221\204\271]G\206=\355S\234=\035\tM=X\362\364=\302\372\207\275\251\273\306\275\341\rL\274\370\005\021\276\354\0059\276\001u\270\270\030\255C\275\213%X\276Z\010\006\275\007\367\000\275\232\303\262<\343\344\255=0\262\025\276\250\246N=[\200U<!^\t=\205\226h;\274\237\277\274/\337s>\324\3270\276\003\207\304\2720\3201=\264\335\220\275\313e->\3505\366\275x\033F<\207s\020\276\237\0006\276\334d\205\275\222\352\t=9\352u:1\177\264:\210f\250\276\021\232\256\276\344\355l\275\214ZF\275\360G\374\275\320\245J\276\346|\006\275\025\253\314\275\374\022\006>xX\236<\302\325v\276X\220 =~\"{>\010Y<\274\273\267s\276\313W\003\276\024\247\362=\231\215Y>\307L{>vzQ>g\204 \276\031k0>\367;\013\276\236\361\033=Q\201\237\274\210\n\033\276!s\007\273%\351\343\2750\205\307\275\237(_\276\357\260}=\214_\016>\261n\330=\332,I>\3207\205=\340\243W\275#\0145>\217_\224\275G a\275\227=\377\275\227S\003\276\0255W\274\335\270E\275;<_\275\2121\232\275\375\377J\276[s~\275Ae&\275f*\'\275\004z\274<\001~l\276m+$\276\272d\216<\302\017\241\276\217K\014\276\235\375\374\275\027Y};\265\034\372=\330+\200\276\340\270&\276\225\036G\276\360`\223\276\300\003\221<a\371S\276\033\342\364\275\001z\357\275\335\'\\\276PY\203\275\034Kz=\337\270\353\275\350w5\276J\226\032<t\022\333<\250\r\210\276\327YL>\375\317\333\275Bj\360\276\017\231C\275B%\257\276\362\021\212>G\217\304\276\316\255\322<P\223T;n\034?\276e\214\'\277\'\241\216:\225#\250\276`(\240=#\333\005>\2622\245>\036\"u\276\242\311\">W\264h\272.\202\362>,;\231>8\312\334\275\314zf\275c\273\374\276r\036\343=\306\325\244\276\356\n\243\274\013\2708>\364\374N=\227\243?<\360\266g\275\0073e\275B2\257\276_\311V>5cj\275\223\262?=E\341->\315 :\273\251\331T\276+\362!>\033;s>Bm\367=\215\301\205\275\344\227G\2733H\221<\014\003\271=\034b6\275\"\371\001>\"\324d\276\023\376\201=\030\272V\276\3763\200=SB\035\276\247\250S\276\327\214\220\275\257_>\276/\301s\276\237\207~:|\341\025=k\016\241\273\313\030\023\276\303.L>\350\356\023=7\t\004\276S\357?\275\3564\315\274\004\030$\276{\022\002\273y\363\031\276U\007>>\365\223\r\276\273G@>\320\373R\276\250\214\231\275F\262[\27588l\276\377\206h\276\306e[\276 N\245\274\272\262O\274I\276\021>\367\365_\276\214>F\276\304\367,\275\005\360\270\275\331l+>9\274\322\275\274\007W>\241\312U>\013\027\362\275\312;\330\275\276\236]\276C,\375<\036\237;\275\207@&\275>9\335=j\367\025\275\032\300B>5!\033=c\216\215\275\226#X=\036\255\344\2725\317@=@\260\353\275` \000\275]\037J\276C++\276\306\247%=O\331M\275\343\330\314\275\251\370\t\276Z\343\271\275N\250B>\tYY\276F\230\020\276F\361-\276\244\372;\276\213\026\324\274\241\313\225=l\305\252=\032\203\323\275?%\261<\355\201\'\276i\353\231\275\366 3\276L\336\357\275i\375!\275\247?v\274Ut\200=\332\206S\276\305\"\344\275/\014\030\274\311\323\264\274L\016\230=\260J\217\275\266\332\230\274N\252\030\2756\375U\274<i\027\276\245`\357=\021\206\242\275H\360{\2765 \016\275+\232\311\271\330\260\271\275\210\246\036\276\322\264\016>\3264\334\275\317\370\002<\027g>\274/B\246\276\220\0011\276Ip\200>\211E#\275\024\356\201\276V\270\342\275\\\314\347\2754:d=;R)>P\362\311\275\274L7>\273a\271<TR\244=B\3637>\350\267\363\275\244\305\256\275{\355>\276\270d3\276\0341\326=\21572\276\3031\314\274\352\214z=5\0207\276\244T\345\275\270\243\361=\342),\276\020J\n\2752\027\317\275\210z\023\275\026\334\025>\315\311\325\275yR\010>`\355t\276\352\0056\274\352_\376\275\022\302\233\275n\274a>\027\373\026\2769\314\223\273 M\001;\366\366\023>\231\343\032\275M\301\352\275\255R\021>,Q\002>\217h\"\276V\355]>T-\216\276\n%\\>\007,\336=AD\317=\260\277k\276\231|#\276hzC\275w\366T>\2558\370=\357\\\275=\204\372\342\275|\351;>\035;\206\275N\271\360\272\337\261\200\276\177W\211=.u\211\276\254\213\213\274\346\261c=\037\017\337\275O\272l>\224t\025>\263Q)\27629!<\t\r\023>\337\324\032>\343\007\314=;r\203\276 V.\276?X\246\276P\341\316=?\342\213=\341\013@>}V\272\275E\270\334=\'\355\031>\nNJ>t\273\306\275!\274\005=\273\314\232\275\355\363X=\233?d\276\201\223h\274\001\316q=QTs=\332ul\275\233\300\232<\352\357\250\274\271\r\016>\366\007\316=\\\326>\276\375\014\251\275+\013\201\275\364D\352\275]\034\020>h2\273\275x\304`\275\366\205\275\275\226\244\354=\253\031\220=\330/\333\274\270n\244:\306\330\373<e\226\266\275o\335\372\275\233t\261=V\200\363=\t\216(\275Y\364d\276j\255\241=\2757W\276X/&>\324=\206<\307\337J\276o\3152=\027-\004\271Pl\032\276\212\277\263=\233\223Y\276\325\347q>\330y\233\274\327\317N\276\010\373\202\275m\364\003;_i\320=\355\rT<\371bR=C(\235\274tm]>\2176\t>\"\rW=\3111:\276:\261!\275yss>\360c\216\272\2463\021\275k\341\221\275\026\030?\276\021\243\023\276q\244)>}2\007\2761 C\276\322R\034>!\201Y\276\037\231\222\275\021\231\316=a\271;>\337\265v\274\364\333\020>F\2056>\362\020m=\220A\n\275\027\t1>l\304\r\276\237\030f>a\211m\276t\007l\276$\203=\276\037i\000\276\017\311\211\275\275\313\374\274\2229\023\275\345\357N\276\343\005\364\276\217\213\262\275\357n\027\276S|~\276\337X\224\276\215d\240\276\256\236\036\276\220\036\256\276\030vp\276\346.\t>\350#\205\276[o>\276\177O%\276w\0109\275\324\256\220\276\243\356\237\276V5a\276$<\032>\263\272\250\276\364e\212\274\320V$\276\002\021\250\276\231\271\373\274\376}=\276d\357\223\2766\004[\276\252\212\034\276_\033\022=Jb\006\276\014\313\270=p\220\356\275\004\345->\307a\\\276\332[\203:\"\207}\276\273e\365=\025\220Y>\371\270#>\235hZ>\022\r\311\2752\366\354\274\034\005&\276\232\271\r>\321\354\033>|\2117\276\317\267N>qef>\332<\031=\007\030\365\274k\347\245\275U,\300=1O\005>GV\020>\325Y\\>O|\223=P\036^>\371\342]>0\305H>\365\226\342\273\000G\205\273\210\237\031\276l\\H>\222\274\177>\272A\247\276\256\224\266\276N4\226\275\253\253@>\344\301F=\007\311V\276t\316Z\276+L\017\275;\'\317\276a\213\t\275\364\230\353\275\2223i>\034\345\035\277\375\177\215>7\327\356\275\377l\246\275\204:\265\275y\2472\273\241Y\315\2745\277\207\276\303\030\276=\316I\275\275s\301\341\276\203\016\n>\222G\201>b\014\016=\270S\222>HOW\276\372N\003\276,\277\254\276\250J\227=\034_`=\036\270\254\275\214\263s\276\322\027\322\275.$/=^\357`=\037\246\264\275\255\375:\2765\0066>\243&,\276Xc\034\276\031M\034>V\221\024>\356lP\275\315\206\027=\355\270\303<6io\276\360\302v\276\306\225\214\276c\210\310=?\t9\276\276pu=\305\263\212\274\334\2334\276\3138E=\027=\215=\027\213\032<\224-0=UZ\245\275\371H\241\275\313.\341\274\363\253\017\276\023\300\262\274\314\2439\274\004\365\323\275Sjt\276\216D\342=\0347\220\274\340u2\273.\231\n\276\245\306\320;^L\024\276\037D\276\275\221\222\212\275\206\022b=8\220\310\274g\310;=\307\344\006\276v\252\252\275\243#\013\276pm-\2766R\335\275\254M\272\275\206\254\305:\353\256\213\275\033\266\210\274\231\024\202=L\360\273=1\263y\276O\270\216\274\033\346&\276\223\273\237=\255\275\361\273"
      }
    }
  }
}
node {
  name: "FCN/dense/MatMul/ReadVariableOp"
  op: "Identity"
  input: "FCN/dense/MatMul/ReadVariableOp/resource"
  attr {
    key: "T"
    value {
      type: DT_FLOAT
    }
  }
}
node {
  name: "FCN/dense/MatMul"
  op: "MatMul"
  input: "FCN/dropout/Identity"
  input: "FCN/dense/MatMul/ReadVariableOp"
  attr {
    key: "T"
    value {
      type: DT_FLOAT
    }
  }
  attr {
    key: "transpose_a"
    value {
      b: false
    }
  }
  attr {
    key: "transpose_b"
    value {
      b: false
    }
  }
}
node {
  name: "FCN/dense/BiasAdd/ReadVariableOp/resource"
  op: "Const"
  attr {
    key: "dtype"
    value {
      type: DT_FLOAT
    }
  }
  attr {
    key: "value"
    value {
      tensor {
        dtype: DT_FLOAT
        tensor_shape {
          dim {
            size: 32
          }
        }
        tensor_content: "T=\210\275\276\371r=\377|\204=\377\372\004>\205D\227\275\347bq\275\nK\024\276\364\346\266\2743\3670\274\375\371\251>\311O\021=\340h\234<\370\t<\275\375\247*>\223\010\'=\255j]\276\254e\014\275?F\323<P\230y=\310\351$>\030\374\342\275\255\316\021>\024h\032={\334\251\272\037\334\255<zm\224=\340D\025\276`\347\327<X+\310\275\236\357\323\274\3729\214<\233H\"<"
      }
    }
  }
}
node {
  name: "FCN/dense/BiasAdd/ReadVariableOp"
  op: "Identity"
  input: "FCN/dense/BiasAdd/ReadVariableOp/resource"
  attr {
    key: "T"
    value {
      type: DT_FLOAT
    }
  }
}
node {
  name: "FCN/dense/BiasAdd"
  op: "BiasAdd"
  input: "FCN/dense/MatMul"
  input: "FCN/dense/BiasAdd/ReadVariableOp"
  attr {
    key: "T"
    value {
      type: DT_FLOAT
    }
  }
  attr {
    key: "data_format"
    value {
      s: "NHWC"
    }
  }
}
node {
  name: "FCN/dense/Relu"
  op: "Relu"
  input: "FCN/dense/BiasAdd"
  attr {
    key: "T"
    value {
      type: DT_FLOAT
    }
  }
}
node {
  name: "FCN/dropout_1/Identity"
  op: "Identity"
  input: "FCN/dense/Relu"
  attr {
    key: "T"
    value {
      type: DT_FLOAT
    }
  }
}
node {
  name: "FCN/dense_1/MatMul/ReadVariableOp/resource"
  op: "Const"
  attr {
    key: "dtype"
    value {
      type: DT_FLOAT
    }
  }
  attr {
    key: "value"
    value {
      tensor {
        dtype: DT_FLOAT
        tensor_shape {
          dim {
            size: 32
          }
          dim {
            size: 16
          }
        }
        tensor_content: "\314\025*>\364BP>\326\207%=\331\364\225\276\257\216{>ZtH>\320\342\252\274\363Y\220>\0262\030\274\177\032\262\276\034I*\276\306\340\226=\351j\002\276\217p\230=\251=Y\275\213\232Y\276\270,T=\200\254\232>$y]\276\2431\260\276\025\231\225\274*\035L\276\215g\214\276-)M>\177\376\226=0\233\033\274A\204\374\275\256\376\221\276\036 L\275\231\033:\275\215\3746\275\360\227\253\276\327\300\303\276\254\346>\276\270\020O\276h\330\227\276\312\274c\276\232\343\202\276\271\034\204>\210I\337<\235\353\027\276\2037x\275\303\346\372\274\302!3>\363\010D\276\035h\232\276\026\343z\276\354A}\276\353\230\213\275\251\221(\275\2550\227>\345Pr\276B\363\212\276\250\004\364>\260s\316>\232\214\210\275\262\341z\276$-\230\276\177\221W>k.\333<\253-\006\277\"\347\'\276\232\2052>1\006\200>\201\030\217>\321\237\235\276\325\256\274\275\203\3377>\003Q\'\274\276\"U>\027\3042\276\336\314\324\274\024.T>\327\261E>\265\374W>\234a\213=\231\230\361<[\260L>/\307\247>\274(M>j\3638=<P\271>\013\006\034\276Ho\320>\3104\232>\023\007\004\276\335\2241\275\201\202\315>\010\223\323<^\016 \276\332\306\033\276\205\317\271\276\236Z\246\276\020\313\230>\322]P\276a\013\017\276\305\024]\276\215\306\200\276u\376\224>/\314\211\275\305\375\212<\311\332&>\202\336G\276\235qM\276\312\233\333\275\220\006\202>3\002g\274\230\320|\275\033WM>\034\305\214\276\225H\346=\256U\007\276\201\375\267>\215\024\337>\252\375\024\275\257p\330><\025\310>\366E\300\275\306\0306\276M\364\306>\027\375}>\\\307\014>\277\316\024<\370\307\327\275\302\021D\276v\031\225\273g\356)\275\276\234\277\276+\304\307<n\202y\276\305\357\203>\264\202\223\276\371%$\276/\375\204>$I\342=<\222\202\276\3015\241=5\3705\276\024_\001?\253t\324\275j\263N>\\\324\201\275Ns\336=\260\324\343>\002:\361\275;\022\007?\033\265\243\275O\037[\2751\032\240=L\013s\276,\017\020\2767i\017?p\335L=\377\267:\276Or\037\275d\215\215\274~/\343=\317\010\246=x\334.\276\306\335\251\276\250;Z>RA=\276H@\306>h\245\244\275\3634U\275\263\244\304>W\264\356>:\003\246\275[\314\004\273\300A\332=g\374\253>\231Q\262>/\337\270>\305P\256\276\346-\375=\375Iu>\027p\000>v\0372=\241\317U\275\326p\026\275\364\265\243\276i\222P>YX{>\2625O\276\325k\001\276\366\323\325\275\355Q<>\004I\251>\236\032%\276\221(T\276\37165;X>t>\327l =\335\260\246\276J\300Z\276\353\256\273\2754\305\021\275\304V\271\275p\350\315==|\310\276B\207\007=,u\307=\350\271\213\274\034\024\352\273\031m\324\276+\201\025\276\373t=\276\267<\270\275\214\256R=\t\'\010>\032A)\276\264\201\244\276u\234\014=)\337\204\27603\254\276\322\306N>\0101w\275\252\037\370=\363PL=\326-A\275\216\304\255\276\326\036\355\274\335\220*\276\335\301\037\276ov\003>\342\335\361\275)\265\t>\211\344m\275\010%\340\276\366\033\346>\027\366\203>\360\374h\2767\305\262\276\351VN>\264\300\265>\267\332\373;)\344\233>j=U>!\235\246>d7\234>\237\347\345>\205g\216>\201/\363\275E\376\177=\"\350\265>#TE\276\0075\227\276\267\334b>\024\215\006?\355\321\210\276]\353\030\276[f\372\273\362\375\307;\274M\226>\217\250\211=\212\370k>5_~=v\364\247\276I=?\276\334\227\231=\'^\214;R\224\331=!\016\241<R\255\303\272\220\2033\276x\255\212\275p\262\002>\275\014\201>\205\352\251\271~x\033\276\314i\331=O\265f>\031}G\276Xu6\276\273w*=*\213\017\275L\242\217\276\223/\211<)\'\213>\273\204\t>\364\325\000>\273\232\264\276\351\334\230\276D\335\232>\024\001\250\274\222hF\276\331\002->4\202\365=\253\027d\276\234\252\023\276+\343\204=j\260\362=ka\t=\206\207M>\305\360\273\275#-d\276m2\267\276\213\235\346=\341\221\263>\347\222M\276\217\2338>\005\021\231\276\355l\024>\230;\330>\256\026\r>\257\325\031>I\340\t\274\273\321\224>\007\365z=)\314b\276\212\372c\276\01706>\202\003\272\2755\324`\276P\235m\276\242\250\222\276\300h\002\276G\366\244>\251W\342\275\204\213d\2757`\261\275\225~\230\274\266w\302\274hF\033\276>\316\033\275A\364\370\275\001@\215\276=,?\2750\377u\275\021|.\276\027qw\274!\376\214\2759\315\254\275\247\300\202\276\362\364\223\274\231+\333\275&\240\311=_D\277\273\336\333\263=v\245\'>\027I#\276\236\257A>\000]\177\275\034n\005\276\021i\241\276\241eB\274\347\350\365=]\255/>\004p\210=\337\037\241\275\316n\212>\005\245Q>\305u%\276@v\003\276\343\203 =\370\2050;\356h\261\276\227\'\222=\241K\316<\261\004w\276\264$\220\276\2149K=\005\232\213=\271\020\205>\001\010\216\274\337\246\201>\222\353\016\275\216IH>\313\316\213\276;\0143\276i\341\337=\210\257\211=\3648\237\276\007m\226=\3732\324:\034j\344\275B\230\006=\270v\241\276\217\374]>\267d\001\276`\342=\273\377\263C\276Y\341<;\316\235\312;m|\242\275\215\250\361\275jm\215>\177\0137=\226\334\022\276\033D\240>\261P\303=\030\333\257\275\370\334\255\276g<H\276<\034\270>/C3\276j\017\322\274j\233/>6\313\203=\331\361\312>Zm\263>5\300\021\275\027\014\332\2756\nl>\2479}\272JIa\276\267t`>\304\'\226>SF\262>\377\375\002\275\361F\222=\036x\206\274\245\3049>\026\226p>\327\0009<\014\246\267\276\312\001\220>\276\271\313>\274\224\242\275_\032\r\276M\022\360> k\234\276\374\235\013>u\350\315>\242,\033?o\2213>q,\300\2751\360\277=\267\362A\275\372b\331\275u\350\303\276\227\360a>\276\3017\2765\177\224\276\277\212,>\003\327.>\271\214\237\276I:\027>\246\275|\275\021\224\334\275\336I\005\276\331\377\327\275\346oN>\235$t\276ku\255=P\\{\275\257\363\001>C\270\333=H\375*>\327\233\005>\255+\224\276\001\026i<\323U\215<\264_\253\275\331\324\004\275\211\022`>\240\356\303=\216\024\233\276\377\271\246<\207S\232\276\177\2666\276=)z\276\023\004\344\276\"1\030\276p\372\277\275\226\317\211=\237[\203\276\335q\266\276\213\263\223\276\333\226\206\276\000\213\007\276G\013<>\230\240V\276J\263\327\275z5;\276R\003\001\276V\235\314\275\373\363\310=\004/\221\276Y\241\221\276:\207\365\275*\\y\275\030\034\325\275\200-c\276w\343\240>\340\234\212\276\016\220?>\247\311\214>p\\\254=\203r\306=a\361\306\272GK\217\275\272\364\245\275Y\371\307= \245\273\274{\247S\275\014q\227\276<\023\016\276\"\326\005>\352n?\275\354\360\310\276\360\256>>*\037.>pH\016\275\026a\242=\307\213\223=\227cv=~\320\225\276\032$O\274\005\237\002\276\201\236\222=\352\320\241\274"
      }
    }
  }
}
node {
  name: "FCN/dense_1/MatMul/ReadVariableOp"
  op: "Identity"
  input: "FCN/dense_1/MatMul/ReadVariableOp/resource"
  attr {
    key: "T"
    value {
      type: DT_FLOAT
    }
  }
}
node {
  name: "FCN/dense_1/MatMul"
  op: "MatMul"
  input: "FCN/dropout_1/Identity"
  input: "FCN/dense_1/MatMul/ReadVariableOp"
  attr {
    key: "T"
    value {
      type: DT_FLOAT
    }
  }
  attr {
    key: "transpose_a"
    value {
      b: false
    }
  }
  attr {
    key: "transpose_b"
    value {
      b: false
    }
  }
}
node {
  name: "FCN/dense_1/BiasAdd/ReadVariableOp/resource"
  op: "Const"
  attr {
    key: "dtype"
    value {
      type: DT_FLOAT
    }
  }
  attr {
    key: "value"
    value {
      tensor {
        dtype: DT_FLOAT
        tensor_shape {
          dim {
            size: 16
          }
        }
        tensor_content: "\2707-\271x\250\n?\317\303\204>?RF:\306\\\177=\360\000\010? \0139>\327\010\032?\263L\352;BV\232\276\020\037\024=\247\025;>\243\225\200=\327 x=awF>\232\374\372="
      }
    }
  }
}
node {
  name: "FCN/dense_1/BiasAdd/ReadVariableOp"
  op: "Identity"
  input: "FCN/dense_1/BiasAdd/ReadVariableOp/resource"
  attr {
    key: "T"
    value {
      type: DT_FLOAT
    }
  }
}
node {
  name: "FCN/dense_1/BiasAdd"
  op: "BiasAdd"
  input: "FCN/dense_1/MatMul"
  input: "FCN/dense_1/BiasAdd/ReadVariableOp"
  attr {
    key: "T"
    value {
      type: DT_FLOAT
    }
  }
  attr {
    key: "data_format"
    value {
      s: "NHWC"
    }
  }
}
node {
  name: "FCN/dense_1/Relu"
  op: "Relu"
  input: "FCN/dense_1/BiasAdd"
  attr {
    key: "T"
    value {
      type: DT_FLOAT
    }
  }
}
node {
  name: "FCN/dropout_2/Identity"
  op: "Identity"
  input: "FCN/dense_1/Relu"
  attr {
    key: "T"
    value {
      type: DT_FLOAT
    }
  }
}
node {
  name: "FCN/dense_2/MatMul/ReadVariableOp/resource"
  op: "Const"
  attr {
    key: "dtype"
    value {
      type: DT_FLOAT
    }
  }
  attr {
    key: "value"
    value {
      tensor {
        dtype: DT_FLOAT
        tensor_shape {
          dim {
            size: 16
          }
          dim {
            size: 8
          }
        }
        tensor_content: "\252}\372=\372n.>^\005\204>\014|_\276\242a\335>\354\321*>V\330\236>\317\321\253\2758\326\'\277t}$=\327\240R=\362\311\246\276P\225\330=\362\353\034\277\031\247\n=\212\256|\276\230_\360<8\377\313\276\364;I\276$\371\032>\024\333A\275-\275A\276\370\344\356\276<Z\274>\005\014\214=|\2508>\251q\003\275AR\207>\213-\325\275\037Q\240;N\024\247>k\376\247\276&\020\366\276r\216M>?\003\304>L\\:\276f\336t>T\204Z\276G\0370>\303i\371\276\314\267\251\275\307\325V\276\322\345\206\275\027\267\223\276+\331\275\275\210\315D?\336\333\272\276\333\371\265\274\3703\346=\244\\\177\275t@+\276*\370\344>\256U\335\276\304\227]\276\363ic\276o\306\003=\207 \031\277\331\320\230<\225\3316=\023\363\275\276\347\230\334<\323\267\016\277[\tL=x\037\026\277\367\202\370\275\001L\311>\301p\352>+o\231\275l\262\340>\323\202\340\276Y.\014>\003o\247\2760G\361\276\376\221\356=3c\262\276\302:g>\347\334\350\276%5\347\276\0160\375\276t\200@\276\243V\033\272\022%\005\277\322\204\223\276\275\242\205>\256\260\245\276\205e/\276\316}\007\277\212wh>\337\021E>\345\346\002\277x\3542>\017\342\276>\026\334\331\276\204S\354\275\256\265!\275\277\372x\275#\014\245>_\2765\276J\327\335\276\250w\221>\367\346\210\275\te\213>\304\307\345=\340\232\232>\327\t\204\276\375\221\306=q\273\014>vh\260\276l\236\371=\020\227I\276\341M\003=\032P\206\275\366\323u>(`Z\276j\252l\276X\034\240>\010[\327\276\025\t}\276\006\253\033\277\312U^\275,\357R=/x\312\276\350\355N\276\322\022\214>;\263\215\276\227\0018\276\033e\334\276D*\031>"
      }
    }
  }
}
node {
  name: "FCN/dense_2/MatMul/ReadVariableOp"
  op: "Identity"
  input: "FCN/dense_2/MatMul/ReadVariableOp/resource"
  attr {
    key: "T"
    value {
      type: DT_FLOAT
    }
  }
}
node {
  name: "FCN/dense_2/MatMul"
  op: "MatMul"
  input: "FCN/dropout_2/Identity"
  input: "FCN/dense_2/MatMul/ReadVariableOp"
  attr {
    key: "T"
    value {
      type: DT_FLOAT
    }
  }
  attr {
    key: "transpose_a"
    value {
      b: false
    }
  }
  attr {
    key: "transpose_b"
    value {
      b: false
    }
  }
}
node {
  name: "FCN/dense_2/BiasAdd/ReadVariableOp/resource"
  op: "Const"
  attr {
    key: "dtype"
    value {
      type: DT_FLOAT
    }
  }
  attr {
    key: "value"
    value {
      tensor {
        dtype: DT_FLOAT
        tensor_shape {
          dim {
            size: 8
          }
        }
        tensor_content: "\245`\267>\353\334;?\322\320H?O\274\302>F\006S?\rG!=\244a\034?\031-\330>"
      }
    }
  }
}
node {
  name: "FCN/dense_2/BiasAdd/ReadVariableOp"
  op: "Identity"
  input: "FCN/dense_2/BiasAdd/ReadVariableOp/resource"
  attr {
    key: "T"
    value {
      type: DT_FLOAT
    }
  }
}
node {
  name: "FCN/dense_2/BiasAdd"
  op: "BiasAdd"
  input: "FCN/dense_2/MatMul"
  input: "FCN/dense_2/BiasAdd/ReadVariableOp"
  attr {
    key: "T"
    value {
      type: DT_FLOAT
    }
  }
  attr {
    key: "data_format"
    value {
      s: "NHWC"
    }
  }
}
node {
  name: "FCN/dense_2/Relu"
  op: "Relu"
  input: "FCN/dense_2/BiasAdd"
  attr {
    key: "T"
    value {
      type: DT_FLOAT
    }
  }
}
node {
  name: "FCN/dropout_3/Identity"
  op: "Identity"
  input: "FCN/dense_2/Relu"
  attr {
    key: "T"
    value {
      type: DT_FLOAT
    }
  }
}
node {
  name: "FCN/output/MatMul/ReadVariableOp/resource"
  op: "Const"
  attr {
    key: "dtype"
    value {
      type: DT_FLOAT
    }
  }
  attr {
    key: "value"
    value {
      tensor {
        dtype: DT_FLOAT
        tensor_shape {
          dim {
            size: 8
          }
          dim {
            size: 2
          }
        }
        tensor_content: "wt+?\034\307k\276\336\337\221\276\263\270\\?\272a0\277\326\273?>\252\326\350\276b\016B\277\315\242\343\276a\024\317>0Qw?\310V\260\274\215\344\205\277\1772\215>!\000i>K\312\r\276"
      }
    }
  }
}
node {
  name: "FCN/output/MatMul/ReadVariableOp"
  op: "Identity"
  input: "FCN/output/MatMul/ReadVariableOp/resource"
  attr {
    key: "T"
    value {
      type: DT_FLOAT
    }
  }
}
node {
  name: "FCN/output/MatMul"
  op: "MatMul"
  input: "FCN/dropout_3/Identity"
  input: "FCN/output/MatMul/ReadVariableOp"
  attr {
    key: "T"
    value {
      type: DT_FLOAT
    }
  }
  attr {
    key: "transpose_a"
    value {
      b: false
    }
  }
  attr {
    key: "transpose_b"
    value {
      b: false
    }
  }
}
node {
  name: "FCN/output/BiasAdd/ReadVariableOp/resource"
  op: "Const"
  attr {
    key: "dtype"
    value {
      type: DT_FLOAT
    }
  }
  attr {
    key: "value"
    value {
      tensor {
        dtype: DT_FLOAT
        tensor_shape {
          dim {
            size: 2
          }
        }
        tensor_content: "\301\225\027?\277\225\027\277"
      }
    }
  }
}
node {
  name: "FCN/output/BiasAdd/ReadVariableOp"
  op: "Identity"
  input: "FCN/output/BiasAdd/ReadVariableOp/resource"
  attr {
    key: "T"
    value {
      type: DT_FLOAT
    }
  }
}
node {
  name: "FCN/output/BiasAdd"
  op: "BiasAdd"
  input: "FCN/output/MatMul"
  input: "FCN/output/BiasAdd/ReadVariableOp"
  attr {
    key: "T"
    value {
      type: DT_FLOAT
    }
  }
  attr {
    key: "data_format"
    value {
      s: "NHWC"
    }
  }
}
node {
  name: "FCN/output/Softmax"
  op: "Softmax"
  input: "FCN/output/BiasAdd"
  attr {
    key: "T"
    value {
      type: DT_FLOAT
    }
  }
}
node {
  name: "Identity"
  op: "Identity"
  input: "FCN/output/Softmax"
  input: "^FCN/dense/BiasAdd/ReadVariableOp"
  input: "^FCN/dense/MatMul/ReadVariableOp"
  input: "^FCN/dense_1/BiasAdd/ReadVariableOp"
  input: "^FCN/dense_1/MatMul/ReadVariableOp"
  input: "^FCN/dense_2/BiasAdd/ReadVariableOp"
  input: "^FCN/dense_2/MatMul/ReadVariableOp"
  input: "^FCN/input/BiasAdd/ReadVariableOp"
  input: "^FCN/input/MatMul/ReadVariableOp"
  input: "^FCN/output/BiasAdd/ReadVariableOp"
  input: "^FCN/output/MatMul/ReadVariableOp"
  attr {
    key: "T"
    value {
      type: DT_FLOAT
    }
  }
}
versions {
  producer: 175
}
