node {
  name: "input_input"
  op: "Placeholder"
  attr {
    key: "dtype"
    value {
      type: DT_FLOAT
    }
  }
  attr {
    key: "shape"
    value {
      shape {
        dim {
          size: -1
        }
        dim {
          size: 17
        }
      }
    }
  }
}
node {
  name: "FCN/input/MatMul/ReadVariableOp/resource"
  op: "Const"
  attr {
    key: "dtype"
    value {
      type: DT_FLOAT
    }
  }
  attr {
    key: "value"
    value {
      tensor {
        dtype: DT_FLOAT
        tensor_shape {
          dim {
            size: 17
          }
          dim {
            size: 64
          }
        }
        tensor_content: "\203\320\211\275}\355\273=J\215\211\276Le\260\275\177\272)\276Z\224\256\276\301\030`\2761\264\025=\221j\031\274\274W\342\275{\3133;\250m >6\203\267\275a\360}\275#\312\275\275]:\220\276\277\215\224>\220U0\276bO\360\276\tn\221\2764\3150\275\356\266X=\222\247(>cyx=\033\026\007\276X\333\017=\361)\204\274E\"\317;w\331\177\275\227\361\306=H\267?\276\210\301\\\275\232^\"\276\312w\230\2766w\001\277\350\216\341<\263\016\006>\245\"F>k\211\252<-V\215<t\310\203\275\362\213*\274\254\t\250\275\3159!\276\323\303\250=\'\003\031=\334\317\203>%\024\315=\224-\027>}\227&>C\227\'=~.\027>Nn\366=k\316\306\276e\227F>\2436\350=\2502\272\275V\267|\276*{\002>\277\253+\276\374\262\'>\333\237#>\037\304\026\275\027\177\346\276\246\275\201>HV\273\276d\333\250>\303\237/\275\314\250\303=/\257\347>\304cz\276\261\216T:\266\367\255<\300\266\325\275\352\224\205=\267\305\202>\200-\220;\360V\275>P\031?>\n\307\216==\365\225\276\370&\337\275c\024\237=,\007\372\275\")\032>\\\265@\276\342\346\243\276\262\322\353<\207\205\024>*u&\2767>z>\351\346\032\276\342 \033\276:\035\205=dz\364=/I\207\2760R\232\274\301\255*\276 \342\204\275\365\236\206\274P2\020>\204<\006\277]:\353\271\000\215\021=\212\223\037\274\242\277T\275\002\312\342\275\006\226\377\275\224$u>g\342\345>\326=\224\275\376e\004\275\254S\203<\263\003\343\275C\010c=\250g\257\275jg\366\2735d\271\275\373e\251=I\341\033\2767\036$>\2658\214\2764-\324:\247\310\000\276g*w\276j\263^\276h\033c<:\225}\276\245\013\324\275\033\325\303<\357\223\354<u\016\236>\316\260\217\275\037l\204=\370\260+=\222\327\034\277\275\206\230\276\220x\312\274\\\n\265>X\024\240>\220\377\247\275\201\365\014>4?\010>g1\276\275\377y\\\275U\223\001\276\316\275\236\275\330\260\230>\342\255\203>\347\335\372=dF\356=\203qU\276\332\250\224\276(\210\257=\022\220==\331D\002>Y\313\376\275\217 \316\276\246\233\240\275\247\275\022\275\314\245J\276\374\310\313==Y\207\276\364\307\027\2779p\'\276\330\375\210>\305\\M?\222{\251\276:\363\345\276\010\205,=\343u\022?|5\037>8\267\345\276\022d}>\252\205\221=O\003\352=\345\307g?\276\314&=\376\267q=\315Z\371<\256\r\206\277\ne\271<\3536\207\276z\241\231>\233\330B>y$?<\333\0338=\022\360\232>+\355\233\275\344O\205?w\270\t\276{\333\304\275\333B:\275\313M\247\276\337?A>\221\236v=\030\327G\276\365dC>f,\202>^s\372\277p[\017=\332D\254\275i\316Z>nhU=\000\336B\273\351\203y>\222\351:>\266\346\311\276\014\317\240\275\0041j>\220z^>\213\375<>TQ\002\276\017\241\n\276h\235\371>s-X>c\000\000<P\001\350\274[\'a=tS\224\276\215\035\243\275\271\324\017\277LV\305=\211 \263\276\210\205\311\274v\004\205\276#\t\031>\313#\261\277\205\245%>f\216L=3\204s?\317\r\006\277\277\236;\276\00277=\032jW?1\361`\276\355\202\305>\226%\006\276<\326\020?\313\342i\276}\210\253?\357\3026\275\003|\"\276\314\027~\276<{\336\276> \324=\256\352t>\371\377\256\275\255-\374>]\337C=\254\033\365\276\234<\025>\014\311\310>\007J\217>;\027Y\276\364\250\266<\352\340T\276w+\373=_\0165>\253\367J>D\214\000\276\221\345;=z\t-\276Y\374\366\273\273l\000\275\224k\037\276\216\246:=@\351\270\276`\320c\275\343\316\345\275p\303\201\276\310\252\202>\207\223\304\274\000\235\325\274\034\245\247\276S\320I>y\373,\276=\032\212\274\374\332\243=\234\2643\276\225}\373\275\334\315\025\276\243\313~\275\267S\014>\226\001\352=Vn1\275F\354\350\2755Gk<\322=\007\276\204\027\366=\226\013\203\276+/\247=Pk5\276\206$\216\275\327\021\260=\227y\241\275^\316F>\317(?\276\027\222Z>X\272\221\275zB\317\274\013\274\207\2765*V;J\036\023=\007G\314\274\370P4\276\026K\206\276\005\303m\276\225$\242\275\250\250;>,\220-\2738F\t=\334b\273=\023\247\270=\364Y\246=\375\022\351=\266y\211\2747:\350\274\204\260Q\276\336\347!\277\254\272P\276\360\223\327>\215\265\240>:\220O=\356\366\250\275\367\355B>B{6>?Z\322?\013\276\"?P,\203<\034(O\276\2060\332=HC\253\275%\261\255>}\031\265\275\025\333\300>\340\314\210<`#d\276\032|\311\275&z\021>\200\2643\276$\255\226\275&\311b\276\346\234I>i\013\225>*\021\260\275\310\243\214\276B\375a>}\312\306\275U\033U?\267\345\010>mii\276\300\302\014>\007\221\336\275\225\254\177=\325\245\274?=h\207\276\304\246\212>5X\243\276dQv?\267\177\001>\021\320\033>1\322\025\277h\275\370=\313\330\203\275\353\033\017<\343\301K\277\351\335F\276cV7\277\r\354\201\273?wm\276\001\364F\276\3550\034>.\224\325=s?B>\207\030 >B\010\333\2769\341\200\274(\241\227=\035S\320\275*d3\277&\330\227\275\240\034\300=\030F@=\202\013\323\275\310J\347\276\r\315\337\276\007\020\252=\234h\304=\224\177\215\274HRy\275\263c*\300\223%\036=J\364\215\275\332\334\211\276\374\314v\276\232\003\342\275#\303\313=\224m\010\276M\264\305\276\302\303k\276<\311r>\345\356\365;j2\347\275Y\255K\276ic>>5\370m\275\0338\031=I\314,\276\306Fd\276{\036\307=^\305\236=\332\024\272;\334A\347\277+\241\241=\331\203@\2756\240R\276\023\271\273\276\2459\275=-6\334\277\000TT>\241\036|\273\0361j?\010\354\250\277\314\302\257\275\301\227\212>\242\263m?\210\370\021\275\321s\214>b~\006>\367\362\203?\304(\337\276\350E\365?}\206\213\275T@\302=\227Y\322\275A\310\013\277\n\351\216>$\207S>\262\317N>\362\303L>u\323\034>\222\305h\276\222k\241>\244\303\204?\356>\304?\275p\251\275ilz>\034\234u>=\330\000\276\203J\234={x\030\275\017+%\276\013\260Q><\3605\275\016\335\244?\212\250\000<\240\001\177\275\275\327\242\276\361P<\276\224L\t>\\\366\321\275I\260A\276\331Z\212=T\021\217\274\250\256\317=\022\036a>A\307K=_\027\326\275\300fz=\316\3221>|\330\005>\362M\004\275\356\332\034\276\017\2168=\363\376\261\275\035\007\265<\370\222^?\261C\207\276\363\010\305=>\337\304\275\362A\001\276\023\215\266=\341\336(?p\336\023>~\344\215\273\224\255\016\277\317\231R>\315\034\033=\362C\226\275/\221\272\276\330\252(=\004`\222\276\222PH>\260\242\375\276\020\027\223\275\363U\000\277\000<$\276\2120e\275.\202Q\276s1$>\341,\014\275\036\245\270=\3176\245=X\301\266\276\212DS=n\030v>\035.\311\275\235R\014\277\320\316y\2761\327I\276\000\264\343\274Pr\242\275\227?\027\275xZ(>\313>\222>\340\010\326\275\224\233o>\272\206O>\013\204P>\223&B>\310\"*=h\362\265\276\177\254[\275\032\206\177\276Y\227\362\275,\003U={\357Z\276\010Y\365=\000\310\241<\314\331\\\276y\365\240>\340\307\241\275\275\031N\276\331\257~>L\025H>\300/\207>V\364M\276(z-=)\203\240\2769\3246\276-\354\032=\345\027q\276O\335:\276\0343\257\275\363\226>=\355\333\014>!<\301\276\204\213\025>V\276\204\276o}\267\275Aaj<EK\023\276\n\262\204>\033\254\003\275\261\371q\276\240vV<\3651\022\276m\020\376\275#\253\222=\021\013$>\301^\326==\266\'=\360?`>\024\237(>\306Gt>x\373\225=ec<>PSB\276r\036o=gT\275\276E|\260\275>o\215\274\257\345\n\277z\243\037\276Q\204(>\242\240\205\276t;Z\272\235@{;\3513\004\2768\223\024\276+\237\202;\025,L\276\205V\260<G\366P:\310\261\031\276\325\336\214<\rD\301<L\212\"\275\201\\><1c\262=]\326\361\274b\263\210\276\376r\357\275<<\310=\222U\350<rH\004<\320\034Z\276\241L\020\276oGW\276\374\013\267=\316fp\276\234\354l\274\242\014\354\275\354\375\242\276\330\213\245\273\327\300\322;\213\005+=G8\200\276`N\226=\364\370\013>m%\332\274z\314a\276>3A=\357>\003\275\324.\201=\334F\347\275^\364\177\275\332\3566\272\260\035\204\276y\313\'\276\361\"\376\275}\374;\275\010\3221\275\371\316B=\005\276(\276\033{\027\273\330y\364\275\031\023\256<\024\004\317;2\231w\276\351LR\2758g;\275\260I\"\275Y#)\276\357\353\324\274\244\363;=\241Q\005<D\350d=\371\330\">\370\325h>\367\304\232=yJ_>\265\310S\276\036\326s\276\250&\273\275\032\202\n\276Q9#?\274o\351>\330\300\273\275\256\370\246\276i\264V>\342\264\002\276R\301\201\275\373\234\251>\3777\031\276\256(\350\273\020\226\010>,b\005>\227\026c>\326\202\323=L\251\322=\324\305\244<u\343\221=\367k\002>\314\336\224\275\262\206u\273\354g\r>\321\032\362=\270\202Y;U\344\010\273\350\315\224\275\206j\031\2762B\344\2755\304\323=\336\177\230>\235>\025\275M\r\357=\\\3674\276\026\244\214>\3270C>\211\225\201\276\024\264\252=\024\260\231\275\202\027\256=\266%\037\276\206\321\275\276\262X\016\276C\371\243\276\243\374\230=\207\261\031>\337+\251=\277\372\231\275\364\336%>\223\264}\276m\352/=\r\263k\276B\231<\275\237\032\347\275\265\024w>zF\243\276\250\343\265>*W\030\276S\2015=\256$\207\276\256\302\007\276akC\276^\036\037=\2603\313\274\334=\314\273\240\2738\275v\256\266\277\036\260\321\274\220i\325\274\262\207\237>\217\317k\276\210\361\307=|\276\000>\365\213\207\276\311\373\270\276\204\257y>\230\026\351=\345\320\201\276\034>t\276\035\312\211\276\227\002}\274\005?\262>`\211\005\276\323Y\304<\242^\201>\206\240\321<\374*u\276\240\007\202\276\300\rM\277>\272F\276\200\350\352=\330\366J=X\344\205\276\251\027\307\275\206\317v\277\224{\212>\365n\230\276?0=?\037\262T\277\232Y\253\276\374\323V\276\234S\277>\034\037\213=\252\324\304\275|\'0>\035\274\026?\301h\253\273{\302^?u\306\266\275\001\223\016\275\367=\004=\020Cm\275\265\350\\\276\202q\346=\240^:\276\343\332\366>*l+\276\223\350\035>\344\226W>\'(\210>c=\000>G\302N\276\250\350\367\274;\300\001\276eY\217\275\266\t\244\276R\221>\276{\375\206\276\264\343w\276\020\257\372=\004\343C\277\367\250a\275D\2638\276\330\021\212>g.\354\275\314F\224=\345\273\020\276\356\330\241\276\326\030\021>r\364\016>\370\236\202\275\2543\343<2\316\202\275V\350]=\311a\024=\262\370G>E\344a>\325>G\2768L\002>:yb\276V\005\376<\345\"5\276d/\017\277\303W\237=\372\036\215\276$\223Z>r\351+\276\005\356^>\317\324G\276\374\003\340\274\267ff\276\235\324\210>\367>\344\276\217\202n\276\374\033\265=\337g$>\212\245\005>\240$\241\274\005\336G=\247\374\362>\021\306\006\276\326\265\372>)\021k\276M\221a\276\246-\n\276\302\331\257\276M\370`>\234u\213\276\310#]>\215IJ>9k,\276\303i\214>\336\206\004>>&\240>F \003>\301\325\317=\305\347?\276\'\003\273=\354\"\n\276\367\377g=<\345\244\276\206\227\342\2751+\032=8I\">\035:\275?\345\'}?\276\2568>\375\344\000\277 \037f\276\370G\017\2763\361\t?b\031\212>\236\261\017?g\253\001> hy>\362\201\213=\003\315\272>\315\236\207>\004\343\200\276$\315\204<\002\270\005>\031\210\"=t\260\024\275\334kl\274G$\253>\032\206d>\036\311e?\213\000\236<K\034\026=\304\242V>\260Xp>\302\231c\273s*/?\3174z>\003B.>\3171\357\276e&<?\000_\317\273\267cI\276\354\360K\277\233]\000\276w\272\270>\213}\204\275=L\275\276\275N\224\276Q\302L\277\204[6>x\244=>\000\352!>\205\037\230=A\3213\2769\253\246\276\221\r\251>\235\325\247\276\020\224w;\321\252D>\235\020/\275\004\215~\277Q\034w>\010\240\212=\356\237\244\276?\267\201\275\037\216B\276\223j\233\2767\237I\276\350\307\211\276n{,\275\300\002\323\273\376\337\222\275Y\263p=\216\250Y>~x\333\275\344\033\026\275\324\347\212=\\\300\227\276\322\305!\276\231\301\301\276\006\327\200>\252tg>\250\2651>\310\263\024\276\202\034\373\275)\021\035\275\200m\250\275\262\026\266=+\322f\276\274\257\245=\236\271\033>\304\3633\27691\317\274w\335\317\276\3778\373\275\016\262{\273\304\\p>\270!==\366>]>vBZ>\357\207F>\273H\341=\237\232\316;W\310\\>r\260\316=\204B\020\276\360\326\204=N\240\033\276\262\2465<\032c\200>\313z\307=,\324Z\275\007\230\262\274\306\321D>\314\242w\275\276Dc\275,\244\277\2767KP\276\017\361\220>w7\025\276\377n\033\276\231]\200>\267\3126\276\350M\355=L\224\231>\035\331\364>|%\323\275\236\311{\276\337\3505>\256X\351\275_\224\021=B>\001\275\366\231\274\275\020\007-\276\260\350e\275\020w\037\277\245\267\230\276\350\3623\276\211E\351=\034\027\007>\372\337]>}\023\366\275\267\222;\275/\243\356=\302\224\202\275`\232\234\274\320\207\177>\267\332\320=I\342\200\275\370*\240=\214mc>\340\256b>\024\217I\276\300\241\022>*\227\023\276=1\270\275\333\254+>\276eJ\276-\016\376=\367\001\204>Vs\007>\t\313f\276\222w\267\275\365~\274\276\226W\013\276s\355q\276F\303\264>A\242[\276\217\0252\275\305\323%\276\203\346\254\275\200%\375=\327\3342\276\375;->\254@\037\276\331\033\215\274N\007n>\305PA>\332d8\275\340\340a\276\007L\\\276d\304+>\211\377\013\276\207Lw\275\315\231\254=\014uG\276\020\r\037=F\261m\276I\332\232>\374\334\234>SZ\375=\223\221)>[\3515\276\354\035,=\302C3>\346C=>\370\356\031=l\034\310\275\270\250\320\274\305>\006?l\024r>`\205a\274\313\305#\277\367\374{\276\"\265\330\275\313B\225>X\313\364\275A?4\276\365LB\276x#x>\224\350\203>\357=\021\276K\027d\276\326\360G>\275\377\232>\2749\206\276\226]\271>\200\327S\276.\252\257>\211i\203>d+c\276|-0?Z\260\347\275\033\375b\275b\333\206\275~\263><\01459>\277V\371>\362\215y\276\211A\307;P\346_\276\214\330\244>E\344\211>\231\221g\276\200\037]\275\250\312*=#J\210>\256\305\237=h\017\034\276\312\351?=\355]B\275\2266\307=e\226\276=\315\274d\275\272\017\250>\373\225\010\276\250%\023>\345\2323>\221\016j\276y\223\210\2768\371\023\276\365\375\274>\330\025\200\276\253\320\304\275\033\362\003\276d\264\372="
      }
    }
  }
}
node {
  name: "FCN/input/MatMul/ReadVariableOp"
  op: "Identity"
  input: "FCN/input/MatMul/ReadVariableOp/resource"
  attr {
    key: "T"
    value {
      type: DT_FLOAT
    }
  }
}
node {
  name: "FCN/input/MatMul"
  op: "MatMul"
  input: "input_input"
  input: "FCN/input/MatMul/ReadVariableOp"
  attr {
    key: "T"
    value {
      type: DT_FLOAT
    }
  }
  attr {
    key: "transpose_a"
    value {
      b: false
    }
  }
  attr {
    key: "transpose_b"
    value {
      b: false
    }
  }
}
node {
  name: "FCN/input/BiasAdd/ReadVariableOp/resource"
  op: "Const"
  attr {
    key: "dtype"
    value {
      type: DT_FLOAT
    }
  }
  attr {
    key: "value"
    value {
      tensor {
        dtype: DT_FLOAT
        tensor_shape {
          dim {
            size: 64
          }
        }
        tensor_content: "<\337>\270\037\264\250\274\033\021&\276\375\272\233\275\000\000\000\000\235Cq=\000\000\000\000J.7?1$+?\000\000\000\000\257\t\007\277\0319\017\273\000\000\000\000\267\241N>\220K\206=\033t\300=\335\263\001=\000\000\000\000\227\202V\273\270\304\361=\371}\261\272\354\357D\270\236\376+=x\362\3679\316\242C>\000\000\000\000\"\002\360;\021\226\020=^\214\334<\r]\360>^\177\221\274m\033\n\276\000\000\000\000\3522\356\275\352(\356<\225\265\345>\235,3</\305S<\256\013K\275\240\234\306>\324\312\321=R\017\2619\010\367c\276\000\000\000\000\225P\265=\263\252\275;\254\335\332\275m\276c\276\346\313g\276\033\026\324:\357v\234\274\222\025\t;\207\304\265\276V\202\205=\263p\241\274z \332;\021g\242\276E\306\022;\263}\245<\3519\007>\020I\377\276\n\311\260>\034\333\340\275z\217\225\275"
      }
    }
  }
}
node {
  name: "FCN/input/BiasAdd/ReadVariableOp"
  op: "Identity"
  input: "FCN/input/BiasAdd/ReadVariableOp/resource"
  attr {
    key: "T"
    value {
      type: DT_FLOAT
    }
  }
}
node {
  name: "FCN/input/BiasAdd"
  op: "BiasAdd"
  input: "FCN/input/MatMul"
  input: "FCN/input/BiasAdd/ReadVariableOp"
  attr {
    key: "T"
    value {
      type: DT_FLOAT
    }
  }
  attr {
    key: "data_format"
    value {
      s: "NHWC"
    }
  }
}
node {
  name: "FCN/input/Relu"
  op: "Relu"
  input: "FCN/input/BiasAdd"
  attr {
    key: "T"
    value {
      type: DT_FLOAT
    }
  }
}
node {
  name: "FCN/dense/MatMul/ReadVariableOp/resource"
  op: "Const"
  attr {
    key: "dtype"
    value {
      type: DT_FLOAT
    }
  }
  attr {
    key: "value"
    value {
      tensor {
        dtype: DT_FLOAT
        tensor_shape {
          dim {
            size: 64
          }
          dim {
            size: 32
          }
        }
        tensor_content: "\315\004u\275\230P9\2762\265%=\2738F>\004\\\035>\330\027\220=n\377W>t\221\311=\000 J>\342\372\307=\210\234Q>\327\033\220=\250\334\341=\230\303w>UwN\276$\376X\276\200G\267\274P\272\252\274e!\205\275\206\033\342\2750?\245=\323*&\2768\227&\276\177\253s;\301S\334=\200jU>\267\371I\276\234)m>\253#8>x\3578>\240\340\020\276\333\233\';\'\272\377=9\225\270\274[`\367\275\271\227\374=r$P\275\351\230\026>\237\2654>_&\347=\r]k\276\177\263\342=\356O\317\275\333\271l>\225\215A>\376r\305\275\337\215\213=\225j\242=\356\205v>\210\036j\276E\245\244\273\220\357\332\275\033\346W\276\0238\252\275\020\233\217\275\272\241\276\275\224\330W\276t\200\025\276\346!\210<j\316A>\014V\203\274c\024\005\2769S\351<\037\334\324\275\002\252\233\276\002\365\244=!\364:>\245\257K>NM\220>R\301\033\276\220<6>\221\242%\276M\030Q>\2618\346=\363\023\253\2745=^\2767\2760\276\377\336\007>\007\335\230=r*\354\275\037\320\225\275\246#{\276~1t>Z\t\260\275\017\3067>G\224\232=j\370\231\272,h\000>\232\225j\276\340\007\304\275\206\304}=\367\303x\273G\372\375=O\370\371=\343(\367\275k\335\341\2756\302E\276jxg=\30189>\207\340\371= 3^\276-\211\370\275\t\313\022\276\346\226C<%!\000=\216\013\r>}\"w>\247\370b>\264<\275\275CgA>\020)\n\276\333Sy\275U\211\274=\236\306,\276c\007\005>Tt4\275\200\316\333\273\206\234.>\262->\276\266\037\004>:\"x\276FY\032\274\320p=\276\t\257\332=\352\301\304<\014q\034\275\026\361\350=\036b\357\275 \325L\276p1\211=\264o\023\276 \220\247<\244\341E\276\220\312\350=\300;O<\320\037\023\276\360kJ>\360\266\300\275\000n\224\275`l\300\275\340\314\275=x\373j\276\000\212.\273\320\031\203\275\320\211\326\275\214\354z>\200F\217\274\340}V\275\304\337?\276H\353p>\370.]>0\243\022\275h\231\001\276\220\270\216=\230e\350\275\320\220y>\220kM=H\341\203=`\035\302<P\037z\276n\206\350\275\313\343\026>S\330=\276\006#\031\276LFn\276\252JT\276{\327o\274\201\355\354\274\346\305\316\273b\374M\276\2515\022=78V\275\023\332\007\276\225M\240=S\347\273=D_A=\263\304\364\274e\362\t>\374\307\242\275\301\001\022=$\301\231=\275\372\030;\236\347\243\275\331.\252=\203\305.>\206#\265\275rB|\275\2679\220=\016S|>D\350-\276E\257\335\275\265 \325\275D\3410>H\217t\276\264\252N>x^\004\276\\\204`>\354\246R\276\300\275\343=\000\n\274;P\352G=\300\214\223\275x\200\332=\264\304\'\276\240\254\302\2744\303^>0\013\261\275\270\232\016>\300f\334<\360\220\222\275\260\266\260\2758\037\225\275\030\014\370\275\370\007\200\275L\376^>\260\rm=\340 \357=H\263\265\275pta=\340\237\334\275PD>=P\277\227=\314\265[\276\004\357\021\276\033\210\005?\020\n\331;\035)\010\277\235\204\225>\346x.>\022\"\231\276\217R_\276\252m\252=u\257:\276\241\237\026?&cl=>] \274\256kT>\027\347j\276>\221:?\346f2?RL\\\277\242\007\254\27695\220>u\233\265\275\257\271H\276\030X:?M\267p\276\026%\265\276\305\301\236>\014\362\243\275\234,\025\277\302\357\206\275\205\037\013=\306\216}\276\214\034\207\276}\360\213\276\277\372\327\275\010\254\341<\325\211\341=+%\275\275\032\266\027\276hJ\266=~Pe>\356\t\326=\245\355*\276\314 D\276\357\351\264>\024$a\276=\202(>I2\023>T\322{\276\016z\\>\375\016S\275\243\237\022>OGu>W\0241\275\246\312\340<\r\372X>\253\317l\276e\222\225\275\351\355%\274*\346\304=\306\227\257\275\350\222\252=\316\345\244=\226\3536\275\r\216*\2768\370\320=\330\036>>\260_Z>@\311\\>0\n\375\2754\017w>\360M\362\275\240K\200=\200\240\360;\340!\\>\320\020\341\275@\351\017<\\Q4>\2008*\276\200R\027\275p\233%=t0]\276\200\177z\276\200Qh> O\241\274\014OB>\220\036\023\275tTL>`\330H\275\230\340\001>\2005\231\273\020\261\001\275xN\013\276\000\215f=P\0318=\300*\254\274\030\376\373=P*\232\275\273\022\032>\'-\216\276\016\365\344\275\022\006,>uw(\275\224\242w\276\020\357\345=\300\350\212\276\202\363d>q\2704>\210\263\202\276\212\3366\276.PT\276\273\0344\276[~]>(>&\276\352)o>bF\252\276-\027<\276n\370\031>\331\326s\276\351\3527\276!q\t\2761A\030\276*0$\276\317k\276\274\"\314\004>\005`\376<##\251\276c\2606\276=Y\272\275<(F=/1\006\276\022\016H\276\341+\355<I\211\023=\214\035&>\227\232\233<cr\361\275h\224L>\300bw=\377\001\021\267\277r\273\274F/D\275\364\214\233\275M~i>\2509g\276{\0200\276\345\034B\276\314J\247=\375\253\305<\351\t\221=\314\226T\276-k\272>\207\033h\274\306$K>;*\361\274\002\3443\276\314n6\275^<F>\331\231Z\276w\323\306\275u\221\206\276\006[n\275\200/0=Pg\207\2750\370\036=\000-\347=H!\307\275\340k\275\275p\361/\276lM >8\240\331=\260^<>\220\274\370=\300\223x\274@\n\272=\2204q>\234EN\276\350C~>\274\257(\276@\r7\274\22029\276\240\211\'\2768A\330\275<\311?\276\300$\245<\2008_>0\312,\276\220\340O=@Mm>\274\372\032\276\224\003{\276`B\272\275\200r\240;\300&\237\274L\017&\276\346\022\214\276\025L\225=\363nz\276\226\022\345\273S\342\215\276|\357\003>\362\320\255=\241+c\276E\274\001\276\267W\360=\\\336\031\276\253\317\212=c\306\204\274\216\355v\275\023\205J<-\035\242\275\217\375\216=\373\025G>\344\2119\276W0\236\275^\221b>\315/>\272.\025\010>B\264?>\'M\013=\241\261m=\316\003.>\322\001{\276\275\3209\276\362\202\006>\022D\357=\271\005^=So,>\014\020>\276+\316\273=/\354u:\355\0071\275\353\265 >\234)\033=\232G\263\275\242!\321\275\202ay\276\320C\005\276h\345\274\275\275\024\334=\376\350\205\274\025uS\276\277\207L\275\'\333J>u\325\315=\367AB<\377\363Q\273\270O<>\227\275\310\275\236+0>\3120\031>\233i\324=F\336\'\276\361,\206\276\277B:>\201\376\377\275\271|`<\217\267\307=6\365\330=`@9\276\\\\>\276!\210\266\275\317,\240<c\2527<8\022\020\274\000\"\013>\226\261\037=\021\300\024\276\235\315\017\276\202\243M\276\253\253G>\273\333\273\271\014\014\">\371\004z>\315\2207>\2253\016>\300\240\267<\257m8>\006#\221\275\255g\234=\33487>\230\215*>\n\347\026>\345\232Z\274\262\311>\275qD\262<r\3066=\322\236\t\2750\356\257=s\014\365<\212a\355\275*\232<>T)\035>\377U-\276\341\312\004=\350\264W\276\323\232\201=\301=\032\276^\035h\275\032C\002\274\337\310\035\276\331\367~=\306\322.\276\010\200 >\213J\t\276\315d!>\305\342c>\357\000:\274\342\201r\276\021\271\261=\341\021}>\357)\336=\353]a\276\345]n\275\325\364v\276\276V\240\276\346@I\2753U\013\276\242\234\245\276\2267\346\275ih\316\275\ru|>\3609\225\275\360\n\325=\220\212\n\276\250H\330=\234\304[\2760\032\332=\220/.\275\360[U\276`lo>\024\240#>\000#I\275\310\244>\276\214\220\031>XF\240=\220\342s>@\233\004\275D\347\005\276\320\274\345=\350f\360=D\311M\276\264Ut>\320\006z\276\200z\333\273\340\361\310\274xXO>\320\2341=\360\033\005>\010\354\202\275\300\245Y\274po\001><\2050\276\250\256:\276\331\263\276<\005/\225\275\3524a\276jt\360=0\220\230\275\251\314C\276D\244\036\276!4 <`\356\024=\312s\013\276\340&\241=\272\232h>\313\306&\274\240#B=\\@\026=\002\302\227\276\227\276\332\275wB\245;-\027^\274\312@\233<<P\230\275\234b\216\276\250I\235\275\250\253@\274\036\306\325\275x\275V>\225O\204=\031\354\006\276\214\276O<@\3107\276x\\\"\276\206\022\006>\007;(=\rc\246=\276iE\276\323\023\017\276\372\215\264=\017\315J=\n\000\234\275\004\030\257=\335\313\337\275\254\000\"\275\251\r\">\213\000\327\275c+\003>>\216\332\274\224\347\267\275\365\346\300=>\2040\275^!\204\276t\267)=z\274\014>q\204\202\275\367I\205<\356\276\007>\220\347n>\220\357\016>\333\216\343\274\037\260\213=\263\305\002\276\210\274\260<\260?M\2769&\022\276+\021e=\365\375 >\300\253\035>/\336\231\274\251Sj\274\026\256h>\341l\212\275hA\234=\303\rc>\300\000+<v\'q\276\225\203\251\274;y\215=\336\254+\2760\253\240<\332_\005\275\255x\212\275\360\343P\276\357\212<\276\317bK\276u6\326\275,\340)\276&d\241=\"5T\276GK7=\314&n\275\251\327\035\275\324G\035\276\266k\303\275p\242B\276H\337\031\276n\025:>d\224\014>;\363\237=\374\373?=E:\272=O\304\200\273\010\002\265=d\027\355=\034;u\2760\300E\275\340\325\327\275\254\302<\276^WT>\351\362S\2760\246\024>l\2658>\371$\310=\266S\230=m\350<>d\220T\276\357\016M=\340\017\323<\200\212$=\314\'\266\274\307\364$\276\036\320\'=\203\205\203\274\371\231\343\275\372\343\250\275\240\372\254\274)\313L\276\214\3724>\033\032~<\251jH\276\242\335\343\275\203\3370>&~\222<uH\377\275#\355\254=\034\010e<\213&H\276\356\2274\276T\007f\2744\355\310=\257J/\276\2343P\275\362\021\034\276u*\221;)-\323\275\354\244E>\256\021\261>9\214\335\275\266\204\013\276\254\353&\276\350\214\265=\255\225\225\273\315\335a>\303\320L=6\240\275=l\361B>c-\334=\266\262\273\273+`A=\331-M\276p\001;\275A\360%>=*\037>}j\206\275\001\251\263=\024\340\300=\310\252\304\275\t\003 \276\2617\005>aM\332\274d\323k\276\204\026N\276\221\304\335\275~P\377\274\333\371\227=WZg\276$\314\227\275\275\272\253=\370\024L\275\226y\006\274\324\372!\276\275\263a\275\273\232\003\276j\212\307\274\210\246\260\275\366T\020>\342\322\016\276\253\361)\276\313A<\276\305g\221<\234\016\236\275\340W\324\275\211\0006>\342\317\240\274\342V\234=\335\260\270\275]\345\317\2755\033\213=\352\373\277<\230\347\020\276\035?R=4\355V\273;\242\225\275+\317\344=\230\213\227>\236\253\357<u\210\214\275\210\231\026>\207\262\273=|r6>%2*>Y\340@>\344^W>\320m\r>F\023\204=\343\245\013\276\237Wa\276\333)\232\274\372=\005\276}6m>\362\264\307\275&\023\036\275~\313\237\274\353\203\037\276X\254\273=\262\274-\276(\306i\276\200\242O\274\370Fv\276\310\027\227\275 kq>X-?\276 /\263<\374b\027\276\314\306\014\2760\271+>@\242\246=\004\254\021>\000\367O<lGX\276H\017\213=\000\nQ>\320^\252\275\354\224\033\276\204\365R>\210P\\>\230\257G\276\340\3059>xn\005\276\020\234!\276\330tV\276`\203E=|9!\276h\345\237\275\340\337<\275\360\270\303\275\270f\374\275\310\267Z\276c\243\254=\242\277>>\031\007\022>\342\005\350=\357\013\032\276H4\325;\374\355n\276\373s\233\274\237\273W\267\367O\025=\367\306/\276\323o\021\275}&l>f6\005=\330#\355\275\217k\334\274k\232\305=\033\345\262=\026\303/>\371pi\275\254J_\273\233\273C>;\334|\276\366\373\026>`\333c\274?\016->\241\202`>\t\256\201\276 y\343\275@\345\367\275\377\3331>\252\250o>\224\247x>\265\300\274\275\031\007\027\276\301@!=G\324\227=}\201l\275t\370\211\275\364\344L\276\327\023l>\"\231h\276\206\2658>Y\tW>\332~\244<\344\031S>\335\014\244\275\030\251\025>\344\031/<\tc\207\276\014\242;\276)Mx\276\220:o\276\275\3736>8\"\347=\006\303E>\230\373\032>\317\360\241=\014\245;\276\2162}>Zc\343\275\247\222~>\330\267\204>O\266\023>\300\265|\275)\013*>\253PG\276\001\264\\>\317\2748\276\260\246)>{/D>\t\'Z\2767d\207=\035\006\"\276\307\311\304\272\356\273/>\367Y2>\230m\335\273\3336?\2768\034\351\274\370f\343\273!\300f\276\243\304u\276\311\314\324\275\'\320<>\355\317B\276`#\024\275\216\210W\276\265\2437>Xx,>\317z\353=\347\364S\276,\263\246\275*\034X>\307\323R\275MT5=\372\'N=\354dp>\246\257\203>\005`\220\276\206\341\211\276\026\022\375=c\2161>\310\252\323=\272(\375=v\233\354>\224\253\326\275K%\032\276\2374\021\274\3345G>\025^n=Wh\214>T\007%\276\337\276\224=\034\251\306=\330V\326=O\n\331\275u\270\206>\327\013d>\323\365\342\275\007\354a>\253\n\263\276u\357J>`U1>\214\375q>\014\276\000\275\346\316\206\275\356\033\217\274\314\362q>\\_9\276p\002a\273\035\212[=|)\026\276!\241\036\2765d\262=ji\352=\3169\370=\227\216|>\357\271\274=\235\353\204=\\C\274=\300l:\274\016\376~<\005\337%\276\216\343\330=\252\362B\275\313i\364=b\352\352\275\240\3028<\330\210\027>\014f\326=\001\354\261\275e\304\260\272>\377\026\275\021m_>b\367!\275\231\364\317=Dd{>\377\246!>I f=\005\331?>o|I\276J\236\002>|2\030>K\364\203\276\347! \276\225\331\310\275`uS>\010W\036\2766\004O\273\226\365\032\276\336\263\016\276;}\235\274\315\314R\276_\"^\275\270\245\230\275\031Z\237\275P|\314<d\325\026\275\373\311(\276\032\361C\276\035J\232=\203\377\371\275oi\020>\332{\371\27542R\276\210\313Q>2\235`>\0038\336=\030\317e\275Ev0>\304\247Y\275\000\263\314\275\340r|>D\267O\276\000\\\230\2730\313\370\275\340,/>P\300\n=\200?\276=\234\372_\276\024U~>\240\031d>hv->\000\016\322\273\234sn\276\030\264k\276\320\313q=@L\022=\030Vd\276\350L\r>\374\320i\276DV&\276\200\010v\275P\025\370\275\300\234\002>`\306\324\275\010\364>>\370e\035\276\224\274 \276\370\350\346=L\257$>\340\264\230<\214W\022\276\225\312I<._\246\275\317\205A\2745)\021>\234\232\026\276$\001\260=\232\275R\276\031\377\036>\033\323\226<\004{=\275U\213`\276\3377(\275@\023\004\276\336\034X\275y\250\016=\352\371\036>k\340+\276\363\001\350\2757N\206\276\244-+\276\260\257Z\275+\261\327\275\0233K\276\261\025\255;\032\340E<\335\035\214\275\027\311\345=L\274(>\025\224\252\275\344\2210\276\033Y|>\005\237o=\220\301\363\275\217\206\372=\272\250\340\275V\361O\276Z{\256\275\361\004\374=jX-\274\377&\016=\t\265\225\275\\\250\211>\253\325b\275Zoy\276\347\337\240\275?/\000\273\351\355\177>\3305\025\276\255\244<\275\005\016+\276\225\016\334=\241\245\333=\270/c=\332\005a<\200\306\371;\314\202\n>\315\324\321=j\017=\276\235\214\013>\220jP\275+wE=\365m\207\275ah\037>\311\262z\276\270\327\246>\306\254\312>k\255a\276\001Wl>\271\311\320\275\352\210H\275\313n\002\275\205\027\215\275\347\317H\274\345N\264=%x\232\276\366C\316=\303$6\276(>/\276\207\341\251>\032F\261=\212\177q\276H\235\223\276\372\246G>c\317\037=`\212~\2761\023\227>J\202C\275\001Xr\276\321\205\255\275\272E\326\275\004\250\213=.fY\276\001\375^\276(\226\013\276\267\301S\276\276\276K\276\333\356\004\276\222\371y=g\306\372\274\2028\267\274\374>,\275k\243e\276\366\324F\275\230\360x\275l\234q\2766\211\324=\312\334\006>\022\310|\275\207\374\204\276\221\014\235\275~\374\032>D\301M>Q*\207=\003\305\260\274\365cv>m!\'>\242\2752>\220H\231\275\226b\333=\343\263\271\275b\032e>\"\206->*y\016<\230\3700\276\010Z\250=PP\n\276\301\223V<e4\201><\314\277=\366B\251\272Y\305#>\267\"\331=\353\326y\275\252$\322\275\270\350\021\276\255\353$\275\017\257O\276#qT\276\242YJ>\311\352\235\275\306\252\010>\352\t\203<\241\267h\275n\200\375=G:\235=\307\002j\276\255Z\244\275\232\333\341;\031-\t>D\202w=NJ`>\264\034{\276tD >v\020\267=\334\035\206\275}e\242;\371\313\225\275\335o3>\377\007h\274\035\257~>\334\327)\274\217+\225\274\201{\r>\247\347/\276lD\216\274\035HA>\370N\\\275sm\245=\001\3128\276\033\346\030\274\314\000E\275\340-\333=\373>x\275v\027\235=\243T\323\275^\363\351\272\000\313`>\202\333\260\276\024\356\325\275a\261\214\275\320e\255\275REO<\330\377\027\276\214\224F=\021\326\336=\274\221@>\330\360l>\253tL\276\316\273\355\275\020\312f>(J\026\276\242A\374\275\002\375u\275\373\373\200=\232\265%\276Q\351\314=\256\340q\276^\375\026\275JC/>\270\236p\276\364\310-;`\031\224\275\202\006\311;\315&\212:\341\305\200\276j\212\330\275\317\355\355=\025\267\345=\357\356\305;\253\036\254\275g[\013>\257\023\343\274s\243.\276&9V>\241\300\021\276\370\0238\276\360\370\024>\276\271\201\276V\001\341\275\315=Z\276 \000~\276+\202S=\2776\237\275\036\234D\276\222Q\253=\315h\275=d\346\250>\326\020&>a\004Z\276\346\r`<\360,\244=\237\023\276\275\030\035\246\274\004\355\273\275x6\347=\r\203\006>a\234\303=w\250C\276<!\237\275\337\260\203\275\304\323q\276\221^\210\2755\361l>\244\262\336\275\312>\371=\250\3766>[\370\177\276(\347l\275-\325->\310Q;>\333q\355\274\335\205\312\275s\204\254=\363\335W\275*\'T={\177X>\271\343x>\200\240\257\275\351\236\210\273I\243\246=\370\264\014>\267\3203>\000O\r=\032\321\215=\204lD\276\360!\030\276\\\326q\276\315\316\221;\006\255m>\250\223?\276k=\n\275/\025r>3\240\355\275N\216q>\332\r\026>\216i\023\276\340f\273=\206\321\030\276\214;\025\276\206\342\311=\227-5\276\223\263e>B\025\226=\204\342+>\260\323\333\275\274~<\2765#\251\274\371hH>\232\317!\276!\017%\275w\247\370=\r\214\267=\371\300W>\004L\344\272p\343\202\276\247\351\255\275\370#G>\2574\220=\313\005\036\276\036I0>\003T%\276\276/\n\276\\\005\266\275\374\374\217\275\307\306\273\275rj~\276Ky\200\275\364\251;\276\014q\311\275\232\326\021\276\366\367\217=\361\0278>L\001/<\033\034\231\275H\260O>\335*p\276\004\036U=\023t\203>WR4>A\np>\200\301W\274H\247\250\275@7~\274\300)\033\276@w\243<@\374\252<\340{P=\240\255s=\200\307Y<x\314\013\276\260s\021\275\374_Q\276\000\376P\273(\304Y\276$5\036>\220\327\272= \010\013\276\034\362a>8\017\320\275\364!=\276\360\276\256\275\330\240\301\275hb\027>(qJ>`/\013\275X\326\337\275\200\306\206\275\3142J\276\250\367L>\200\003W\275\314\246t>T,2>\347\351|=n\025\271<\247\266\200\275p\335\007\276S7\201\276\367\016\307<[\364}>\347\357\274\275\366\2310\276\302\336=\276\350 \215>\365xJ\276\271\030\240\274\030\323a\276\262!\202>\307\277~>-\244\037>G\316z>\244\266\222>\032\t\222\275\275\374\242=\201\001\206\275\250$\271=9\244\034\275\236\231[\276\277\234\211\275\215\374\207\276\206}w<\332bs=\357\232W\275\036(\240\275\014:\205>\264\314\264=pRz=\2438#\276\0264\204>\227x\320=\225\335n>\375R?>^\331\371\275\314\271@\276\332LR>\006h\353\275\256:,\276\364\353\253\275\201q\034\272s\'\273=\027F\002>1\265\211\274\202\365\020\276\243\0239=*_\255\275\377&\034>7\217=>)\035Q\276(\317\370\275j\271\001\276\322\355$>\000\002\251\275\2068\276\274\345\360s>,\321k\276&\221X<\214\013\241\274\027\270\035>\333\254\304=\374#J>E\016\005\275F\340\344\274\213\'X><\263\373=\002\223\210>1\227\203\276\367\350<\276\343\261\365=\350\255,\273T6\234=\'+\315<\353\211l;\342r\220\276\002\026%\2759\276\022>q\376W\276~C\027>{\317T<\236F\356<\263@\210\274I\034\350=2\307/>\270\241\303=`\t\235>\305\312\276\275-L;:\306=\023\2763\355\017\274\014&k\275\230\362\227\274$\036]\276\036*\201\275\340\034\264=\331\021&\276\3405\031\276L\306\202\276X\245%\276L/\260\275\262\233\365=\006\245\212<\314{P=10`\276\3372r\276L?\327=\307\361e\276\325\327\230=\202\257d\275\322l\317=\342X\224\276:\305%\276\254D\326=\350\374\244<\2006\024>`\214\257\275\031\330\214\276\350\270%>Ba\005>\t\262\357\275\357\317\n=\231/}=\032c\247\275\374\322i\276\266\302\323\275\275\203\034>\024n.\276\362\220\242=z`\205\275\374\224\232\276\335LX=\266\270~\276\004\334Q\276\200\255\203\276yt\336\275\303\336a\276\265\203n\276\241\315\272\276L\021!\276\221\364\000?\213\221\373=\372/t<g\322\263=\323r0\276h\335L\276\326\327\'\276mDW>{\034\244\275\311WA=6\327\255>\200\224h\275\330\246\026\276\257f:\276\003\340\212>7\332\240\274\021\225d>\344\024\033>I\215S>\024N\364=\305X\210=D*\245=C\314\274\275\320\243\331\275\\SL\276\234\237Y=hzF\276\240CI\276`\\1>]\010\217=\032\205n=\"4\235\275S\3026\276\372\262V\273\'\332\227=\0103\031\276\370N\352\275\231\225\036\275\221\271I>6aY\276\265\264n\275Q\013\030\276F\037\033>\000.&\273&\326\250\275\200\304\346\273Mj \276j\307H>6P3\276St\262=\253}a<U7q\275^;\334<\014\026X\276\227\243o\276 \025m>d\376\\>3G\200\2763\034\251\275\014\326\340=x\337\001\276`\247\223\275\353yy\275#\035\225\274\030\327\037\276\262]\222=*\255\030\2764<H\275\346W\220=4\030\207>\336.\375\2754\252R\276\216\017d\276\365\266\272=m*\331=\315\344\313\274H U\276\241{\003\276\264e->\361nt\275K\224\345\274~\255\001\276\\\017\005>e{\205=(?.>\216Cb:^\342\245<\023RJ\276(pW\276\177\016\333=\031@=\276z\262E>\3669\245=\240cQ>]b-\274M\256\207\275#%K>\361s\337;P\352\254\274y\315G>\342vV\272c\320\344=`\002\344<i\264s\276\246\017\025>\225\322b>\236\212\300=\034+P>k:\367\274p\274\314=\000y;=r\234\020>\374\262N>e![\275E\361,>\215\032#>\245+-\275,\2606\276\371t\204\276}\376\031\275\000gl\276\275\302c>\371\265\003?\253$\317\275\257B1>\0233\331\275\365;.>\2525a\276\321\216\200\275/\275\243>\270O\337\275\345\3014\276\035c\024=\037fp\276\335\202\006\276\251\253\302<\273\316\365=\037\002Y\276c\327\363\275\326\362A\275\222v\350\275\035\246)\275d\375\317=v\301b\276L\010\004=\003\005\320=\020\007E\272\275\026\314\2742\030{\276\243\217#>\031\301m\276\334c\375;\305\010\n>]\272X>\266%F\276btm>\016\003\272=q]\213\275\256\337P>\206b\303\275\206g\035>\370a\206\276\332\035\271=\202G\322;\003\323\344\273\013\241\013\275\355\200\203=\000\177`\276\246\307\342=\324?\016>,\317\000\276J)D>}_\212<\036\000\212>[\250\037=\003\200\032=\212O\241=:0F>\262\234\375=\026\030\203\276V\031\367\275Gq\242<\206\020\251\274\200\355Z=\024\021\003\2748\275\007>Z\240\016\275-+O>\21621\276vz#>#\342\237>@=\326\275n\264#\276K\177,>\255\313(\276\274\224(\276\375Hb\276\2245\223\275\313\3160=\200\226W>\225\036S\274\335\307\242=V0\013\276\267q\331<\034\232o>p\351\322\275\031Be>\264\350\202<\312\245\n\274_^\331\275\033[V\275v/c=[\236u\276M\266\r>\017\316\352\275\254\034 \273\t\330\030<\353\372\343\274\225\023]\276\335\351<\276$*\200=\213[U\276\010\301\033\275\367\263\032>\2527q>\303%\212\274,\007\002\275\335\023F=\2505h\276n\234\003>?.L=\203\014K\276\r\2237>\3406\\>\036\217\035>\360\263&\276\255j\307\274\202\207\340\275b\017\364<]\272#\275a\321\274\275\265\227\213\275\367p\'>m)\312=\375\017G=\003\273L\275\3259\310\275\3266Y\276\251\200d>eJ\333=z\000`\276\277\316\257\275\305\215H=\266\200\220\274\352:\352=v9\360\275l\355\004\276\375\305D=[4\272\275\253\374\201\275\014\322\366=\376x\017\276z\273>\275\225\231R=3MY>\214\374\313=\201\345+>,J\002>\002\002H\275\357nw\276|\016(>\301q\343<\351b7>J\2304\276\365\207\345\275#\341\325\275\224\346A>\3531$\275h8\007>N\240\272<\\,\305=\036o=\276\344uV\276\211_\225\2746\271N\2762o\246=2\211\'<I\255\312\2756\\P=\372\306\'>>\321T=\030\354\001\276\020Vc\276\010Y\204=\333\363\\\276[\242t>0\010\005\276\331c\235=\314\023\271<\237\253,\275m\306\207;\344\243\010=\361~)>q\351X\2731\305\304=\003dG\276\007\005V\276\030\277L>-\250\335=\304\341y>.\020:>+\020A\276\037\275`\275\335<%\275J\246v\276\017\275\201<\307Z\236\275\226J\034<\331J\031=\351U:>h}b>\032\324\226\274\023\222e>\223\373\363\275\235\366I\275\376n\024>\'4\330\275\220N\212\276\n.3>\002\352\313\276\375\317\213\273\235?\377\275\235\235/>\234\367L>\264 u>_pO\276\245f\267\274]\361\305=\205c/>\177\344l\276H\3140=\320\347\037\276P;^>\357\007x\276\313U\334\275\312\260\205>\363\356\021>\020\366\200=\007\303D>\333\326y>\003\371\217\275\334w\032\276\327x\207\273\314\212\253\275\330\350\246;o\333\211= UC\2754@\010=D\213g>K\205V\2741)&>\177\221_=\347V\022>\220\333H\276.A\272\273\300=\371\274\357\212\262\274\312@@>(=@>5\274]<\255\270\r\276\371;\361=\256\233\204\276\374\014\333=O\326\036>\237\274\241<z\336b\276\326\t\231=\254\2418=?H\351<\360\267I\276\202\210\334=A\t\225\275\360K\220\276\247\026\211>\2111\213=\366:\202\276m\324\200\276\247z[>=\310\214<@\262\204=\026\273\300=\026@$\275x\245T\276\027j@=2\306>>r\374\026>\261\242<\275\303\325q>\216F\271\275-\024\344=q\272/>\215qH\276\237x\227>N[\370\274`\251%>\214\345\000\276\355^Q>\354\237\323=\374\326\024\277J<(\276\322\313\325\274\202\344\226>\205\246=>\203\004\007\277\030\364\256>m2\025>\373\347\242\276\177\233L>\217\305\212\276\tB&\275\316\246\220\274H\205}>\326\317)=\257D\206>\3358\352<\315\'z=E\270Z\276\242\257\027\276\201p\030\276N\350Z\276\3579H\274\006\224\035\276\373\332\017=\337oP\276\312%\026>\251\325T>\324\370\232<\377\331\273=\351p\234\275PM\013>\217\302\216=\314$\024\276\202\203e\276\317;{\276\330\357\324\275\252t4>\243\277\232=\324 \272=\217o1\275\261\374\376\275\360\363\217;;\2122>\337\213,\276\364/\202\274\237\346\322\274j!G>\374\276\031>\327\010\260\275\254\034\253\275\266C0\276W\351\357=\326o\375\274\\\204\030\276G7\361=\003eO\276\305\3157>\237\030\">\177\"^>\371\027\207\275\333\332V\276\235(6>\330n<>\246|\r\277@\322\002\276Z\202\025>\356\260J=\356\024\355\275\315\201n>\332\251\232\276\254\356\005>\013D\242=\004>\236\276\330\267\301=\203\017P>\2620\267\276\224?t>\030n}\276\337\'\037\275\303G6\276\315do\276\347B\214=\300f\027\275\260\330\350\275)\273\326\275\334\210\021\276"
      }
    }
  }
}
node {
  name: "FCN/dense/MatMul/ReadVariableOp"
  op: "Identity"
  input: "FCN/dense/MatMul/ReadVariableOp/resource"
  attr {
    key: "T"
    value {
      type: DT_FLOAT
    }
  }
}
node {
  name: "FCN/dense/MatMul"
  op: "MatMul"
  input: "FCN/input/Relu"
  input: "FCN/dense/MatMul/ReadVariableOp"
  attr {
    key: "T"
    value {
      type: DT_FLOAT
    }
  }
  attr {
    key: "transpose_a"
    value {
      b: false
    }
  }
  attr {
    key: "transpose_b"
    value {
      b: false
    }
  }
}
node {
  name: "FCN/dense/BiasAdd/ReadVariableOp/resource"
  op: "Const"
  attr {
    key: "dtype"
    value {
      type: DT_FLOAT
    }
  }
  attr {
    key: "value"
    value {
      tensor {
        dtype: DT_FLOAT
        tensor_shape {
          dim {
            size: 32
          }
        }
        tensor_content: "\272mv=\356\253\215=\332\004\272\275 \204O\2763L\256\275\375,\206=\233\277\247;\344[\216>\305\321\223\273:\203\247\276\220\223\217=AHC=\202\352J<\216-\200\271\034K\226\276\177\217\002?\202J\241\276I\214\276=\270\264,?\314\2359\274R\314Z\272\200\203\363=u\034\260=\242\372X\276{\265\332=2\271e>\257\235\t=l\n\351\272\2531@=v\"8=\367\336e\276\371$\031>"
      }
    }
  }
}
node {
  name: "FCN/dense/BiasAdd/ReadVariableOp"
  op: "Identity"
  input: "FCN/dense/BiasAdd/ReadVariableOp/resource"
  attr {
    key: "T"
    value {
      type: DT_FLOAT
    }
  }
}
node {
  name: "FCN/dense/BiasAdd"
  op: "BiasAdd"
  input: "FCN/dense/MatMul"
  input: "FCN/dense/BiasAdd/ReadVariableOp"
  attr {
    key: "T"
    value {
      type: DT_FLOAT
    }
  }
  attr {
    key: "data_format"
    value {
      s: "NHWC"
    }
  }
}
node {
  name: "FCN/dense/Relu"
  op: "Relu"
  input: "FCN/dense/BiasAdd"
  attr {
    key: "T"
    value {
      type: DT_FLOAT
    }
  }
}
node {
  name: "FCN/dense_1/MatMul/ReadVariableOp/resource"
  op: "Const"
  attr {
    key: "dtype"
    value {
      type: DT_FLOAT
    }
  }
  attr {
    key: "value"
    value {
      tensor {
        dtype: DT_FLOAT
        tensor_shape {
          dim {
            size: 32
          }
          dim {
            size: 16
          }
        }
        tensor_content: "D\260\261>\275.\225\275\362W\362\276\264<%>\001\272/\275\236\264\202\276\371\017\251\276#\235\354\274[\237\032=\332w\220\274Q\324\205>\261\261\254>\326\023\034>\253\245\345=\277\306\273\276\262\355(>\345\347\275\276He\341\274\342\253\270\276\277^\244>\005\334w>\254\306.\276\r9n\276\312\370\014\276\356\235\203\276\336\353a\276\0268+=z\036\001>\276\314z\2767\220O\276\020\373\220\276E\363\235>\307]\242=\325`\232\274\302As>\321z\'\275\264\307y>\377SA=v\305\220\275(S\006>\241\3148\276\254L\355\2751\205\334\275\275B\222>\252n\242>\262_\305\276\236-\026\276\221\260\222=z&~\276%)\r\276DGW\276\010\246\215\276\313\340\000>\002\272\305\275\217\364\242\276\202\036\277\276\373\371\307\274D\230\205>\307\252\272>\223\231\233\276\200\3669\276\366?\205>lf\343\275\322\264\002\276\334\376\260\275\375\301_>\230\215\\\276\242\264\224>6\331\203>\007i\357=\215T[\276g\3054\275t\305\274\276T\t\300=4\363\206\276\300p\003=i\240\232\275\301^\002=\205\035\232>\366\014\t=\264\276\223>\n*\272>\233Je\276\004\260\037\276\027\200\017\2768\201\001?\376\347\254\276\221f\020>\\\331\306>\330\342\316=1\252\007\274.\362\260\275\220\033q=e\371B=\344\022\273\274*\331\271>\313i\262\276Z\257V<\250\026m\276)U\256>\016\302R>=nF\276K=<\276\276\260{>9U2=\276#Q\275w\334\232\276qk\235=\270\344\215;G\217\257>^t~>\007\023\267\275\271F\325\274S\234\252>\030\315W\276\372>z=W\236\204\276\307\325>>\316\367p\275\027\2506>\021\322\202>\006dM\276\3223\306\275\324<\034\276\211\254i>\353\322\337=\257uq\276\004\217\022>\336b\247\276\330W\200\275\314\036O>\207?1\276\231\226\361\275\026x\235\276\331\352\255\276\316\375\232>\234q@\275\365\350T>t\222\025>\362i\252\276*\255J\275A\252\303\275,\377R=d\230\300\275\332\221\331\275\373\265\223\276\035\313:\276\005\237\224<\341e+\275\202t\210\276\257\332\215>\323-\242>\335\0346>\252b\241>\333m\246\273\036\324\261=\315q=\275d\212\006?\251\020\t\276\017K\221\276s\004\252\275+\334\253\276\355\203\204\276\003G\361>[\274\263=\037\005\261>\221\366P\275E\242\245\276\377\365\320\275\214n\320\276\236\227h<\221\034\376>\252H \276\350#\362\276\014\207#>\227\246\226\276\230e+=\336\344\235\276\364|1=f\007\260\275\372\033^>\364\024U>\250\005\036\276}\355\267=\311C\263\2765z\212\276kQ0\276b\374\271<\255\337u\276\357Z\333\275\234}\206\276\206\370\201\276\307]v>\210=\227>\351(\272<o\273\237\276\233\316\352\275\"\261\270\275F\233\235>\233\214\216>#ml=\024\226I\276\300\010\307=%\007\\\276Q\203.\276\306\"\250\2766J3>.\201\264\276/nO\276>\346\237>\215a\243>\367\r\005\276\332Gv\276\334\221\227\276N\344%\273\n\274\263\275\342D\231\276CR/\276>\271\226\275\254\007-\2769X\226=r\256p>\343\301\207>3\272\207>cS\014\276,\213\363\275P\254\023\276\034\305v\276\363\331\216<\307\024d\2762\352#>\355\020\334\275\372O\234>\020\224\253<\344r\233\276\364\271\"\274(\372\323>\3647=>Y\321\306>bQ/=\343\r\314\272w\267\212\275\037\003\256\276\377\267\326=\252\310\320>zs+\276\014\327\202\275R\224\203>j\303\230>\335\267\217\276\240\231P>\371\335\005>\363\260\177\276-\215\276>\3412R>AV\304>^\006F\276n\234\205=g\010\214>\027\027\210\276\277\365\210\275\020v\201>!\232\265>\"\352V=QO\360\276\024\257\n>1\000\334=\304J6=\224-\271\276ofC\276\2065d\276`\246\025>\251\'\251=\221\257\r>v\222\301<+\375\250=\222G\026>\346\361\241>1\350\264=\255\177D\276\372\364\341\276\"`\301>v\310\262>}\345\246>\036u\006\276W\262\301\276\201@\211\2766\326\341\275\026\302\207\276d\274\221\276\033\314\361>\325\222\264=\222\344\242>\302\027\023>\244\271\210\276\332M\316>\"\264S>1\311\210=\337SZ\276B\347y\275\257R\257\276W\205\300=\232\327\263>\327\231\030\276\242Tg>\277\213_>\300$[>0\327\246\276FN\200\275\313\017z>\202\217\235>\344\353j\276\n\'\003<\0234a=\316H\267=\334\307\250\276\336\013\004=\237\020)\276\336\236\335\275\\\007\215>+\347\261\276G\362\233\276\273D\217>\364\341N\276\321\010N\276\370\002t>\266g\246\276\020\261\255>l\016\236\276\005o\021\276\244\206\344\275\273\245&>\201h\267<\360\270\037>\0202\213>\005~_>\033\245{\275\0328k>Y\022=\276\304\211\017=L$\227>\031\350N\276\224n\210>\235!\222>\347_\225\275f(\216>\202\350p\276X\376\214\275(I\240\275\301U\205=5\211w\276\026\251c>\270\247e>B.\363\275\266xR>\0228M\274\332Z;>\220\210I\276-\301z\276\'U\243\275\255Qk\276;M\233\276L%\016\275\316\322\000>\275\305\341\274A\357\274\276\257\347\034\275u\377P\276\030\320\224>\334\t2\275\"w\007\275j\272\224\276\220\r@>\265\360\200\276\331\276d=\367E\222\275\300\206\035\276aB\212\276=\2473\276k\217\307\276a$\273\275=f\033\276=\240\261=\374\267T\276\315a$>\326?N\276o\303\254;a\356\363\275hZ\227\274a/\222>\300\336\345\274y\303\036>\256S\272<\210xj>:\257\253<\034\230\306\276\233\332B>)\026\235>\210\305\232\276s\300@>\260\353\t\276\211\205\221>s\363s>K\n\276\275\350\273\037\276\025\376\240>\006\007\222>\0221\265\276\001#\'\276\355\351\302=\324xU>x\3262\276\352\"q>\0340\262\276\342\326\035>\375i\223>Y9\302>\225&n\2761\222E>coG\276\370\017\023\276\375@h>\213o\003\276\233\\\027\275\277\021\200=7z\226=\234\311\321>\026\363%\276y\302\226\275\371s\273>J\315?\272$j\000\277\362\002\241\276!\3020=\250\356\372=G\242\216\276\247\230\215\276\340\247\001>\002ZL>\331\223\024>\277\215\305<\310\212\214\276,\2440\276\314\226\207\275\364\364q=B\263f\276 \360I>\ni0=\372\372\034>\010\254e>@6\307\275\235\325\010\276\331\302\256=\254\0144>y4\\>_r9\276\021Z\007>\374\341R=\005\253\037=N\3418=\364\244p=\370\310\276\2767R?\276\255o\240>\376\364\216\2768vj\2751\206\215>ZLR>\013\322\234\276_\272\215>(\037O\276\301\212\317\2752\r\253>\227\254\233<\311\204`>Q\017\317\275\004CF\274\034\260\021\275\377\025\034\276\314\216\003\276\272\'3\276\376\340\271\275\022\023\213\274\226:\035\276+\030\314=(J\203\272yg\307=\007\340\266\276\370y0\276\271I\270=\372\210X\276\013\323\030>\271\r\221>S\342\004\276\036\004\263>\022xF;?b\005>\216W\235\276\277(\301>\306\002\234=%{\014\276\255*\272>\311\021\354\275\"\226`\275\242t\211=\222\245\204>4T\300>\007`\354\273^)\211=\335\372\027<\001jd>\204\372T\273"
      }
    }
  }
}
node {
  name: "FCN/dense_1/MatMul/ReadVariableOp"
  op: "Identity"
  input: "FCN/dense_1/MatMul/ReadVariableOp/resource"
  attr {
    key: "T"
    value {
      type: DT_FLOAT
    }
  }
}
node {
  name: "FCN/dense_1/MatMul"
  op: "MatMul"
  input: "FCN/dense/Relu"
  input: "FCN/dense_1/MatMul/ReadVariableOp"
  attr {
    key: "T"
    value {
      type: DT_FLOAT
    }
  }
  attr {
    key: "transpose_a"
    value {
      b: false
    }
  }
  attr {
    key: "transpose_b"
    value {
      b: false
    }
  }
}
node {
  name: "FCN/dense_1/BiasAdd/ReadVariableOp/resource"
  op: "Const"
  attr {
    key: "dtype"
    value {
      type: DT_FLOAT
    }
  }
  attr {
    key: "value"
    value {
      tensor {
        dtype: DT_FLOAT
        tensor_shape {
          dim {
            size: 16
          }
        }
        tensor_content: "l\306\245\275?\257W<;\367\220>\336\246\262<c\255\020>\352\037`>\022K|\275\242\317\267=\340p\225?\207\316\311\275\0077c;\340\357\213<\201To\275\252\336J\275#\t\231<\223L\n="
      }
    }
  }
}
node {
  name: "FCN/dense_1/BiasAdd/ReadVariableOp"
  op: "Identity"
  input: "FCN/dense_1/BiasAdd/ReadVariableOp/resource"
  attr {
    key: "T"
    value {
      type: DT_FLOAT
    }
  }
}
node {
  name: "FCN/dense_1/BiasAdd"
  op: "BiasAdd"
  input: "FCN/dense_1/MatMul"
  input: "FCN/dense_1/BiasAdd/ReadVariableOp"
  attr {
    key: "T"
    value {
      type: DT_FLOAT
    }
  }
  attr {
    key: "data_format"
    value {
      s: "NHWC"
    }
  }
}
node {
  name: "FCN/dense_1/Relu"
  op: "Relu"
  input: "FCN/dense_1/BiasAdd"
  attr {
    key: "T"
    value {
      type: DT_FLOAT
    }
  }
}
node {
  name: "FCN/dense_2/MatMul/ReadVariableOp/resource"
  op: "Const"
  attr {
    key: "dtype"
    value {
      type: DT_FLOAT
    }
  }
  attr {
    key: "value"
    value {
      tensor {
        dtype: DT_FLOAT
        tensor_shape {
          dim {
            size: 16
          }
          dim {
            size: 8
          }
        }
        tensor_content: "&\005\342>\307tK\276u\221\360>\217$\361;\372\274\251>\210\"\243\276\244\nJ=\222\217\234=\237Y\'>\ny\303>dt\342\276A\264\357>\314t\020\276l\367\225\276z\364\256>\344\304\240>\230h.>\262.\305>\353\033\265>\016\006\204>\000\375\017\276\232`\236\276B\200\307>w\203\001\276\344(<\276\266\300\325>;\321\224\276\314\361\234=\313}\314>\202\374\365>\034^\306>\342\234\244\276@f\202\276j\330I>\276#\n\276V\310\222\276\314\231-\276&0\217\276\2304\017?0\271\242>I\007\307>B\222\272>CU>==\261^>v<0>iFu>Z\210\331>1\356%\275\006[\004\277\244g\355\276-\216\270>\256\272\037\275\255\010\354>\321^\020\276\353(\264\276\262x\216\276\006E\325=\0056\201\276\223D\000?\263\033#=\017\360\346\276af\304\276k\033\310\276u\016\216>y\005P\274\231\010\207>\242\217\302\276\207pf\276 j\036\276M\244\267\276\316\2227\277\202\356a?\'\247\312>*\364\010\277\262s\261\276\352\241|>=\033\277\276\204\200&>|qD>D8\330>\256\216\245\276\032\236j<(\275\222>\n[\262\276b\266\324<]Q\000\277\026yI>\261\260\253\276\2521\007>\3271\215>\342\344\264=\251\"\003?\360\304\241>\rFj\276\240\232\004?\322\261\364\276\023@T\276uYk\276\343\325\332>=\311\211>W\310\203=\302\250\365\276\342z\213>H^\223\275\343b\"\277>1@\277m\263\237\276\275c\212>\273^\264\276\342\247b\276K\005\331\275\033d\341>gx\374>\326\247[>\234\327\031<D\375\371\276\247{!\275\365z\255>R\267k>\025F@\276\363\223\341\275V\306\003\275\005\032\252>\344\270\267\276s\002\327\275%\373\262>\353\222\273=\003\213\245>"
      }
    }
  }
}
node {
  name: "FCN/dense_2/MatMul/ReadVariableOp"
  op: "Identity"
  input: "FCN/dense_2/MatMul/ReadVariableOp/resource"
  attr {
    key: "T"
    value {
      type: DT_FLOAT
    }
  }
}
node {
  name: "FCN/dense_2/MatMul"
  op: "MatMul"
  input: "FCN/dense_1/Relu"
  input: "FCN/dense_2/MatMul/ReadVariableOp"
  attr {
    key: "T"
    value {
      type: DT_FLOAT
    }
  }
  attr {
    key: "transpose_a"
    value {
      b: false
    }
  }
  attr {
    key: "transpose_b"
    value {
      b: false
    }
  }
}
node {
  name: "FCN/dense_2/BiasAdd/ReadVariableOp/resource"
  op: "Const"
  attr {
    key: "dtype"
    value {
      type: DT_FLOAT
    }
  }
  attr {
    key: "value"
    value {
      tensor {
        dtype: DT_FLOAT
        tensor_shape {
          dim {
            size: 8
          }
        }
        tensor_content: "\372\215\272=\305\265_>\037\006\226\275H8{\276\260I\304<V\316\322<\017\377\211\275\222H\002>"
      }
    }
  }
}
node {
  name: "FCN/dense_2/BiasAdd/ReadVariableOp"
  op: "Identity"
  input: "FCN/dense_2/BiasAdd/ReadVariableOp/resource"
  attr {
    key: "T"
    value {
      type: DT_FLOAT
    }
  }
}
node {
  name: "FCN/dense_2/BiasAdd"
  op: "BiasAdd"
  input: "FCN/dense_2/MatMul"
  input: "FCN/dense_2/BiasAdd/ReadVariableOp"
  attr {
    key: "T"
    value {
      type: DT_FLOAT
    }
  }
  attr {
    key: "data_format"
    value {
      s: "NHWC"
    }
  }
}
node {
  name: "FCN/dense_2/Relu"
  op: "Relu"
  input: "FCN/dense_2/BiasAdd"
  attr {
    key: "T"
    value {
      type: DT_FLOAT
    }
  }
}
node {
  name: "FCN/output/MatMul/ReadVariableOp/resource"
  op: "Const"
  attr {
    key: "dtype"
    value {
      type: DT_FLOAT
    }
  }
  attr {
    key: "value"
    value {
      tensor {
        dtype: DT_FLOAT
        tensor_shape {
          dim {
            size: 8
          }
          dim {
            size: 2
          }
        }
        tensor_content: "1\267_\277%s&>,\\0\277MHj?^\221U=3\324,?iB\020\277H\275\031=\2712\206=-o\236>\303\0347\277#\2429?\031\316\003\277\265%\t?\364Z\356>J;8\277"
      }
    }
  }
}
node {
  name: "FCN/output/MatMul/ReadVariableOp"
  op: "Identity"
  input: "FCN/output/MatMul/ReadVariableOp/resource"
  attr {
    key: "T"
    value {
      type: DT_FLOAT
    }
  }
}
node {
  name: "FCN/output/MatMul"
  op: "MatMul"
  input: "FCN/dense_2/Relu"
  input: "FCN/output/MatMul/ReadVariableOp"
  attr {
    key: "T"
    value {
      type: DT_FLOAT
    }
  }
  attr {
    key: "transpose_a"
    value {
      b: false
    }
  }
  attr {
    key: "transpose_b"
    value {
      b: false
    }
  }
}
node {
  name: "FCN/output/BiasAdd/ReadVariableOp/resource"
  op: "Const"
  attr {
    key: "dtype"
    value {
      type: DT_FLOAT
    }
  }
  attr {
    key: "value"
    value {
      tensor {
        dtype: DT_FLOAT
        tensor_shape {
          dim {
            size: 2
          }
        }
        tensor_content: "\357bV>\340aV\276"
      }
    }
  }
}
node {
  name: "FCN/output/BiasAdd/ReadVariableOp"
  op: "Identity"
  input: "FCN/output/BiasAdd/ReadVariableOp/resource"
  attr {
    key: "T"
    value {
      type: DT_FLOAT
    }
  }
}
node {
  name: "FCN/output/BiasAdd"
  op: "BiasAdd"
  input: "FCN/output/MatMul"
  input: "FCN/output/BiasAdd/ReadVariableOp"
  attr {
    key: "T"
    value {
      type: DT_FLOAT
    }
  }
  attr {
    key: "data_format"
    value {
      s: "NHWC"
    }
  }
}
node {
  name: "FCN/output/Softmax"
  op: "Softmax"
  input: "FCN/output/BiasAdd"
  attr {
    key: "T"
    value {
      type: DT_FLOAT
    }
  }
}
node {
  name: "Identity"
  op: "Identity"
  input: "FCN/output/Softmax"
  input: "^FCN/dense/BiasAdd/ReadVariableOp"
  input: "^FCN/dense/MatMul/ReadVariableOp"
  input: "^FCN/dense_1/BiasAdd/ReadVariableOp"
  input: "^FCN/dense_1/MatMul/ReadVariableOp"
  input: "^FCN/dense_2/BiasAdd/ReadVariableOp"
  input: "^FCN/dense_2/MatMul/ReadVariableOp"
  input: "^FCN/input/BiasAdd/ReadVariableOp"
  input: "^FCN/input/MatMul/ReadVariableOp"
  input: "^FCN/output/BiasAdd/ReadVariableOp"
  input: "^FCN/output/MatMul/ReadVariableOp"
  attr {
    key: "T"
    value {
      type: DT_FLOAT
    }
  }
}
versions {
  producer: 175
}
