node {
  name: "input_input"
  op: "Placeholder"
  attr {
    key: "dtype"
    value {
      type: DT_FLOAT
    }
  }
  attr {
    key: "shape"
    value {
      shape {
        dim {
          size: -1
        }
        dim {
          size: 22
        }
      }
    }
  }
}
node {
  name: "FCN/input/MatMul/ReadVariableOp/resource"
  op: "Const"
  attr {
    key: "dtype"
    value {
      type: DT_FLOAT
    }
  }
  attr {
    key: "value"
    value {
      tensor {
        dtype: DT_FLOAT
        tensor_shape {
          dim {
            size: 22
          }
          dim {
            size: 64
          }
        }
        tensor_content: "\254\022)\276\200\317\000\276b\340\322\276+\022\242\273\rC\333<\031gh\272%kO\276\325\255\312\276G\274\354>\320D\021\275R\357\220>\375.x\276\230\203V>\027\324\337\275\230\252\237\276R\206F\276\267\273\223\276\373!\211>1\010s\276\027\272\210\274\215\332\223\276\374\206\255\275\341\362#\275~\272\204\276XbU\275\306O\251=6\337\223\275T\375U\276\354i\016\276W\315\026>\211\225\245=\246\242P=\205\000\232\276\3735\354\276\027\017@\276e4T\276\350\367j\276=\357q\275\367\3760=l\234\004\277\2505(=d\376\203=&5\323\275\026P\323<3\247V=\233\235\373\276\215{\t\272x\364\350\273KM\001\275\005\357\302<\277g\216\275=\253\233>\270Q\006\276\267\036\321\276\r\374\313\275\024\'\205\276\372\033\273\276\265?\345\275\2045%>\002\236\227\276\364\327k>\322k\337>\'\036\001=\337<\370;\0347\021\276\320\002F\277\240\216\333>\367\205\325=0y\373\275#\031\247==Oj=\215Y\376\275n\204\264\277W$\212\274\361`\227\276\"\3125>\214\004\271>\177\223\023?xF\355\2745}\n>\201\t\216\274\366\312=\277\340\024+\276*\344%>\263r\237\274\320\363\022\276\350\226\320<\005?\347;\354\256\032?\000D7>\377UN>\2222\017\276O\227\273\275\300\022\317\276\020,\361=(\202p\275\267c\031=\232,Q>\330\367\256\272\007\341\315\275\335!\">\020o\026\276\370\305|\275x\243@\276BeY=\212\212i=%\202\365<\352\211\034\275o\273\216=\371\336s\276hn\177=5\336s\275\204\'\240=\371\374N>,n\201\276\266:\253\277\021q~\275BA\214\275\322\344\007>\313\242\220\276\277n\347;\321&\335\275\241\225\361\275 jf\276\303\307\025\277\230m\371\277\212\315\225\274X\264\006\275Y\355Z>\377\036\"?\326\301U\277_\217\241\277\010\037\362\277k\367\311\276\350\252X=\000\312m=\321\365\006\277)\276\035\300\210\203\373\276F\3646\276\225\3229\276p\257\037?D\264\225=\344\331\276\276\355\024\375\274t\004\021\275\263\035\332>{\365g\275\3500\355\276\224K\016>\032dB\276\026\370\251>\221\364%\2772\214\356\275\340\006\337>\030\242\300<\2179\006\277\356\272+\276\307\211\221\275r\263\203?j.\375\275j\326\034>\243\232,\276o\242n>\034\271\224>\r\223r\275\333\251\002\277\361\372#?/\023Z?\005\035 =o\262O?\231z\005@\177\3550>z\301\230\274_jG\275zk/>?\332D>g[\346>\367\003\036\276AW\253?\272\247\016>u\217b<t|\260\275-\342\276\275\240z\023\277\220\302\323\276\375\374\335\275\271\212\330?TkF?K0\210?c\325\361?]B@\300\031\2714\274\203\230\"\276zr\033>\331U\350>\354\014\234\277t\263G\277m\202\202\276^\021\370:\325\250D\277\246\2248?\212\235\321\271\022\231\302=fWi?\227\211\37797S\017\275\332\321d\275\362\373\017>\337i\211\275O\206\326\275I@\350\276\210\2643>\257\223C>\033~\003\276d\224\210\276\r6\033\273O\334\340=\311\262K>\320k/=\266\353]>\304\320\265<\3101\315\276\2634\341\276b\323\330\27554p>&\213\003\276\240,\024\276NT\025=\351:~>~\005C\275\013\245\025\276\242p?\276\361\272Y\276\302\026U\276\303>l?\317\026P\277\352\274T>\213V\357\276r\205\021>\006\336\016=\254g\242\276K\354\330=\352=\024>)\233K>\353\335\321\274\257\307~>\330}==j\246\013>T\036\340=\336\306w?\266\030\223>r\002\177=f86\277)\035\267?\347\351\363\275\377\006\223\275F\000\335=\216g\350\276\236\356\303;u?\343\273\344\251T<\265\340\337;\250xt\276\307\320\r=\340\356\017<;&+=I\200?\276U?\251\275S^\364\276\232\242!\2764\357\312\276\304\224\341\276\332^y\276\347U]\277Sr\204=\261\363\"\276\034\270\231;\210\265\017\276\347O\356;,7\310\276\213\250\245\275\231\214\273=[\377\264<\341\037\225=\342\211\243\276\351\201\352<\003^\000\276#g\017>\316\241,\276X\272\230=\tV\230\276o\356\211=\331\031\202=\016F\204\277\214g\211>\032\035\364\276g(}=\360\031\202\277-O\216<\2564\033=2$\256\276}\225\225<\357\364\277=\014\241\037\276N\000\203\276\243#$\275_\343\032>\375\t.\273A\032\232\276G\000~\276\220\376\314\274\315.\036\276\255H\203=gA7\274E9\355=\336\224\356=\026\244\317=\265\350\222<F\235\r\274\374\010\205\276\334)\010=4\236\370=\026k\212\276!o\332=\355?\233<\025.\032>E\341h\276B2\030>}\014\253\277\377e\221>\352K\261<\205\343\243\274\314}K>b7~\276\002\016p=\333\372\266\275\277\301f\276i\370\241\275d?\371= \276!\276\227Uf\276\264G\206>G\013\022>\246\013<\276\335\362\034>\027\230\033=\343\227\253\275+\320\244=^n\364\275\340\241\261\275ZX\215\275\213\343\n>#\332\323\275\221%1\276\353\353N=\245.\345=\350\230\203\273\276\337}\276\337\273\340=$\377;\275$\364\037\274O\254\030>\354%\221\273\005\205\020>\016r\331=\365\n\267=.m\363\275\002\2720\275\342\035v\276-Vm\276N\375\305\274\377H\023>\307\3036=\276WM>{P\266\275+G\014>\020\301\266=6\301\214\275\267i\232>4\003M\276:\347\230>\260]X<\027\260\026\276L\374\r>\253`\027=s\242\242\276&\004\325>\224\265t>\014p\320=\346\336M\275\312@*>\264j\002\276\002v9\274c\2647>\221i\272\275di\203\275\'\377\277>\032p/\275\202\001B>d\033]\276\371\247!<j\230\r>J\326\324>*_\320>N.\021>\342\026\"\276\362\235\177\276\314=\262\276\017\244\377=\350\250\264>\2339\251<\214\321h>T\3446=h\033\013=g\227\206>\346l\354=\304V\034>\370T\026>\265\\\230=\203\317:>g\326p9\250\035\204\276*p7\276\230&\024\276G\322R=\0027\327>uF\330\276e\373\275\275\n\321c>\007\274\202\276\2244_=#(\205>\32245>\231L\206>\243\221\237>\200G\'\276\032\014\036\276o\000y>\375K\225\275w\025\371\275\314\267i>$\246\271\275kU\213>i\351\306=T\337l\275\233>\214<G\001\n\275\250\202\270<\032`\371\275L9\206\276&\206\352>IGI>\236\350\253>_\271C\276z\035\025>#\212Z\276\014\251,>p\354\310\275\002B\353=(\304\235>\277P;\276K\203\026\275\313;\007\275m\361?\273Bde=_\253\210\276]\031\250>\221vR\276\347\234\033\276\211;\376<\332\233\304=\037\327\317\276T,5\276#\357\333<+\231-\276[1c\276(e(>\201?\252\276\352\203\004\277\233E\350\275\235\344\204\276\005^\336\275\"\366\254=t\010\200\274\225-6\276\254}\226\276s*\326=r\032@\277F\262\275\276\227\004\314\276 rr\277\232\307\">_\300{\2762\027\220\2759\216\366\275\367<b=\360X\257=\217\354K\276\317%\300\275\'G\320<S^m\276\037\025\353=\321\024u\2765\025\232=\230Y:\276Y\370\000\276\247\364\"=\351\347x\276)V\036\276\034!\243\277\223\266(?T\343\304\275\031S\246\276L\007\204=\344\243X?5\3503\276\322\305\222?+K\375\275\346\'\024>\312\261w=\245=&?\021\375s\276\305\275F>\034\020\224=X\360\022?T\266x\276\357\205\211\275\324\r\217\276k\326a\276sHB>\021\226N\276\236\030)>]?\023>\0102\374\275\3529\222\275\034\211\333\275>\221h?5\325\266\277\374\211(>\317\313\016\276jw\315>\306\264x=6-\324>a\255\207\276.\363\346=\346W\024\276\034ly>\030\324L=QX\325\275\340D\260=\227d\\\2760.\303>N\217\001\300\370\307P>\216P\001\300\265\030\234\277\'\241\323<\032\024\001@\245\004\034\275\223D\261=\021Uj?]\362|\276V\226\215<\256fN\276p\214\035=\016D\302=\301\373\212=]\003\373>K\356Q\276\363:\214=\220R`\276(\2566\276\"\263O>\236!b\300\321)\240?\202S\305\275w[\006?\362\216\204\276\325\2427\300\300P\276>\374\207\236\277\331\3253>Q\351\204>\221\356j?T\260B\300\027\256E\276\243\263\214=H\232\020\277\0263L\277\"\td\276]\272\211>\216h#\275\227{_>\n\303R\276}[\254>P\235\341\276\333&7>\324RW\276:\373\216>m\362\330>\005\205\242\277\307\002P?\204\270L\275\022U\225=\254\025R\276\345]^\277\361\314\237=\240Z\364\275\341\342\216<\310\377\206\274\031\261\376\274N\"D>\006xh\276l\354\226>\007:\341>\343\326*\277\305\337\303?\312o\321\276\362\354\310?\237/4?\312_\316\273\330\025\214\277:\227\206>\t\235\316<U\321\002\276\033\321$>\\\276\224?\340\262\370=Er\244=\212\215\247< I\227\275\031\227\013\277\341G%>8/;\277B\330\200?j\345\364>Q\235%?\004\016\375?\320\231\202\277\373\\\233<0\254\223\275\346\202\360=\334Q\375?\342\023\241\276.\007.@\n\320-\276\0076:>\237\330#\277Q~\205?\014\360\352\275\036o\000\276\002\337\320>\021\016=\274l\333l>Pz\372=9\003B>\231\014B\276zg,\276\207\240\212>\340\005\371\275h\377\231=Nw0\276\020\025z\276\"<~>\342\361\214>\323+v\276/\257_=UMP\276\003\376\366\275\004>(?\226\322\021>\354\332x\275C\370u>\300\013\033\276\367K\374=\312\332\300\275\226\026\003\276\214~\004>DN0>,\021\322=\355\347\354\274\353w2\275\227\364q\2775a\220\275\377{{>\260\207\246?z+N=<^\t\276u2\305>\t!\300=]\255r\277\000\014\007=\273\033q>(\232F\276\310\261<=7a\203>\261v\235;\336\355\026?\017P\237\276@K\220\276?\371#\2773X\266\277\204\345\247?\'\365Q\276\230\r\327=\240`\204>\254\223\360\275\371\037\372=X\267\332\277L\240\200\276=\2722> \000\003\276\tV\224?\347k\352=\225]E>~m<?4D\014\276\027S\313\275\025{\014>\002\225\342<\332\252\t>\0313\273\274q\336h\276\264\265=>D\271->l\2012=\"_h\276\2209C\276\230\321\265\276\226\256\035\276\250\332y\276D\325\005> % \276k>:\2778\355S\276\204\373\211<\2738\000>}5\202\276\r\034C>\331F\274=\234\377o\276\302,\233\275`\247\324\274S\234{\275\034\024\276=\301\363\220\275I\324:?\325\026\\>|$\316<\204=\216\277\346\277\250=^T\r\276\010\006\023\277\375z~>W\252\377<\3137 >fAm>\227\373}>\302\251\207>EM1\274\300g\027\276\353\001\230=\350ci>\257\351\272\275\210\376\330\276\263\277.?QC\255=<\022t\276+`\216\274\016\215\037\274\333q\026:\371\352\344\273\016\3105;#\034,\276\225(&\275M\307\n<\2077\020<\245N\206\276\354\347&\276f\216\034<S\020\235<\222\361\217\275\014.-\274\222\246\201\274\341\010\377\273\343\345~<X\342\251\276\004\262\204=a+\200\276d9%\276b\305Z\275.\224\235\275S\350\237;\340\260\031\276\213E\014\276n\301\262\275\377\326\316\274x\342\222\2732\032\312\274\205\3455\276\264\212L\275\232\312\205\2768\265\032\276\245\211i\276\021\034)\276E3\264\275\362Ue\276\244v\256\273\256\027g\275\r\332\361;a\336\351\273\177\244\017\276\253\345J\274\277\261H\275\326\242\343\276\234L\007\276q\253\227<\223\301\202\276\376\024\303<\201UA\276\240\247I\275\306y\246\275\021\311\220<\342\246\215\272\221\027\022\276zX\303\274l0L<\272\230\010=\036d\216<0B:\274\204l\345\272S\007\344=\333>\304\276{\332 \276L\234%\274\n_\207\274$\265\223\271\250\203\243\275\224\n\202\276\361\324E\276\017?:<\'\373\204\276\224\334(>\211\367;\277\240o\001\275\276?^\276\361\255\000\276\343N\025\277\211\006;\277\322\225\301>_\320\022>\202\373\003>C?\253\2753\022p\276\266_Y\275\266H\362=QL\036=C\347\354=\343\334\365\276\223\030}\276\242\316\267=,US=T\357\342\272\2034o\276\030\325\030\276\367H\277=;*\326==m*=#\274\235\275\224)~\276\360\004E\276\257|\220=\324\222\214=X\353\314=\033\236&<i\353\213=\023\252\217=\301\355\n<-z\255=\374\240\220\275\323\014|=\365\2177=\211)\241\276\224V\022\276wEa\276\304\241i\276\322\340N\277\033\337z\275\320\214\033<\274\000\313=0Ny\276\315}@\276\0137\'\277L\037/<n\354l\273\274|H\276c\257->0\005\347=\342}\270?\334\373\220\276>X\345?\304\260\261\275\237\242n\275p\245\271\276\002Io?\014\001\207\275\nI=\276\362-&\276\277\201\036\276n\023\220=L\020|\276uTU\275\260\224z>\315,\327\275\244\003\t?\005`\364\275\230\0204\276\342q\t\276\317tI>\353%\354\275M.\202?\020\254\335\276}D\300\275X\342n>\252H\216\275^<j?\355\345\227<\036\254/>\023\212*<\325\357\206>`\265\276=w\314\262>\315Q\313=\t\017\266\276\001\315\265=\r\250]\276\236\333\320\276\344}+\276bp\014\277y\005)\276\256\251\312=b(\014>n\001\033>{\010d\276\324\365\216>\213\035\367=\367\023\305\276@\362\367\275n\362\326=s\206\277=\254Tt\276\200\345\213=\010\ny>\002\025Q?\276\364o>\'\036\326\276\022R\231\276Wl\237\276\005\237h?\314\241\363=\212\221\264\274n\342\340<\007\336#?n\365\333=\345H\256?\365\306*>\034=6>\365\2753>\017\362h>\360\312\236=\241~\373\275\332\030\227>\336tK=\377\036\252=N\251\216\275\024\336\210\276h3v\275]\225\307=\215\203\323;\321h\243\275}8X\276\222\307c\276<`7\276\r\256\233\276\324\313\377>\201\316\334\276\317\313\366\275\233\312T>\373\317O\275\270!9>j\256\316>:\202?=UqG\276\007^t>\205\226\310\275T8}>\036zy\2762~\300\275\0173:>Fl\342<_\353/\276\327\'\017\276\375i8\277G\003\311<\322A\336=f\177\212?O\033s>\233\236o>\225\001\036?\374\257\367\275\033:\252\276\017\325\202\276\254\270 \276\332\315\030>W\340g>\00587>\300\007^=\266\252\320\275\231\036h\275\257=\232<R\373*\275\215\347Z\277\273\2334?\265\217C>\312s\023=\342n\207\275\020\002\321\276\010\373\372=\327\022\272\276\265,J=\272js>h\216q\275\':B\277C\370a>\351\241\366\275\234\362\334=W\327m>X\266\360=O\346\301=\035\025\315=H\371\363=\016\3164\275\301\374\013>YuL>\320$9\276!\363{\276>02\275/m\014\276\017\247+\276\343K\241>\366f\201>\2377w>\266\263)\275\221\0017>5ru=\257\351=\276\365\202{\275Hsk>1,1>\340\332R\275z\353~>\034\031\r\276\377\2413\276\232\304 >:\020\322>\343\242\272\274<\255k>w}\235>\304\'[\276\323\276\031>\240\336\n>\262\227\211\275\230p\205;\260\262\312<g\345\033>\262\341u\273\232q\023\276|H]=-d\r\276\243\316{=5\244m\276\266\376\036\276\r\006\005>\246A\206\276l\355\013>\263\344N?I+\201\276\244u\203\275\263\276\245=\266\276\033\275\235\320f\277%iR\274\213\262\335\276\264\276\211<m\332\002>\346q\331\275Y$\375<\325\267z\276\320tf=\317\345\330<7\332b>\365A\351=\232o\010\2774U\035>!* >Eg,\276W\206\035\275\342\371\016\275\253V\307\275S\345\225=\310\001\224=\301=\241\2751\342\006\275\241\342\273>hYY\276xT5\276\231\323\014?\rFO=\347\257H>\2264F\276Q\027\223>\347,\214\275\353z\034>\245\377\246\276\204\004\321\276\371\312\264\275\r\265\320=(\200\307=-^n>\022x\262>)\300C\277\031D\352;\330W(>\220\251\277\273\303\021\027>\232\2318<N,\242\274\035\377\206>\256\267\263>aQ#;c\332\213\276\215lF\274;\324H>^\250g>]\203\r=\374r\342\276H\373\222><\245\227\275A\235\033>\340\264\347=\231\365\007\277\301\266\236\276\271\347#>\027\t\255=\304j?=\332\264\245=\331\333V\277\377\354s\276\022S\351\275\220\000\261;\342\342A\276X\003@>#\267\311\275zx\221>\211\t\261>y\223\226\275\314\026\005>\275\343A\276\233m\006\276zm\315<h.\200:\247\033o\276Xl\\\274\244M\336\275\274*\360={BM\276\347\263\211>%?\243=\317\270\270\275:\200\'\276W\376\366>pt\365=\266\366\352={\005\233>\346\363\216>\326\222,>7`\213>umy\274\252c\002>\300}\326\275d\272\305<\216tC>\213\333\006>>\271\010=-\331M\274H\334O>0\345x\276M\276:=@\274\026\275\024\276\345<\203[\375\275\352p!\276\211\201\233\276\3009\263\276\rTE=\0240@\276[\203\206=\035\3654<\325k\277\275\r\024\261=\245G\207=\251R\254\275\376\216N\276\212\030\346\275\221\3168\274\227_{\276\356\350\313=yt\032\2750\226\030?\305R\026\276J\002\304?\005\233.\276\367\261\007\276\330\177\203\276\215\205\274>L?\351<\360g\206\275dq\271=\007/\344>\002\177\032\276\3172`\276\360t\'\276\364\342@\276\272\222\005\276\004\206\333=\363\3742>d7z>\244\274n\276q\215\346\275%\014\007<(\021%?]\243\034\276\021\0317>\357\002\343;c\322\336\272\272\267L>\345\266\316>\311\024&\276\031\255i\276\030\274>>\232\034\320\275Dze\275in\205\276\227\263/=:[\242=\177~\223>\222\254\305\276\316\026\310<\030\274c\277-\365\332=w\247b\276w\tv?{\2372=\203\341\255\275>d\204>\210/\026>#i\243\276\204$\344\275\320s\202\276\2570G>L\267\306\275\353\242\023>\270\003\247\275\205\326y>d\245.\276\n\345\375\275\224\336\374\275\374\344\217\277o0\'?\207\037j>\233\326\'\276\334|X>\005.\325\277r\021\332>\341\035\023\300\360\341^>{H*>4,\001?>\227\307\277\352)\017>\037\201\361=O\032:\276N\321\222\2756\317B>\245\006\377\275=\310i\276\354<J\276\300J\252\274\202Z2\276\r\036<\276\370}\002>;j8\276\024\352w\276\376\264\023>\253\265`\277\223\324\246>\034\204\007\276?\235%\275B\351\013\276\2013\345\276+\037\035=E\2627>2\253=\275c\345&>\375\344\006\276\207?:\275\260W5\276\222\030F>\016_)\276PkC>\253\2373>\352\253\037\275\327\r\207?\024i\273\276;\266\374\275\\\207&\276\235|\333=;\364\266=\234\252#\276 \216[\276N\177\206>l\013\217\275\035\254y\276\203f\207=e\273\307\275B\322\225\276\231\033\020\276\216\237\240\275u\373\n?/P\326>\010\326\320>\261g\323?\357.K\277\351\313~\276\023\030\364\275\200\031\365\275\225\026\027\277>\017\273\274$\273-\277caK\275#\207\032\276\"a\222\275\310\004K\277%\301\266\274\242j\211\275\217\000h=\331\\\362<\356_\n<\242J\264\275\001\3629\275\362gA<y\353\304\2758F}\276\341\351\266\276e!\200\275\2134\267\275\345p\025=iS\255\275\013M9\277\360{\036\275\245W\356;\232R\177<Z5\220\274\267\014.\277\3065\244\2746\033\206\276\316\365\203\276\241\016\274=\037K/=\250\313\r\276\366\356\206\276\231;M\275k\261\020;\326\265~\276\322\247\314\274\271\370\251\275\333\270\226\276\232\206\233\276\021\370\321\275\002\236p>\"\264\204\276\363\254k\274\024\010\301\275`,\221<\215\344\265\276\254q\010\276\273\246L\276\354\255\207<\335\365\303=S\260;\276\360Q\305\274\rem\276\217iN\2763\330-\276\006\024\222\276\367\365\r\276&\313\005\277"
      }
    }
  }
}
node {
  name: "FCN/input/MatMul/ReadVariableOp"
  op: "Identity"
  input: "FCN/input/MatMul/ReadVariableOp/resource"
  attr {
    key: "T"
    value {
      type: DT_FLOAT
    }
  }
}
node {
  name: "FCN/input/MatMul"
  op: "MatMul"
  input: "input_input"
  input: "FCN/input/MatMul/ReadVariableOp"
  attr {
    key: "T"
    value {
      type: DT_FLOAT
    }
  }
  attr {
    key: "transpose_a"
    value {
      b: false
    }
  }
  attr {
    key: "transpose_b"
    value {
      b: false
    }
  }
}
node {
  name: "FCN/input/BiasAdd/ReadVariableOp/resource"
  op: "Const"
  attr {
    key: "dtype"
    value {
      type: DT_FLOAT
    }
  }
  attr {
    key: "value"
    value {
      tensor {
        dtype: DT_FLOAT
        tensor_shape {
          dim {
            size: 64
          }
        }
        tensor_content: "\016\276\3067\23517=Pz\321\273\347s\354\276\233\266\003?\031\252\314>\306\266c\273\033Q\202\274\201\000/?b\0162\277\361\201\023\275\223\321\2719\364[\325>\006\236y\276\273\t\252\273\316s ;\255\230\230\274\226(\331=\241\3413\276\304\372{>d\336\273\276\356\355\207\274\213x\003\274S7i<-l\234=\311/%\277b\2733\277V\020\305\2721R\026\273\215c\323\274c:\200\277\010\316\215>\031\277\222\274\324\365\032\274\311\035\272<\376\316\346\272\013\0065>D\350\214;\263\346T=d{\360=\220\374\343\275\343\300\025\277\231\210\200\276\030\255\216\277&x\303<\362\001&\274\327\r`?\305|\312=\227\346M\273\250\314\247>-9\201\274\272\300\316>\\\036\231\272\300\335\335\274\245\363\206\274\2470i;H\323\031\275\352\243\301=\251B\027\277\202\210>>\304U\013\276\035\335&=\377\341\310\277\262\200\034?"
      }
    }
  }
}
node {
  name: "FCN/input/BiasAdd/ReadVariableOp"
  op: "Identity"
  input: "FCN/input/BiasAdd/ReadVariableOp/resource"
  attr {
    key: "T"
    value {
      type: DT_FLOAT
    }
  }
}
node {
  name: "FCN/input/BiasAdd"
  op: "BiasAdd"
  input: "FCN/input/MatMul"
  input: "FCN/input/BiasAdd/ReadVariableOp"
  attr {
    key: "T"
    value {
      type: DT_FLOAT
    }
  }
  attr {
    key: "data_format"
    value {
      s: "NHWC"
    }
  }
}
node {
  name: "FCN/input/Relu"
  op: "Relu"
  input: "FCN/input/BiasAdd"
  attr {
    key: "T"
    value {
      type: DT_FLOAT
    }
  }
}
node {
  name: "FCN/dropout/Identity"
  op: "Identity"
  input: "FCN/input/Relu"
  attr {
    key: "T"
    value {
      type: DT_FLOAT
    }
  }
}
node {
  name: "FCN/dense/MatMul/ReadVariableOp/resource"
  op: "Const"
  attr {
    key: "dtype"
    value {
      type: DT_FLOAT
    }
  }
  attr {
    key: "value"
    value {
      tensor {
        dtype: DT_FLOAT
        tensor_shape {
          dim {
            size: 64
          }
          dim {
            size: 32
          }
        }
        tensor_content: "\316`E>`3_\276\305Z\r>`\251\375\275\257\347\n\276-\3774>+\0131\276\211\206\037=VA =i\024#>\236\347\213\275\270/z\276\323\017_\276\326\n\032\276\326Q\t>A\037|=\223\267\004=\353\036s\276\250\242\361=_\265w<]8\375=\020\271\024\276X7b\274*\304\255<\024w\033>\324\350Q>\317q\266\274\362q\021=<\353]\274\030\204.\275j\312q\276\225\3774\275R\035d\276=\r\305\275\244\n\221\274S.\333\274\355)$>\031G\014\276\377\207\214\276\236y\241\274t\365\271\274T5{\276GA\334\275\244=\246<\230\211\236=5a\253=Qm&\276\031\355\353\274\306\263\371\273\370\377#\276\253\204\035=\3123\337=\270\030\022={v\255=*\370\034\276\374\0234=\235\013\016\276e\363\272\274\232\346\n\275\315\207\317\274P^\334=\376\371^\276b\264\260\2748sG=\336\324\000>\267\023\215\276\034\261-\276X\224\232\2756&\343>\205\212\303\275\366\223\372\275\tT{\276\036\016\242\276\267\216\034\276\347\024\207\276\376\251D\276\362kZ\276p\330\251\276\021*\211\276\203p\212>3SV=6\306+\276\373\251\345\275\203\200\256\275g\366\r>@B\242>\344/\222\274\343f\010\276\262z\027\276{R\240\275\365\305=\276\376V]\276\247;\227\276S<\271\273=\035\255;\017\005\006>\262\2562=7u\360\275XN]\274\343L\375\275\216LJ<\343\203\272\275D\257Z\275\363\036d\276\237D\351\275\244\335g>\023\024\374=\263\264\027\277\337\344\032\276\236\241\323\276n\252\302=\224\332\030\276\350\1772=L@\001>\247-o>\363O\325\274i\317x\276\323#\355\275\016\0072>\203\340\005\277\257\355\">B\017.>D#\242\275\202a\247\275\235\213\014\276\216\246M>\232L\366\275\314\333\t\276\244b9\276\347\214\200\275\321+\277=\315zm;r\334\233\276J\210\222\275y\374\020\277*\025>\276\214\310\034\276\337\363\247\272~\261M\276\2123\220=i\007N>3t/\276\216\350\r=\006\335\335=\302\276\007\276\222\322\332\276\313\373<\276X\327\211\275\255\3643>w\312\257>\242\213\001\277k\231\266\276\340\240\342\2766\311\232\276\255\t\216\275o\304E>DO\221\276Q\303\265\276\346{\246\274\350DY\276\216\017\252=\330\256{>\020r$>\2349\351\275\367\343\267\273\034Y-?\005\272\272=\223\301\234\275\013\023\206\273\335\273I\276\366\247\277>\260\272\"\277@\200\303\276\233y\301\276q\214\236=-m\265\276<m.\275\010\000V\276\267n\332;`\\\200=\371\013\255\276\326\347%\276\223\366\037>\022g\370\2769\031\235=\307o\263<\305\320\247\276\265\027}=Q\n\305\275\001\271\234<\331\347\302\275\236\300\036\276c\026@>\020h\022\276\300-\260<C\204\'>\261F\316=\333\343\233\275\271t\326\274\306\205\371\275fX[=a\032G\276[\244;\276\265\366B\276\363Z\014\2769\033\010\275\3437y>\230\216\177\276\r>\315\275(\301\377\274\232\020\n>#\241)\275\321\025\233\275\363@\366\275\006\326\031>\030pF\276\177\344\022>\311x\033\275\323lf\275qJ@\276\003;_>\344\002=\276\342\t\037\275\302\036`>\236\261U\276\232t\256=\254\'R\276art>\376\373w=\323Y\031\276U\314\245\273\362-\311=e\007\022\274b#\207=\000Mq\276\013<\013\276\267\377\203\276\221\'P\276\356[`>-\231\010\276F\276\232:\322\345R\276\324wD\276{\277_>\241_P\275co\203>r\303\234\275\206\274\026\276\001\366\000>\003>z\275\013\023\016\276\"\372A\276H\\\200=!a\265\275\317#\312\274\254C\002\275\374DJ\274\315#\205\276=s\211\276?\216\037\276\2661\220<!i\212\275\261e\345\276S\016(\275#C\t=\213\215K=*\215\212\275\222\254\026>~o\350<a1t=\rk\010\2762u^\274\361\225\023>TC\341\276\340L\244=MX\276=\222w\355\274\330\276\017=\3458w\276^\366\307;\376\332M\275 4\277\273\264\344\016\276sh)=~\274(=\205\005\177\276w\320\217>\261\275~:\210e=\276\364\356\346=\251h\226\276\207O\224\275\242\014\241=\334a~<\340\313_>D0\361\276\314\217\"\277Y\343m\273|m\000>\225\022\365\276[\2510\276,\363\343\276\301\322\201\275\216r\255\275tQd>Ld\261>\017\255\351\275\216/2\276\203\371\215\276\2631\000\276\255C\251>}\212\341\276\367\034C>(\230\014>\254\2263>\251\034\353=\244xR\277\335`\374\271U\313R=\032\010\332\273\213&\017>\343\232)\276\306ZO\276)uf=\024\241\210\275k\013\272\276\254\222\222\276\3049\314<\007i\253\275\030\222\r\276\021N\277\275\210\222\226\276\356\301E\276\367h\303\275\"p\324=\222\207\362=\006\3633\276\0228\217\275\223\003\231\272\306\3614\274L\334\367\275\252\374+\2756\034\311\276\361\337\270\275\307{\336\276\2355/>`m\340\275\246\215\036\276\216\277\377\275B1V>[y~\275\334\216s\273\222H\033\276\343\345\337=nO\007>W\315b\276\236\324X=\350!\243=\314\271\322\275\330\251\220=7}\210\276\2565\321\274SG->\206J\244\275\332F\367\275\3320\207\274\3160\301\275\324\214\r\276e\0249\271\2014\222\2760%)\276\007\261\265=\t\321\264\275\322\240\341\275e\226X\276\036\001\257\274.kg\275f\0010\276\3543\025\276RFw=\231\236\201\276Kyj=2G\003>\255\347r\276V\217\330\275\374\354\027=\264\234/=\355\247\247=\003\360d\27517\224\27557\244\276\215\267\001\276\2146\023=\350\263\346<\n^\356\275\022Q\037<\264\253\203\276\253\034\373\275#\215\331\274\230\363\351\275H\357\202\276\0021I=n\231\022\276\341AC\276\362\'\356\275\374W3\276Fs\253=3\301K\275\353\005A\2761\037\307=\033\022\274<\020\303M\274\326\261\242=\336\201\342\275vt\026\276!\016]\276\037a5\274I\325P\274\362[\222\275\200\371\300\275\234_\207\275\374)%>\311r\341\275M:D\276%p\341\275\363\226\321=.\267\034=c7\311\275\032\2519\276l\3335\276MiE=\341\213\203\276\004\227\370=\241;\200\273\212\242\257\276}\225\244\275\030\227z\276\241\247\217\274\331\242\034\276\223\372\267\276\025Y\205=\001lP\276\256t\375<]\351|\276\213\306\340\276O\353\306=\305\341\233\276\257>\212\2761\304B>\203\307b\276\022\365~\276\243\341\023\275\214\315O>(\221\201\275*\322y<Pt\202\276P\270D\276t\022\322=\217\303\177\276\224\r\261=oT5\276\260S\017\275(O=\276Zo\351=\311\244\327<\346t\203\275*6==i\311U=C2=\276\250\331\"\276fI|\276\010|\036\276\357\321\231=\304\355\214<}\315\345\2757\235}=\232\004k=:C\037\275\376\026)\273&\325\020>(\376\"\273\237\255\245\275\007F\264\273\036\260;>\311\305\031>\032\303\210\275\032\221\204>C!\234\275\346\371\026\276Py\241\276Zw\006\274\212\274#\276P\315\362\272)\211)\276\030\036t\275;^g\276\225\373\241\275\361EF\276\001\265\254\275\241}I\275\242\241]\276\223 \004>\\\001:\276\275\311t\276.\335\350\275\305\321\236\276\2100R\275\343\234\230\275\240\323\246\275\367\331c\276\340\303R=\210.\001>\213P\022>N}6\276\'9K\276o\2608>W\000\003>\252\327\344\275\265\333\240=}w\026\276ZOu\275\246W\200\2757\353\250\275-\244y\276%VQ\276\267\364\305\275\330\336T\276\231K\213\275\205\307z=\025\233\264\275\215BF\2769\317\202\275c\372\n\275n\\t>\245f]\276\3246\306\274\234\326\335\275M\347\206\275\246\356\314=\221Y5\275\365\006\211\276\354\036\276\275\337\021\236\275\352do=\333\203Z\276>\212\014\276\211\330\205\276\274\340\200<\'X\201>\230\274K\276\221\031\333\275\225\306\205;\271\317\204\276\222\360t\276oW\246\276\000E\337\273\'V\237\276\000\301\026\276\311d\031\276.~a\273\315K\037\275\367\034N\276\031\014\204=a\212\335=\034\317/\276\021\266P>\321S\214\276G\340\350\275b5\276\275\363\356\374\2757\217\360\275\242\261\206=\210(\231\2765C\337\275\263:\203=\205\201\261=^\226\246\276\333\343\262;\316\367\330=\326R\277\275\223\245\t\276H_\231<\356\340\240\274_n\265\276\223y\030\276\224\323\'\276\025\363\021;\026{\240<S\275-\276\321\271\211\276\n\221\333<+\254\027\276\023X\014\276\340\324\036\273\326:\236=\036\332\025\276\n*i\276F\334\240\276\212Eg<\312\353\233\276\270\234\020<\272\204\320\273t\3745\274\"\346\021\276\230x\206\276\276q\206\274\247\373\227\276\331\021\007\276\021\347(\276\016l\213\275\035\364\223\276\010\275\021\276\203\347s>N\210\241\276<F%\275\267\225?>m\341\201=h\357\355=ts\036\276\\\010\201<p\022q=\377\227\376>(\206\206\276\017\373\356>|Q\356=\022\006e= \255\201\276fw8\274\007AH>&\304P>*iK>~\202\340\274\324\350\306=\206\\\260\275,R(>\320w\354=\344\020\007>\217\342\211<qlN>\200\224\t\276-\244,\276J|\374<\241\306^\276p\003Y\276#\352\372\275*S\326<\2752]<B\331Q\275l\004Z\275\276V\363\2754\r\345\273\255\324\372\274\374ET\275\220\366\030\275\232\307<=\275t \275?\201,\276\231\370 \275\357Y$\275\356\307\223\276U?\247\275\320Dk\273\255\230\025=:\331\203\276\030|\305<=nX\275\034\004\214\274\301\235x\276j\357\316\275\305\247\301=7\266\003\276 X)\275\035-@>\373\232;\275\332@\324\275\230N\341=\357L<=\230LX>\340\203!>\263\304\243=]B7\276\345\027\272<T\'\n\276\332\2740\276y%j=\037\036N>}\262R>^\200W>\013\024y>\203\220\020>\235\214\320={\230|<X\203\005\276\376+X>\335$\341=\257\3203\275i\021\006\275\324\243\253=\243$\225=\017\336S>\024@S\276\036\035y\276&\3322\275bkR\275!\257i>_\366N=\265\257$>\000\246\251\275x\250o\276H\312D\275\337\210\014>\307%\225\275\003\266\030\276\252\375n\276IF*\276IX\313=\007L\273\274\031\247\007\276\367\245P\275\321\357\257\2752\366b\275p\267\332=m\377\327<{\000M\276w\200c>Q;\\\276s\304c<\002\200\212\276\307\206\377=\310\224\013=\303Y\014>@\334\254\275\250\026/:\314\350q\275\003\230\n\276\246\'B\275@\262\021\276\007\225\216\273\273f\246\274\247W\211\275i\211@\276\002\271\001\273S)Q\276\377\005\314\275\247X\244\276J\017]\274\272c\202\276[f =\270V\363<(\264\005>h\220\177\276\323\032\200=\356&\241=n\274e;Y,\241\275\205W\230>k\253s\276FLZ\273o\321\202<PM\212\275\014\0007\276\250\341\234\275\026e\2649\346k`\276g\343\224\276\216\2135=O>C\27648\031>s\032\226\276\265\260<<r7\230\276}\031\223\276\305U7\276\005\324^\2746X\222\276Fs\236\275S/0=+qV=\266\206 \2759\027\032>0\336\220>\374\335\363<\252\r\334\274\220\217)>}\270\303=D\242&\276\355\307\363=\3612M:\373:\213=a\000\332\276I\333\261\275\017\352\274\275\005f$\274\334\345\276\276U\270B\275\301\203t\272\024S\213\276\243_3\275s\220d\276\224=\024=VE\026\276m\214\364\274\360\330p\275\221\3441\275H\240\254\275\222\376\203\275R\227\374\273Nb\336\2748:\026\274\237\313\267\274\354\206\010=d\347>\276\241%\214\276\330OL\276\366<\327<\222\252\300\276if\316\275MAC<qT\207\275\323\375:\273r\252\341\275\350g\204\275\325\025b<\336\'\247\276\202\273\237=\371\2027\275\210;\257>Lq\201\276P\2674\275\023\350\371;GU\261\275\322\200m\276\004s\035=OY\006\276\307p2\276@\350\031\276\376o\301;\375\001\016\276\334\231x\275bk\234>\215\207\307=HO~\275\224\007\353<\360d\335;\332^\252:T\372\252>\322\\\021\277\r\216\264<\321\332w\275\254\327\000\2765\310#\276\221\010\033\276\217\345\016\275\003\233\262=\037\030\r>\207\366\331=\217\025\024>\030.s\275?\257\230\275\rz\303=\304\266)>\3722\236\274?\261\233\275\316[\230=\243\325\262\275\236&K\274\274J\203\276\334(\000\276s\202x>\233\270\372=\216\214l\276\233_\376=A\253\006\276\313*\254=\257\r\205\276.\334\337\273\024&v\275\n\366 \275\r\261X\276\327X?=7Z\236=\0172Y\276/j\201\276\016\033\331=]\345a\276=US>\225\217(\276\326\270\006=\366\302\252=\303\201\266;\3727\374\275\031\243\033;N\344\212>\212\231C\276w\355\326\275<`\363\275\247\350\273=\317\271?\275/iX=Tj\013\276\321\326\216>M\236\264<?\"i\276D\330\221\275;\025\332\275\005M\013\275Zy\213\275\354\363\202=05(>\333D\005\276|\214\227\276T\311:=\226\271\010>\373\nK\276\021\016;\276\r\361\035\275\246\362\262=2=2>r>\036\276\270-\221\276\343\340\226\274\215\375c=~&,\275K\270\204\275F\266\257\275p\221\300\275\026\000M>-\211\264=f)\342\275\2520Q=G\315\366<\247\351x=P\237\177\276Y\t\242=\340\356#\275\327\177\013\276\264.g>\274\010\240>\326\251\230\274\304\254\361\274.\010M\276;\033\005\275R\001\362=\330v.\276\255%v\275\036\025s=\177\277\211=<\244\242<\331\037\035\275\370D\025=\0306\262>\256[Y\276\n->\275\240\020d=\270=\244=\357D\234=\2507\254\275I\035\007>\266\244\204\275\214FC<\254\311\246\275\275\355q\273\201\021\225\275\212\260\331=\225\234\032\276\266=9\275&\233\235\274H\266\211=I\375\207<\264L\355;\302\301*=\354GJ\276\335.\021\276\323{@\2764\355\264<nY8\276W\257Q\276\351\302\216=r\014I\275\304\221\223\276])\177\275\316>\371\275\337>z7\355\372\032\276\267M$=-\270\225=s\243(\275\037!\010\276\215\340\031<l\000\376<I\355\223\276\303\270\226\276c[\204\275\207e!\276\241\016\365<\206\265(\276O\353\240\275\010\235%;\357\005\270>\2401\305\276R*\212\276\323\234\254\276\030)\271=(\033\025\276\351\264\033\276\036\202i\275\275\233\217=DdY\275>dr=\344m>>\177\232\356\274\311C`\276U$f\276\333\320\033>\005e\341\275\245f\034\277\222\002r\275W\254\223\276\032\217t\276b`\246\274\007\375\010\277\245\324\312\275\257\267\010\276P\256:\276\032D\231=on\022\276\247\300\270\275\343\224*\276\310\004~>:\351\213\276\335\372\022\276\314\301\253=\244{\257\275(\301\307=18\226=\300\216\207\275\353\007\216=#\370\033\275^\273D\276A\016\020\275\224r\233\275\327\232\334\275\t\220a\275<\360\214>\273&[\276\r\217\005>\336\376\325<\346\025\251\275\002\223\312\275Y%\245\273T\202A\276%\244\225=[\004)=\360v\273\275\331\264\335=\331\0272\276y\006;\276\033\301\034\276\007\017\220>\253-\024\276o\201[\276|\276\252=\352\362f;\242\220\307\275L\001\330\275\201\235C\275\205/\200>\207\010\023>\232\025W>\356)\212\275\244[L>\366\234\023\276t\263\305=\216\357\270>3\007%\276\010w\344\275\370\366N\276\262 \213\276\320\203\350=\243\021)>\033\326V>d\2666=\357\341\035\275\240\033\026\275{\004t>\333\233K\276\315\036\236\275\274`T\275\325h\211=x\017\216\276\322\3703\276E\254b>\3302\245\274)\223\020>\362\320+\275Z\341O=\336|\346<\266%\373=\200\234\000>\251\215\352\275Jn\300=|6f>\363>$\276O\245\224>\355\246\032>\365\330\236\275\316\260`>\326\231\021>\312\362 >\325\334q\276Z\221K>\371\243\353\275\320\027\270<\355\036]\275\352\336\r\276\351\020\237\2739\350\372<\262\363z\276\025\r\307\275A1\366\274\326\351\327;w\013\032=e9?\276n \214\274\204\332\177\275\034\247\201\275\033\213\253=\377\031a\275\204\376\033\275a\236\227\275\367u\020\276\326I\002\276\n\360s=#\004\010\276c\360h\276tn\036\274\267\331\260\275T\216\206>+\221\335=\220\361m\276\225\221\017\275\345\373\270\275\207\356\234>n\313\260=\316M\026\276\223\354*=\202\260s>\376\325h\2769\035\362\275\212\345U>P\224\233=cVx=m\336\233>N]\330=\177\241\353=\321$#\276s`B=\277#_\276\270\'O<\253\340@>\023\277T>\0105A\276D\n\307\276\005\371\237>\237|\352\275=\037\213>\2464e\275\265ki\275\340\001\374<\354\r\263\274NL\200=\224\206\305\275\314.\004\275\251\275\232=CM\317\275\037SK\275qz\226\275[\336\270\276\002\273\344\275\205\023W\275\200\177\241>\342}B\276\310\356<\276\034io=\'\265\031>\274\022\341=D\010\375=\264\3132\275\242\321|:\333\014K\276\227\037\237=\256\374\261>Y\231\325\275w\235\204\276\2458\361\275\253\335S\276)\274\035>\374\314\035\276&\303:\275\020\265\007\276\030F^\276\021~\026\276\002\2702>\344\341\031\274\035V\203<\315H_=\212T$\276-\341\013>\311B$\276\300\264a\2761\221\355=\244H\340=\254xi\276\353 3\276\003x_\276\215\211\256\273\3749\307=\314d!\276q\2149<qiE;\023{\207=\310\010F\276\212\275q\276N\024\000\276w\243\177\275Q`\351=.j\347\275\270\317n\276<K5\276\372U\267\276\003YM\2764\235(=\300\030(>\342S\300\275\260\270\025>\337\004\213\276\323\021\371\275\344\257j>\352\256A\276\374N\210\276\242\335X;E\177t\275\200V\216\276\274\336\226=\225\254\320=Y.\233\276E\244v\276!\376\022\276\244Mb>\"\352L=]\307\217\276\'\275\001>\204_\233>q\300\245\275h\371,\276\324\nP><\341:>\300[u\276\020\201+\276\372\303\337<\021n{\274 \273\360<1\226|\276$GL\273\327\313O>\351\265\225\276\257\020S\276\251\200H\275\032(\354<\3672\001>\'\223\234=s\032R=?\206\207=\336\tP>\033\263\007\275Y\274\022\275\341\311\334\274[\300Y\276L0 >\2370\356=\214\256\003\276\371$\234=K\037\021\275\262/\025>\245m\225=GBE\274 \323\342\275\200\r\n\277\253\200\335\276\356\203K>)\377a>\256\215\362\275\006c\006\276\337~\274\275\230\030j>r\225\014\276\032\344\212\276}\356]>\361\035\377\275Of\014\276\214)g\276F7\313=\037\221\024\276E^\300\276.\0017=1:T\276\346*)>\240\356O\276\274\025\003\277\271\204\227<\027\220\222\275\213&\251\275\204\227\n\275\201e\223\276=\372x\276\200\222\222\276W\364\306\275\r\205\272\275~n\263;\354\266\240\275I\305\242=(\261N\276\314W\201\276\266\352t>B\231\257=\214\235\032=\207(\362\276\314\257\222>/\215m<\255=!\276\036{\262\276\354\231\261=\350\314\031>\013\214\304\275\332\006\341\275\360q\211\275k^9\276q5\310=\202:V\276\271\364\270\275<j#=\025\211\336\275\003f\306<H\361\r>\345t\262=~\2711\276\336d=>p\377\250={\226\021>\223\221\276\275}d\207>\035\352\370\276\256z\020\277\001\260\001\2765\303t=[\340\214\276\274\344\227\275h\323\340\276\261\364\214<\252}x\276\037\'B\276\241\242p\275\270y\002\276\"\256\264\274g| \276[[\244\275\320b\334\276\232\217\t\276\317\304\373<\017\341\023\276jjt\276{~+=\254!\006\276\214\370S;\206\233\221\276\'\327F\276:\215*\276=\214\006\277\226\034\270=\006E\355\275\357\240\215\276\3217&\276\031\372\206\2754\272\'>\347\365\244=\342\331\224\276)\"f\275+K\273\274\300i\346=_h->\021u\376\274\303}\014=l\236\034\276Vw\000\276\370H\216\276\354d1>\241\026\322>J\301\'\275\267\352\244\276\355L#\276\221\366\032\276\347\237\271\276\247[\365\276\300\2262>\345\005p>k\211\247\276{\256\n\276\'\345\377\275\212\0271=t&\240\276[\223;\275\352\007\333\275\257fs=\036P\033\276B\016}\276\023<J=\020w4>\321n\202\276aIq\276\017\217\264>>\234F>\202\221{>\310\021\342\276d\301\004?\313\004\212>\265\267\250\276\301:X\276\221p\"\275\021/\233\275\2327\306>Sb\013<\026\217\323\274\344\3759\274\231/\230\276+\253\313=\347\3302\276.\262\225=s\267\227\275\335\231\246\275Fg\347=\203\230\322=[\310\225\275|\212*\275\004\360|=\033\210\021=\343\236S\276KR\025>\033\207q\276\242\273\220\276\365\224\252<#Z\332\275\343\3241\276\252\346\206\274R\353\022\275\225XS=S\253\217=Lx\r>Hn\266>y\253\335=\'\2208>V\033\010\275\336A\235\276\302\032C>\377\0231\276\233c\267>\250\260\036>3\002\\\275\002c\235=\300}+>[\3239>\322\026\225<\020iA>\003\257i\275\2541\005\276w\016\225>tU;\276\253CB\275k*\003\276\306\240\204\276\243F\"\276\226\037C\276\037\356\362=\3468\026?\344\214.\277\234\"\010\277T\261\355\276\234O\212>\026R\320\276\021\376\035\276\333?\300<01\220>\256\372\"=\306,|\276Z\366r\275\320*\003\276\"Z\351\276xz\306>g\256\300\276t\010\031\276\220\260\313\275-\360\311\2769\263\202\275\005\324\225\276\253l/\276}\000\267=3\242o\275\216\207P\275\345\314E>)\355o>\nY\351=\366\311\023\276\0212\202>(K\224>\354\343e\276h\241\036=\252\010\276\274\204Bp\275\315q\264\275s\021\221<\324\222\020>\007C\314<Xer\276\"\210\221=\320m\032\276e\037\204\274\322\316-\276\216&s<\000\342;>U\030n\276\276\342s\276\260/\232=U\364\\\275\350\237X>{v\270=\220\t+=\310\032\342\275\350\210\224=DY\251;\321\220F\276\303A\025>\034\253\326\27586`\276s\355\263\275z\317\020>\265\027r\276Ag\360=\033O\034\276F1\204\276\246\217\303\275\336\233\345=\350\343\000\275\2454R\276h\330\177\275f\254z\275M_d>\020\2656\276\221\203M\276\010RF\276O\300\364\275=\347b\276\221\302Y>Q\215\034>\250\254}\276\033\207\327\274K\265->\221\233\">nT\347\274\304\216\t\276\036\271\020\276z\372\304\274\220*}<\2752\036=\217.\207\273\306\362\371\274UK\204=0\203\323\275G\362\030\275\221\203#=I\017\373<.\217\337\274\272\026\r\276\241\032`\275\n`/<\016MQ\276\2479%\274\001g\305=DHv;f\345s\276m\036\343\274-B\"\274Q`z=\020\r.\277b\341\323<\225\214\261\275\346\345\271\275\245t8\276\313\251\235\276\364\017\274<p\036\212=\003T3\276\260.5>\010\253\210\276\337\243{=\316}\207\275\311\2502\276u{\331\275\025\263>\275\254#s\276\245\257\001>>\326\324\275a\254+=p\363<\2765u<>\303\306*<\307\212P\276,\260!\276=\021\006>V\033W>\016#\343\2740\2375>\255d\237=\340$\200\276+O,=yZ\004\276\r%\207>\276\n&>\3023\234\275\262\\\264\275\346\263M\276}\233\375;\312\3732>`\362\r\275\r\202\306\275\230\364\231\276\250\010f\275\307\021\312\275\246o4\276\213\244\003\276I\246\374\276\343\216r>\006\367\221<\264\362\354\274\026\243D\275\201\321?=\343\234\234\275HKc\273\302C*\276\2476\014>d\212m\276\3615%\276\263\034\022\275[[\240\275\345\252\035>P\373\3759\tc\000\276\345\346\013\274e)\340\275H\365\010\275\346\264u\276H\245\222\276ly\240\274\231\364\267\276\215\321\201\276\365\307\203\275x\331J\276l\026_=Yi/\276\324~\337\275\362\030/\276\343K\t\276\315YI=K\325H\276c\253l>\235&~>\001\3531>\267\334\342\275MM\010>\221d7\276\026\203k\275O\314t\276F\247-\276\356\354H>\030\005&\276\337\271\202\275#\261)=\317\352D=\002\354\254\274\361\031N\274\361F[>\324\326/>\231\020\214=\326\236\030\276\2710\353=u]O;\227\224X\276Y(\020\275\301\014\007>L\304\024\276\026\177\201=\253>\270>u\303\200>8\324o\276\221B\214=Hk-\276t\002\322<\346\035\004>\233\311\246=\352\177>\275\226^5\275w)\037\276\177\327p\276\020G\330<^\321\360=\021\356\276<;|\375\274\302A\317=\317\223\302=\320\254r>*T~\276\255\261B\275,\331\316=O\372B\276<\017M>a\2101>\356\307\177\276\310\376O>\374v?\276A\215N>\330\327W\275\226\2535>\273\033}\276\312\207t\275I\221q\276G\026\002\276j<c>\244\273>>\r\254<>\204Zi\274\277\003\262=\274\'$>m| =\304ZP>\333\007\272=%\207\037\275\206Kc\276\003\\\203\275e\223\336\275\330\302d\276\331\360;\275\206\014\330\275i\024Q>\347\367^\276S\214\014<)\230(>\323hp\276\213b;\276.e\315\275&\251\263;\321\215\027>\026\342\003=T\332\221\275\257?\330\275\277\317\226\276\300\207\320\275A\007\244\275\331\204\203\276\372\217\230\276F\231\202\274\014oQ\276\037\027K\275\236\314\037\276\372`+<\316\025\020=\373\"\201\274M0\334\2758\345]\276\356m\236<.k\022\276\365\264\032\275\352l\327=;\233C\276~\020J<\242=\314\275O\320n\275\204\342l\276\372\302\337;w!h\276\306f\255=\240\351l\275\006\241\200\275%\t\342=\246\200\213\276R/\036\276\321J\001\275\245V.<A\356\347\275<\007%>\002EG\276\023}w\275\345\350p\276\370\001\263\276\372~\245\275\007C(>*\375\256\275,\257\367\275a9\320\275\337\221\"<\321\327\305\275-^\276\274\23546>\311 z\276#\250\035\275\233T\350=\036\266;=e.\206>\313#w\276\220\2115\275\235\177\311\2754\214\212\276\333*\323\274\367f\271\276\326\376\"\276\371\213\234\2755=x\276\250\371\277=\373\352\374;P\256E>y`\227<j(9<\371\031z\276\235\023\206\276\376Z+>\255\216\361\275\243\274\201\276\261\014\234\275\0162d>\233\251:\276\327\375\203>/1\365\274\343mq>L\347&>\0242\202\276\221\330\'>\330\324e\276\035\233T>\372\rp=\010\025\341\275\320\226\301\275\261\242\344\275\334\016\013>h\261\222=Xg\265;\020\t\207\276V\262(\276Z9\262\275\"<g\275\356\224\001\275u\202 >\235\010\t\276\374,\263=\264\352\227\276\236\177\331<-\017n\275\335}\271<\336\014\327=\374*\214>0\364\276\275\313\351\217\276\313\243\275\275\266\300F\276\311\022\200\275\276;\005\276`\324~\276S\035`=\003\020\202\273\324m\027\276\331\031\206\276\372\264{\276\317Wz\273\242\322\344\275\340\276\341\2744cF>\354\025\212<\251\255\241\275\267\010\210=\270\336\010\276`\241\324\2766\201\210\276\340\220\335\275\365\260\003\276\272#*\273O7\214:y\022\312\274\032\006\336\275\312N\363\276$z\214=\245n\350=\016\250\004<Y\360\210\275\325\251u<?B\035>W\363\217=2\267\245\276\274Os\274U\201\237\276\024\270\216\275^Q\021\276>l|\276\300\305\240\275\034\005x=\302\224\005\275)\272\315<\233\354#\276,W\317<HrP\276K\206Q\276y\177\344<\037\007\240\276\343\207s\275g<3\276\004t`\275T\253&\275|t \275\256\375-\276\263\223\204\276\3710R\275\356>\036\276\272L\256<\024\237/<Tue\275)\232H\274\001_\251<\357\333]=\326\260\304=\244\237\266\273\204\2228\275q\370\252\276=;k\275\024c\225\275\337l\210\275\216\364\020\275V0!<\351#\355<\022\261\231<U\212\251:>6t\274l\340\355\275\267\231\007>\213a\332;4\305X\276\216\207\210\275\375\211&\276\240E\274=\245\334f\276\371\356\036\276v\024\262\275\032T<>Fmv\276\026.3\276s<\320=\235G\006=\351\006\215\276y*\204\276\230no\276\277~\203=\237\362\">W=\250\276\311\222D>\037\357>\276\267t\342\276\033\277\202\276\361\256\224\276\010rx<\221\276W>\213\256\204\276\262\267\250<\375\225\230\276i\324\013\271\333c\317\275\226\200\242=\374\342\311<\306\333\207\276\334\\w>\245\314\360\275H`\362\274s\226U\277\2413\207=o0\230\276\220?+\276\246\353q\276\372\346}\275\036I\227>W\177\214>bJ\301\276<\265\267\275\225zW>\220\230U=g\275\226<\017Y\360\274mgS>\003.\016\276\000\224\"\276\301[Q\276\026G\351=\367\312\237\276\276\364J\275\263\275\014\277\223\031\325>p\234\036\276\345\336\345\276!\323\002\277\203\2112\274\n(\257=\214\264\335\276\230?\211;U\"\331\275\245Y\267\273\201s\343:\241\215\217\274\207\022\223=\013?\202>\025q\205<\201\022\241=\324\037\221\276I\324\336\276D\336\337\274\213r\266=h>6\276\370j\321\275L94\276\317\200J=\241\326\341\270x)\324=\220\374\260=\367E\003\275\314\354;\275j\334\'\275V\346&\275cd\006=\254\326\247\276\341m$>\265\300#\273\0329H<fx5=F&3\277\202T\335\274]\211\347=OT}>"
      }
    }
  }
}
node {
  name: "FCN/dense/MatMul/ReadVariableOp"
  op: "Identity"
  input: "FCN/dense/MatMul/ReadVariableOp/resource"
  attr {
    key: "T"
    value {
      type: DT_FLOAT
    }
  }
}
node {
  name: "FCN/dense/MatMul"
  op: "MatMul"
  input: "FCN/dropout/Identity"
  input: "FCN/dense/MatMul/ReadVariableOp"
  attr {
    key: "T"
    value {
      type: DT_FLOAT
    }
  }
  attr {
    key: "transpose_a"
    value {
      b: false
    }
  }
  attr {
    key: "transpose_b"
    value {
      b: false
    }
  }
}
node {
  name: "FCN/dense/BiasAdd/ReadVariableOp/resource"
  op: "Const"
  attr {
    key: "dtype"
    value {
      type: DT_FLOAT
    }
  }
  attr {
    key: "value"
    value {
      tensor {
        dtype: DT_FLOAT
        tensor_shape {
          dim {
            size: 32
          }
        }
        tensor_content: "\202\256m\275>X\223\274p\010\213\275\n\2118\275\236<\\\276\357*\276\275\317\020O>\237\221}>e\365\247\275\001\030\005\276\235\334_\273\331A\332>\366G\247=\265B\373>\327\240\307\275\006\271\017>g\274\313>\270ll\276\241?M=\34030\27671j\274\316\332\025?\213\t\005\276\036\022\031>P\342;\275\371\246\347=\024c\036\2759\265\247\275\002\357V\276\037\264\227=\233\210J=\254\227\000\276"
      }
    }
  }
}
node {
  name: "FCN/dense/BiasAdd/ReadVariableOp"
  op: "Identity"
  input: "FCN/dense/BiasAdd/ReadVariableOp/resource"
  attr {
    key: "T"
    value {
      type: DT_FLOAT
    }
  }
}
node {
  name: "FCN/dense/BiasAdd"
  op: "BiasAdd"
  input: "FCN/dense/MatMul"
  input: "FCN/dense/BiasAdd/ReadVariableOp"
  attr {
    key: "T"
    value {
      type: DT_FLOAT
    }
  }
  attr {
    key: "data_format"
    value {
      s: "NHWC"
    }
  }
}
node {
  name: "FCN/dense/Relu"
  op: "Relu"
  input: "FCN/dense/BiasAdd"
  attr {
    key: "T"
    value {
      type: DT_FLOAT
    }
  }
}
node {
  name: "FCN/dropout_1/Identity"
  op: "Identity"
  input: "FCN/dense/Relu"
  attr {
    key: "T"
    value {
      type: DT_FLOAT
    }
  }
}
node {
  name: "FCN/dense_1/MatMul/ReadVariableOp/resource"
  op: "Const"
  attr {
    key: "dtype"
    value {
      type: DT_FLOAT
    }
  }
  attr {
    key: "value"
    value {
      tensor {
        dtype: DT_FLOAT
        tensor_shape {
          dim {
            size: 32
          }
          dim {
            size: 16
          }
        }
        tensor_content: "y\231p\276\356\274\245\276\362\353x>+\305\214>\235\304\273\274;\230x\275\347@\333\275\2533\230=\245\230\177\276P\330\244>r\366Q>\311\212b>\312\327n>\263N2\274\376\311\206>\251)\035>\217\362 >\350\277\021>\314\262\203\275\023\345\273\276k\242\331=\362K\205\275\300\356G\276BJ\345\276\211qR\276y\241\376\275Y\233\373\275\327\261\365\274\331\346\330\276\014.\251>>\272y>\361\343\202>\366\341\347=}\021\034=\214\004\316\276\014\354\270\275M\212\357=W\257Z\276\255qn\276^N\264=\305\342@\276\343\t\253\276\007\nB\275w\346\246\276T\326u\275\265\231\377\275\227\365\241\276\307\205V>\245\314\211\276\'\303R\276\362=R\276\263f\242\276-N\013\274\313\221\022\276vL\200\276\214\247S=a9\323\276\351S\266\276\345\361\257<\323\216\266=\t\315\306\276I\271\036\274(\257+\276\005\330\364=\264R\201\276\032\276\364\276#\343\306:]\237\230=\321\360\266\276)\215K\275\372\224\023\275\335\306|\276\342\332\337<\013\267d\275s\364\005\275\376I\366>\273\313&<\001\201\265\276\361h\363\275\212j\255\276\225\227\260\274`\320\022=/}\202\276\324\274\250\275\246\020->E\177\222\275u\232\344\274\265\277\263\276\002\204\000\276\232\353\355\276\212\263@\276QP\243\274\371U\263\275\367\243#<\r\340\312\275@KC<bO\234>\346\370\275>\341\373 \276\303\327\207\275\367\231\010?D\243\350\276_\000\230\275\225\2073\276\345\261-\275\036\275A\276U\317\243\276\306%\336\275\315\364J\275\225\261\300>\277\235t=51\034>\337\306\235\2766\342F\276\267\207\301;\341\025r>i\274Y\275\346\"G=\322\3115>N\3532;\311\016\253<\247\2103>\025\205\261\2763\"\350>\035W\275=$9}=\337\'\254=|\326\251\276\234\030\336\276\223\362o\276#\347x=\033\365\217>\205Q\026\276\222R\031>C\214\242>\021\273\221>\242\273 >\344L\265=\010Q\222>\346\306\231>w\tN>L\332,\275\273Z\250\275\323\2645\276mak\276\320P\022=\246[\323=\347\357l\276\2154^=\213\027\345\275\3077\016\276\215n\216\276\221j\354\274\327\257\272=ars\276\320\352\350\275\027\363\307\276\234sv>\320\245h>syU>\026?\035\274\302\305c\273q\036\214\276\276\n:\274C\317\321\274G\"u\275\231%*\275\0266:\274\003\033\277\276Y\337\202\275~1\370\274\315Q\202\273o\226!\275\324\251\343\274\302\210\361\276q\360\206\276\275\252J\276[[\276\276\327\347\246;X\351\374=\263\355\024\276=/\220>\331\264\020?\3517\211=\2778\003;\250\030\">Y\3561>O\361\327>\351\306\023?;\026\243\276\030\221\304<\r\357\200>F\0069\276:F\357\276\207\252\260>\264\265k>\372\244Q<)\032\273=\374F\266\274\233\327\227\273\313n\215>\004\336\312>z\351\221>\373p\200\276u\201\351:\307T\265<\231\324\346=\240L2\276\356W\257\276Q\215\303\275\225\270\004\275s8\323>\352!\230\275\204\"\274\274\3565\304>\310\214\214>\2547\032\276\031b\276>#Q\312<A\273\033>wY\357>\323+\252\275t\273\n>\216n\262\276W\002\033\275\2728J=\030\345\345\275+\311\264\2753\202\333=7k\221\276\221\372\300\274\006u\223\276\031\023\306\276v\265\353\276\313\320\337\274J\242\323\274O\213\234\276i\003 >\213\301G\275\321\231\234\274\363t\207\276\014\230v\275\227\337\327;ov\335>\377\241\243\275L\\\215<Y\351\270>\247\251\271>\035!\313=\362=\324=Z\315,>^\257\372\274x!\004?\n\353I\276\341#\251\2756|\253\276,\177\n\277\207RX\276}k\242\276u\002s=A2\004\275\342\221\271\275M\247,>\326;\244>K\314->\035\336I\274\217Zf\276\373\377\355\275\243\346\033\275\325\325\010\276\021r\226=\211B\242=\244g\335=.\271\331=8\363\320\276\375\026_\276\244\377\242>\207\230b\276?m\261\274\225T[\276\320yO\276\025~\201\275\364\341\311\276\007\255\r\275\007O7\276\225\022\313=\177\272D\275\326l\271\276\230\360\273=\374g\354=f\341q\276\3700Y=<\227^>l&n\276\201\362\345\276\331\331\241\276\244\222\026>\350\3125=}&\260\276\274\326\233\276\230\257N\2768\">\275H\nW>\\\330$\276>Xl\275\226\326`\276c\034P\276\334C\201>J\000$\276\275\274\266\275\252\202B>\356]}=\2701\225\276t\367\303=\322j\177=\023Y\304\275\363\272E>E\244F\276-\216\235\276\255\350\273\275\025\265\214\275\007h8=e\035\217>A\333\372\275o\206\257\274\345\364\310=v\r\217>\0302\333=8\n\301>\014\311>\275\330\'\271>U\207\337=i\343\230\275\341\257\252\276\306\225\335>\267=\200\276\265\230\320\276\246r\237\276\255pV\273\331M\253<\374\202\230\275\001n\304\272\373\001\036<\202\3619;{\304\254\273\313\307z;Q\202l\272o\356??f\271\262=\260\254\033\276J\244F\274\322\323\216\276Y-\375=\037\365\022>\321\031\302\276NpD\276\177s\240>_^\307\276\2603z\275\241\224\027=\322\025\357\276-[<\276\226\315\234\275\230=\343\274\"L}=\264\200N>7+\316\276\362 \013=g|\355\2751\023\207\276\326g\020?\271\373\373\275\257\026\314\275h\341\356>-\002\370>6/\301>\202h$?\202\276\267>\366\261\327>\372!#>D\273\334>!\014\274\276\234\313\026?t\212M>g\005\215;\020\"\244;\005\277\376\276p\034\220\274\351\361\354\272_:\321\275\352e=\274\r5\210\275\355!\260\276\002\343\002\276\230U\323\275U\365\255\274\273\314u\275\300\336\007\273\227\257\005\2770\020\240\276\006\226l>\372\206N>x\250\307\276e\365\343\273\030\234\206>q\325\\\276\221g\365<Vs\237\275\363\236\201\276\347\302\001\276\310]\300\275\200\233A=\325@\225\274?\363K>r\007\221\276\002f\237\276\341\302\370=\342\205,>z\357\216\275\346\300U\276:\010\234>\tM(\275\251\347\212\275\205\227\244\276\241z\'\276*ie\2769N\270\276\206W\307\2746\315\261\275\335\'\202>\ne;\275\016a;\276\371s\222\276\360w\031\276\001\'\315<\t\016Z\273n\336\223=2\2339\275A\252F\276]\033\003\276u\356\212\274\251\232Y>1\255T>c\'f\276,\247\021>\263\016\021>l\357%>\3623\216>\200O|\276\016\331M\276\253D\255>\262\341\246>=\206\232\276\363,O?-`\024?H\246\253=n^Z>\266\251\360>\356\372\351>\363\240Q>*\201\006?\2401\206\276\3575z>\276-\243=cAo>\035A/>\270S\304=}\233v\276\245l`>0\3118\276\301F\036\275H0\267=\255\365\336\273\264X\007\276\027\354\021\275\000\'\307\275\237E\355\272\031Y_>\335\220\231\276\251\341v\276\\\231\330<\321\344\274\275<c9>#\346\211>M\371\340<)_\034</D\304>y\331\256<Q\202\251=\242\256/>\0138n=G\253]>_\202\260>=/\215\276\325g>\276g\350$>\"\374K>\341\312\033>\246\271N\276\001\315\245=\255\336\327\276\217\251\354\275\233:\r?\rhS=\277BH=\244\316\204=r\200\021\276\360gY>@\260\302>\326\203v=\305\300->\352ys\276"
      }
    }
  }
}
node {
  name: "FCN/dense_1/MatMul/ReadVariableOp"
  op: "Identity"
  input: "FCN/dense_1/MatMul/ReadVariableOp/resource"
  attr {
    key: "T"
    value {
      type: DT_FLOAT
    }
  }
}
node {
  name: "FCN/dense_1/MatMul"
  op: "MatMul"
  input: "FCN/dropout_1/Identity"
  input: "FCN/dense_1/MatMul/ReadVariableOp"
  attr {
    key: "T"
    value {
      type: DT_FLOAT
    }
  }
  attr {
    key: "transpose_a"
    value {
      b: false
    }
  }
  attr {
    key: "transpose_b"
    value {
      b: false
    }
  }
}
node {
  name: "FCN/dense_1/BiasAdd/ReadVariableOp/resource"
  op: "Const"
  attr {
    key: "dtype"
    value {
      type: DT_FLOAT
    }
  }
  attr {
    key: "value"
    value {
      tensor {
        dtype: DT_FLOAT
        tensor_shape {
          dim {
            size: 16
          }
        }
        tensor_content: "\014>\317<y\214|?\266s\034>j\347\225>v\324Y>w|\016>\301\007|>q\024*>\373I\275=\345\0172>2\375F>\t\232X>o\351a>\311+\324=\237\006\315;\230\230\035\274"
      }
    }
  }
}
node {
  name: "FCN/dense_1/BiasAdd/ReadVariableOp"
  op: "Identity"
  input: "FCN/dense_1/BiasAdd/ReadVariableOp/resource"
  attr {
    key: "T"
    value {
      type: DT_FLOAT
    }
  }
}
node {
  name: "FCN/dense_1/BiasAdd"
  op: "BiasAdd"
  input: "FCN/dense_1/MatMul"
  input: "FCN/dense_1/BiasAdd/ReadVariableOp"
  attr {
    key: "T"
    value {
      type: DT_FLOAT
    }
  }
  attr {
    key: "data_format"
    value {
      s: "NHWC"
    }
  }
}
node {
  name: "FCN/dense_1/Relu"
  op: "Relu"
  input: "FCN/dense_1/BiasAdd"
  attr {
    key: "T"
    value {
      type: DT_FLOAT
    }
  }
}
node {
  name: "FCN/dropout_2/Identity"
  op: "Identity"
  input: "FCN/dense_1/Relu"
  attr {
    key: "T"
    value {
      type: DT_FLOAT
    }
  }
}
node {
  name: "FCN/dense_2/MatMul/ReadVariableOp/resource"
  op: "Const"
  attr {
    key: "dtype"
    value {
      type: DT_FLOAT
    }
  }
  attr {
    key: "value"
    value {
      tensor {
        dtype: DT_FLOAT
        tensor_shape {
          dim {
            size: 16
          }
          dim {
            size: 8
          }
        }
        tensor_content: "\177\000\334\276!\242+>\366o\372\276a\3378\275+\014\355=\325d8>1AX>o\304\217\276\023\031\206\276\226W\304\275+\204\256\276\346\035x\275q\014p\275/\226\320\275\022<\t\276\204.~?\024\017\001?\027l\305\276f\033\342>\246\326G>\344\305\r\275\320\226\316\274\350\220\317\276\010\230\345\2765\236`=\355\377/\276\316\177K=<\221\352\276\2452K\277\324f\334\276\020\210\006\276\312_x\275\346p\017\277+\313\245=\331yM\277al#\276[\233\256<\323_h=\327\247\336=KG\026\276p\010\213>=\2452\277\263\232v>\270\026\342\276 \n/\273\372\0173\277)\265\r\276\313\266\006\277\017\210\207=\246\320D\276\030`a=\275\352\005\277\216\235V\277F]\341\276\216\253<\276*NR\275\210\222\305=L`\362\276RI\304=\235`\315\276\332]\200\276\3750\242\276g$\237\276.L\344\276\031Y\032?\215\356\211\276\320|\376>\272p\203<\001\243\002\2777\306;=\370\010\363\275<z\r\276S\246\343=\246\030s\276$\364\276=\0170\216\276i\016\356\276`\324\017\277\216\277\353\276\317#\006\277\373 \206>\375\326\315\276\333\322a>\031\032\225>\247\331A\276jbo\276\242\001\032\277\035\262\255\276+&\032\274\214na\275\230\226\352\273\314\322\306\2744\237P\277]\366\325\276\346\212C\276\261)v<\036\244e=\217S\201\276z\r?=\024m\231<\357.\205\277\004\344&\277\276#]\276 \356\232\276\n\311\022\277\232\265\367=\2437\020\277Q\222z\276{9\317<\221\365\225=\226`&>Q(G\276\303\007\365>D^\n\277\367\300\307>\t\344\266>\034\013\027>]\2035>0b\204\275\365\261 >\222\214\010<b\003\317=o\314\206=T\200X\276{\t\010<(\216\221\276Y\243J\276\223]->"
      }
    }
  }
}
node {
  name: "FCN/dense_2/MatMul/ReadVariableOp"
  op: "Identity"
  input: "FCN/dense_2/MatMul/ReadVariableOp/resource"
  attr {
    key: "T"
    value {
      type: DT_FLOAT
    }
  }
}
node {
  name: "FCN/dense_2/MatMul"
  op: "MatMul"
  input: "FCN/dropout_2/Identity"
  input: "FCN/dense_2/MatMul/ReadVariableOp"
  attr {
    key: "T"
    value {
      type: DT_FLOAT
    }
  }
  attr {
    key: "transpose_a"
    value {
      b: false
    }
  }
  attr {
    key: "transpose_b"
    value {
      b: false
    }
  }
}
node {
  name: "FCN/dense_2/BiasAdd/ReadVariableOp/resource"
  op: "Const"
  attr {
    key: "dtype"
    value {
      type: DT_FLOAT
    }
  }
  attr {
    key: "value"
    value {
      tensor {
        dtype: DT_FLOAT
        tensor_shape {
          dim {
            size: 8
          }
        }
        tensor_content: "\265Y\001>\361\271B?\0376.>\321\027\242;\232\n\024?u2N?\341\217n?\245\035\005\277"
      }
    }
  }
}
node {
  name: "FCN/dense_2/BiasAdd/ReadVariableOp"
  op: "Identity"
  input: "FCN/dense_2/BiasAdd/ReadVariableOp/resource"
  attr {
    key: "T"
    value {
      type: DT_FLOAT
    }
  }
}
node {
  name: "FCN/dense_2/BiasAdd"
  op: "BiasAdd"
  input: "FCN/dense_2/MatMul"
  input: "FCN/dense_2/BiasAdd/ReadVariableOp"
  attr {
    key: "T"
    value {
      type: DT_FLOAT
    }
  }
  attr {
    key: "data_format"
    value {
      s: "NHWC"
    }
  }
}
node {
  name: "FCN/dense_2/Relu"
  op: "Relu"
  input: "FCN/dense_2/BiasAdd"
  attr {
    key: "T"
    value {
      type: DT_FLOAT
    }
  }
}
node {
  name: "FCN/dropout_3/Identity"
  op: "Identity"
  input: "FCN/dense_2/Relu"
  attr {
    key: "T"
    value {
      type: DT_FLOAT
    }
  }
}
node {
  name: "FCN/output/MatMul/ReadVariableOp/resource"
  op: "Const"
  attr {
    key: "dtype"
    value {
      type: DT_FLOAT
    }
  }
  attr {
    key: "value"
    value {
      tensor {
        dtype: DT_FLOAT
        tensor_shape {
          dim {
            size: 8
          }
          dim {
            size: 2
          }
        }
        tensor_content: "9Y|\277V1N\275\236\275\211?a\352W\276\'\324\232\2768\312C?b\204\016\277\215\000\354\276{6\216?us\214\277\372\237\236>Q\351\212\277\2127\037?N}\326\276\346\004\257>T\235\213\277"
      }
    }
  }
}
node {
  name: "FCN/output/MatMul/ReadVariableOp"
  op: "Identity"
  input: "FCN/output/MatMul/ReadVariableOp/resource"
  attr {
    key: "T"
    value {
      type: DT_FLOAT
    }
  }
}
node {
  name: "FCN/output/MatMul"
  op: "MatMul"
  input: "FCN/dropout_3/Identity"
  input: "FCN/output/MatMul/ReadVariableOp"
  attr {
    key: "T"
    value {
      type: DT_FLOAT
    }
  }
  attr {
    key: "transpose_a"
    value {
      b: false
    }
  }
  attr {
    key: "transpose_b"
    value {
      b: false
    }
  }
}
node {
  name: "FCN/output/BiasAdd/ReadVariableOp/resource"
  op: "Const"
  attr {
    key: "dtype"
    value {
      type: DT_FLOAT
    }
  }
  attr {
    key: "value"
    value {
      tensor {
        dtype: DT_FLOAT
        tensor_shape {
          dim {
            size: 2
          }
        }
        tensor_content: "\010o\023\277\030o\023?"
      }
    }
  }
}
node {
  name: "FCN/output/BiasAdd/ReadVariableOp"
  op: "Identity"
  input: "FCN/output/BiasAdd/ReadVariableOp/resource"
  attr {
    key: "T"
    value {
      type: DT_FLOAT
    }
  }
}
node {
  name: "FCN/output/BiasAdd"
  op: "BiasAdd"
  input: "FCN/output/MatMul"
  input: "FCN/output/BiasAdd/ReadVariableOp"
  attr {
    key: "T"
    value {
      type: DT_FLOAT
    }
  }
  attr {
    key: "data_format"
    value {
      s: "NHWC"
    }
  }
}
node {
  name: "FCN/output/Softmax"
  op: "Softmax"
  input: "FCN/output/BiasAdd"
  attr {
    key: "T"
    value {
      type: DT_FLOAT
    }
  }
}
node {
  name: "Identity"
  op: "Identity"
  input: "FCN/output/Softmax"
  input: "^FCN/dense/BiasAdd/ReadVariableOp"
  input: "^FCN/dense/MatMul/ReadVariableOp"
  input: "^FCN/dense_1/BiasAdd/ReadVariableOp"
  input: "^FCN/dense_1/MatMul/ReadVariableOp"
  input: "^FCN/dense_2/BiasAdd/ReadVariableOp"
  input: "^FCN/dense_2/MatMul/ReadVariableOp"
  input: "^FCN/input/BiasAdd/ReadVariableOp"
  input: "^FCN/input/MatMul/ReadVariableOp"
  input: "^FCN/output/BiasAdd/ReadVariableOp"
  input: "^FCN/output/MatMul/ReadVariableOp"
  attr {
    key: "T"
    value {
      type: DT_FLOAT
    }
  }
}
versions {
  producer: 175
}
