node {
  name: "input_input"
  op: "Placeholder"
  attr {
    key: "dtype"
    value {
      type: DT_FLOAT
    }
  }
  attr {
    key: "shape"
    value {
      shape {
        dim {
          size: -1
        }
        dim {
          size: 21
        }
      }
    }
  }
}
node {
  name: "FCN/input/MatMul/ReadVariableOp/resource"
  op: "Const"
  attr {
    key: "dtype"
    value {
      type: DT_FLOAT
    }
  }
  attr {
    key: "value"
    value {
      tensor {
        dtype: DT_FLOAT
        tensor_shape {
          dim {
            size: 21
          }
          dim {
            size: 64
          }
        }
        tensor_content: "\310\3236\276\361\216\224>X\032\321\275k\204\240>>,\267\276\'\242\243\276+\371\203\276\360T\367>\n\227\305>/\267\230\275\213f\033\276\322\344\010?\t\300\020?\375\354\007\276\305\305:>\260\331\010\276C\302\333>p\030d\276H\250\212\276\347\275\215=aPB>S}\257\275\351\311}\276\224\325\315=x\352}\275\024\t\227>\260N)\27789\373\275\345\332\315\275\241n\351\276\260\336\246\275J\342\213\276\201[\000\276m\316F?\354r\367\276\240\366$\276\325\312\267=\327\354\003\276z\230G>\023\224$>\223\342\352;\325k\232<\302\232^>\2448\210\276\'\001\355>\334\002Q>\006&\r\2760\216!\276 \246t\270\355\275\325>)\205l<\357\323\325=\225\234w\275\302%\252\276!\273\022>\326L\007\2763TQ>\030\247\276=\271\345\355=\006\006\221\275\265\305\366<\030\204\317<\313\342\242\276\322\227i\273\365?*\277*\233;>!\0018?f#\230>1\373\235\276}\260\323<\273!:>Y\002\335>\t<\252>\310j\220\274/\315 =y\347%\277#C\323\277\347\300\206\276(\272\033>\322\222\253\275\022\3473>\315\366\027\276>0\035\277K\257)\276\364\030N>\336\234D?\366\310{>\213\023\237\275xQ\214\277\251\214\376\275`\232\250\276,\370\035\276\226\207R\277\320\203\365<\034\212\033>AE\233>\242\301\274\273\341\210\365>\357\324l>~s,?c\034\036?o\370\364>e\354\314\276\"\253\307\276DM\265\276\344fC?\270\362\237\275\007\272-\276\267jX?X\214\203>??\221\277\2535[\276\274\327\343<\313\2336\2771\316\r\276\321\366r=\300B\361=g\035\203=\357v\235>\315~\241=\211J\031\277m\313\033\277\3002q\276\237 X\276\277\013\374=@7\205\275\254\353.?\221\tB\276)\375c\275dK\263\276\244\246\010\277\341\234,\276\313h4>;\036\261<|o\\\276\024\013\203\276\016,\302\275\326Z\202\276\235hv\275\332(\275\273\252\325\374\276.\007\033=W\241\030\277\263\t\031>+\034:\276q\376\004>\344\262I\276\244q\327=X\305\225?f\026h<\307\340\214\275S\356m\275\3238\240\276\n~B\277U.\220=-\370Z\276\000Y\321\275,x-\276\373eO\276]\"\360<\037\3022\276r\263B?\312\377->\037\231\'\276\0368#?\027\232\005\276`J\'\277f\026F\276\271\212%\274\207\002l\273\t\330\031\277\237\031\024>\241\026\023?\217\353.>37>\276\037\256\030>sGB>l\271\212\274\241\031\232>]P\032?[\177}\275\367\014\233=\3203\200\276\252)q=o\2413\276\232S,=\253\212\027\277 \257\337\275\367$[\275\353\270\020>\002\360F?\024\360\"=\336\217J\275{x\334=z\343\035\274\330\017P>\215\031\027\276\222(\202>\20771\275\312_\277;\366u\247>\243e.=\260tz\276+\275\243\276\227\270%>A\237g\275c\350\033=\325\307\204\2765rn=\373\031G\275^\342\306=N\235d\276f\035\244\275\263\374I>\216,r\276Az\315\276\177\356\303=\335\r\202\275\222\024\215>H\322-=\336\251\206\276&$\302\276\004\253&\276Y\033B\277}\277q\276\016`-\276\033\302/>i|\264<\326~^\276\\\265x=\233\"2>x\t\024\276\"q\344;\327\211N\276\341\326\374\276L\350\234\275*\206\n\275`\'\251\276\233<\025=\274\034]\274l\372,\276\334C\020\277v\235\275<2\027{=C\0022=N\337\214<\310\000\243\274.u\005\277]\316l\275\320Na\276\353\233\213\275\243\304\n>\333\271\324\275!\000.\275\324U\344\274+-t\276\037\221M>\273$(\276H7b>\243\360\026\276\325j\r\275\367z(>$\2729\276=\213\370>\236\335D\276\270\306u>\021\306S>4t\330>\202\312\333\275\306\224h\275\307`\370<-s\024\276\233\033J>\'04\276z}\267=\370cV\276\354\305\353=H\355j\276\026\340\211>\262\262P\276\224zi>\014\210\244>E\310\020\277Y\033t\273\035\r\003\276\360\252r\276@Et>\261\262\033:\344ca>\336\273\207=\356b\362\273p>S>\374$\211\275L\357f\276\312\311\027\275\365\350\333=\205\360\214>?\005 =\361\271.>w\333 >.o\332>\031\371\206\276\036\022\346=\252~\353\275 \014\027\276\230\234\027\276\343C\340=2\356\252\275\375\304\262>\277\034g=\026\356\202\275\243r\251<G\224\352<\035\312&>P\213S=[\266\"\277a\335_\2760h\024\276q\265\n\276\3248\202\276_`i\276+wk\275\306\025c>\304\3454\275\343\0338\276\355\302!>\274\017x\276\215\222\t=\031_F>\257\304\365=\225\320]\2760[{;\301\232\326=\355\337\312=\355\010\016>\333\001\204>\314Z\024>\3452\025=)LG>\212\273\201\272T\344>=/1s\275\342\222M>\025e\344=\311\250J>\376z\037\2765\003.=t\343\200\276\016\224h>\352F\006\276\243\354\033\276\027=\205\276\211\326~\276\t\'\312=B\\\356\275\243?\275\274\320\010v\275+\020>\277<?\335;T)\007\276\216\242B\276I3\324>x0*\277f;\204>A\325\242>\251;\327\275\361)\013>\010\351\346\275P\222\200\276\374\272,\276\022E\325>\3237.\276e4j>\350Df>\346\3715>\245\033\222\274\256P\210\276]\306<=\325\235\241\275u\355\226\275\304\300\354<\321\374\010>\306\022{\276\350\265\010>\352\nh\276\005\002\375>\364#*\276\020w\010\276\217Tq\276#\364\007\277\236\206\202\276\271i\\\275\355\374%;\275\3713>\031\020\364=s=\201>\343wt\276\205\242S\276\336n\025\276\256\270>\276|C\"\276\223\262h<jC\301\275\223\261n\274\321\355\010\276\211\370\033\277uG\021\276\215\214\352\274\234\340\340=\357\025J\276M\026\003\276!\027\376=\225\322{\275p\212\013\276 \2521=t\'\244=\025|\024>\0022\\>i\301\002>\200\275\327\276\324\375\003?h\340\237=\313\227\215>So\007\276p\026\261\275U\004\026\277\275v\025?D\221U>\275w\364<\035a\314>\260\350\214\276h\360\007>\346\241\214\276\231\203U>\350\023\361\276>\253C>\356\213\205>\033i\337=M>\023>\261cS\276\001uG\276\211b\204>\256\n\254\275\203\311\022\276YJ\364\274\303?\276\275_^\253>\351\225\\>e\256_\276,\177L\276\020a\272\277#M/\277\305\311\211\276a\231\201\2774\005\006\276\254Z\377>\353\237\026>[\022\010\276\3667\200=7\032\376\276\270z\202\276\324\315\222\275\"\362\334\277b4|\276\227EP\276\346\263\034\276\367A\247\275w\3211\276\241\017j?\313\257\341\277\312n\201>\tm\341;l\265\302\275T\262\252\276\365h\261>\t\247t>\037\'\341\276\315K\032\276\304\341\240\275\267\204\223>Y\027S\276$\"\346?\331\335\202\2765\262\216\277mO\026?]\306K@F\246\014\276!\217>\276[\254\275=\271^\032>_\371\022\277!xZ\276<Wp\276R\231\331>Z\235S\277P\310\225\275fY\301=\033\024R\276H\354e?\314|\340>@P\252\276\365\257 \276<_\275\277m\037\000>\024\034\372\276\317\232\212>\004\377H\276\276 \n\276*\363\231\276n\233{\276\260\260{?\325{e\276.N\246=(\243a\276;\n\005@U^\t\2767k\250=*\034\203?\267{\000\276\276\010\247=\267zE=\2233\256\275\231^\217\276\303\261\033?la3?\331\370\215=V\3465?*T\216=U?\\?f\026_>\256\362\304\276\364\320\376\274:7\205\277X\345\344>\3779\267=z\013\\\276\357P$?\207p\207>t\030\272\276\3738Q\276\037R\022?\345o\023\276\025\304\325=\262X\301\275\0379O\274\024\254\233\277Lv\324>\021hz?)\200\347\277$W1\300\262\232\211\276z4k\275\274q*\276\335\033\223\2761L\242>fcj>\035`\274\275C\344\024\276ZO\236?\217\375S>eB\234;HO\367\275\271\366\232?\367\034\"\300@qa?\347\353D\276\230\367g>\'w\310\275\"f\037?WY\334>_\366\341>.\242\203\277%\326`>\0214\302\274\\;\242\277`\331X\276\352\313\306\275\262f\363\276\321\223\340\276\034\216\214=?@\205\276\r\002\255\2768\310\032\276\022\253\231>+\331\000>\016G]\275\005v\211\275\247a\367\276\262\236O\277(x\302\273yi)>1\003[\276y\004\312\276\204\014G>I\3343=\225\001N\275\030\240\223?\005_f\277:\235\262\274\332\326\302\274YE\207\276\262\277b\2755\302\322>\\\355N\276\237!\270\276\244P\331=\037\"q>\242K\201=\330\320}\276N\000v?\177q\266\276a\016$\277\220\t\337?V\336;@dA\263>\364\006\r\276\327\026\334<\243D\225>\007.^\276\206\325Q\275\204\370\020?\322\250y=\2034d\277\301\263\001\276\2735c\275\357D\215;\036uO\3000\215\273?\377n\244>\335r\245\274=\323I\277K\034\327;a\204\273\275\n\203\364\276b\006F>\311\366\301>\217\367\224\276\00188</\234\\>\274\037\310\275\363\246\267\275&\223\341\276\373\263}\276|\373\010?\317\211Q>*\201\005?3\313\\=\226\273\306\276g\235p\275<\304\r\276\251\331\257\274\033M\276\275\261\017\212\275\034\244\330<Sk4?\370\316[\276\234_4\276%U\025\276\346\260<>\366\274\026\275\020\362~>AU\007>,)\026\275\023\0101>~\273\005\276\231},\277\235D\225\276\337!\271\275\343]\364\275\366\021\360=w\224W>\375?o>\013I9=x\001\346\276k\214\253>;\014x\276Nb->\276\365\337\277\341h\252\276\031k\243\276\235`\205=\311c-\276\353>\244>\321\271\r=\237\310??\3676\005\276\333\347s>T\006\353\274B\213_=\274\373 \275%P <\370\331\374>\327\331\326\276\370\304\035\276\000D9?\036?\376\275\355\367I>[\335i>\030\357\020\277fP\327=_\377\370=\206\242\266>\213y\273>\024\262{>\255C\014\274]\3506<\242\247\227<^\020\363;\222\3762\275\220H\006<\353\020\034\276\325P\215\276,\302\016\277\272\002\227\276\2434\203\274k\335I\274\tZ\370<v3\203\276\260\320c\2764q\035\2760v\210<\201\223~\276\363~\030\274mko\276&\365\202<F\205\366\274\001B \2766\212\223\274\353M\307\274n\243\373\274\371~\273;2S3\276\361T\375\274#7\374\273S\352\225\276\3064S\275\304Hc\276?\2015=\'$\247\275\037#\030=Eh\230=\005\302\"<\311\325\204<\376(\227\275\r\272\032\274x\2774\275ZU\033\273\262\233\266\274=c\003\273\261\305\207\276\276\231\344\275q\351s\274{\261\'\275\037\003\322\275\211\030\214<\277\027\234<\231\343\204\276g\373\201\276\033>Z<\310\0338<\257N\357\274\210$\240\273\324\244\261\273\007\217\275\273\202\274 \275\231\"7\272Q\275&=\305\ri\276\326\032,\277YT\256=\276<]>Z\000]\276\375\227\303\276,\330^>\027S\305=w\372F>\013\020\007\277t\256]\276$\337\250=\020\254\005\277\037c\353\277Q<`\276\212\200\364>y\025\265\275N\235\240\276e\253^=\307Pq\277,t:\2754\372j=\354\203\020>:\301\003\276\221\237\232\276\267/^\277>=\222>\036\267\317=c\357A\274\370Y&\277W\310F=\272\231\026\275\227\234\372>\246\262c\276\272\344\035?b\225\004\2774d\025;D\224\032>\247\023p>c\036j\275)C\224\276iIe\276\302\035_\276\224O\001>d}6\276\007?\247\277U=\003?\037\313W\277\';)\276\220y\244\275F\271n>q_\370<\n\245\363\2743{w=\363l\203>\207\300\244>\355{\204>\215l\024\275\033\270\016\277\030\270\035\274ve\211\274\354y(\276\214\032i\273\350\220F;!t3\276\243{m\275\034<D\277\356\022\033?\254F\215\276+\350?\276^\201)>%\231\200\276\326\002=?\234\335\214\27569\276<\250_\211\276\232\227\032\277\nd\204\276q\354K>\346Y\252>\231\3403\276\242\021\017>O\017J>s\035\204\275\010\222s\274\272<k?\263\313\311\277Q\237\364\274\223\2243\276\205\373\231\276\327E\033\277\321\311\240>r\253\021>u[\030\276\010\221h>\363\001\004\276\203\257\022>^\273R\276+w\202?\020d\030\276\212;\241\275\016\016\210?~\203$@\375\273\322=b\016\227\276\211\253\213=I\272_\276V,\315>\032\022\366=\277\250\006>\254a\007>zq\254\276\212\300B\276\222\177=\276\t(\317=r\"j\300?\020??.\254I?5z\200\276o\331f\277\216\017m:\376\317\312<\302<\262\275\373\024\324=z\342\247\273\365\324\321\275e&\302\274\n\331\211=6\342\003\276\010tP>\302bR\276\377[\216\276\333\344\240\275\036\227\'>\257d\347\2764\275;>\221\020\252>\013\201\201\276\363\211\336:\024\363\215<\363D,\275\220\372\250\276K\037H\276)\002B>d\2571\276\273\347M>\215ki<\265\354A>\005\241\270=\2366\006?\203\214\212\276F^E>Q\025\010\276\325U\211=4/\312\274\007\304\037>D\304?\276\222\022\002=\224EF\2765\017o>Mb\270\275\252l\216<J\221\233>\023\224f\276\363\324\205\275Q\224\026?\230-\264?:\373 \2760\323\016\275&`S\276<}Y=_\300\336\276Hph=\324\234A>(\003\027>\265\267\222\276\t\263&>n{\353\275\364\035.<\213\367j\277\256{\010?\324?\010\276a+~>\307\235\367\276\312\307\277>\033\374N\275\2349\320=\031\210\373=!&Q\276\364\330\254\275\240P\010\276\035\242\340>K\3446>\024\013/>\240\251\025?H\327\226?\031G\032>\002\3112\2756<.?;`v>\234Iz>i\003\223>\363\000g\276\244y\024=\220\021\255>Y\236\006\276\253,\337\275KJ\025?\355A\031\275\242D\275>\276\312T\276\237&h\276\374:\032>\226EE\277\220\362~?L\344\310=\344U\310\273\257m?\276\335\023X>D!\031=\312\237\305\275<\235\232=v\3501\275W\236R\276\323?\214\275/#\">\214\225\362\276\347-\233>U\246Z?!W\203\277\331\357\035\300w\331\024\276L\036$\275\343\313I\276\215\002\311\274\255\032\250\274\235\336\027\276l\261e=]w\213\275Q\253\327\275\275V\231\274\312=3>Y\270\277\2751\336\333?\032\t\261\277\200O\320>kP\355\275o\264\352>\2530\207>,\356\234>T\234\346=i\333\007\276\331a\010\276M\3056\2763\217[>>\203\351\276\257h\024>\342\354\004\275\375B\007>\364\302\224>\032b8\276\341\211Q\275\246DX\2760\033\227<\345\321\205>\277{\277\276@Y;>\276\210\235>?3\022\276vMj>\234\301\324\274\004Z0?\276-\035>\307\263\215>*\347z\276\033\373\226<\216w\021\276U\203\364\277bx\246>+\307&\276sY\367\275wJ\236\276\252b\026\275\224K\242\275\217\026T>\034\305\\\273\231gG>\000\371\232=\261\220\247>\271\024[\276\374\367\025?\004\216\023=7K\244\275#\371\232\276\250jl\276X\016\204\277L\201\216\276(\\\203\276\211^2\276\327C\217\276C#\300<\276\001\023\276\377h\200\275\240T\277\276\336\212G\276R$\362\275\366\032M?6\205\210=F\245%\300Hb\340=^m\r?445\276}\315\226?R\321\032>]\203\262=\260\214\026>\310\311\310\276\210:\305=\363\263\'\276\331\311\357;A\216\037>ag\007>\241\rS\277\240{\363\276\3514\352>\266}z>\203u\274\275\370\231$\274Fn\210\275l^\273:\352w\002\276Z\3417\275\316\322\246=.\264:=\017\235\350\275\344Z\257>\267,`\276Q\244\310\274xs$\276\365Ms\276\275\001)>\224I\211\275\375\241\333>6o\224\275`%M\276\377K >m9\004\277\\\310#\276\013\340\357>\204#\345\275\372\236r=w\033~=\323^E>\'&@>\324f3?H\277\243=\206,W\276\370#@\274|?#\277u\313k\277\223!`=\233\313g=F8\273>\3744&\276D~\220<\264\017\235>#\\B\276\016\316\200=-|U\276\177X\341=\262\262\216>\274\277\254>;\313\274\277\3113\210>\031G\322=G\003_>C\234\270=\001\216\004\275\251\320\364=\335\312\261\276}\252_>\376\234\235\274\305\245T?5\322\232=\201\253\034>\253\325[>\227\217\002\276W\023\335<p[\361<\325f\020>.\031\270\276\221\210E\276\203\261\255>\213\346i=8}\027\276\277W\000\276\322H\303\276XM\244\276O2\205>\017\237#>\330\313\'>h\316\030\276\347\316\347\275c\260\214\274\267\372a\276,\006\220>\312\347\306\276<\310s>\3661~>\340\221\232\275\335I\342\276\024\266G>\212\030o>p\231{\276\261\377\341\274y\251~\275\177x\001\276\000\306\020>\370\330\022?$\321_>\010\337\240\276\311\375\006?Q\320\275?\343\274.\276U\226\275\275\377\217C\274 \241F>\337\372w\275\331\200\273<\344e\004=\262$\276=\2649\002\277r/l>\3560e\275\025=\001\275Y\367\305\277\003X\247>L\016\274\274]\340e>+(~\276\005r\246>S\2713\276\232X\377=o\025\223\276qi\032\275\322\242\306\275\307x;\276\226&\024>}\2526\274\217Wg>\342\203H>\265\342\022?\255\246\224<\275\210+=\352\337\266>\214\340!>\260\357\376>N\257\207\276\211\350~>\0142l>\tI\254>o\\\322>\356\005A\272@jj\277\276\014\206\276(S-\276\320(\212\273\323\027U\276h\227\375=\352K\033\277\223\237\252>\314\023\225<\274b\243\275\233\032\272\275\026X\311>\0161\374\276W\031&\276X\303\244>Z\355l\276\262\365k\275\246\272\223\273\311\203\260\275\304\245\023\277^\016\003>ocH?\332\203\201\277YJ9\300Q\313\234\276\277q\036>\343&\350\275\215\324\006\276D\274\014\276\300@F>\033\315x=\372e\016\276p\3672?\371Y\325=F\223`>\210\020\265>%@\206@\033)\266\277\233\301\232\276\031\375T\276|7\305>\346\362\"\274\260}\222>\014\014%>\357\212\223=\336a\227\276\030\217\025\276~\031\004\276\2716\306\276u\004D<$\253\332<\336\367\334\276\033\217\365=;\243M\276\312\227\361=>k\300>\271\351{\276\"\364\r?}\376\034\276\221-P\276\353!\001>c\265W>\\P]\276U\235k\275\240\227\206\2769c\331=I\331\220=\242\221!\276\230\000x>\313<u\276@}\257\276<\017)=\262\355\007>\266\242\262\274\001\267\203>\0225\271>B\376\005\2767\202\323\275\271Q><\373`\005>c&\014=\rl]>\244\300!>\266\030\032\2767\310b=]\217\356>\270\306\310\275\371\013V\277J.\031\276\013z;\275L\225\022\274Z\336\204>\267!M\276\3777\207>&\220O?IX\242;_\300\353\275\243^R>\372\021L>5\323s>;L\233\275\261\2034>\3224-\276\371\024\207>%[\025=\014G@\276\305!\203>r\360\256=\364\315\247>A\377\271=Y\177\303=\205\n=\275\2408\315<i\223k\276"
      }
    }
  }
}
node {
  name: "FCN/input/MatMul/ReadVariableOp"
  op: "Identity"
  input: "FCN/input/MatMul/ReadVariableOp/resource"
  attr {
    key: "T"
    value {
      type: DT_FLOAT
    }
  }
}
node {
  name: "FCN/input/MatMul"
  op: "MatMul"
  input: "input_input"
  input: "FCN/input/MatMul/ReadVariableOp"
  attr {
    key: "T"
    value {
      type: DT_FLOAT
    }
  }
  attr {
    key: "transpose_a"
    value {
      b: false
    }
  }
  attr {
    key: "transpose_b"
    value {
      b: false
    }
  }
}
node {
  name: "FCN/input/BiasAdd/ReadVariableOp/resource"
  op: "Const"
  attr {
    key: "dtype"
    value {
      type: DT_FLOAT
    }
  }
  attr {
    key: "value"
    value {
      tensor {
        dtype: DT_FLOAT
        tensor_shape {
          dim {
            size: 64
          }
        }
        tensor_content: "m\344\336\274\000F\315\276\300\216L>\251VD=,\357\013\274\225a\036>\370\036v:\323t\254>\017\200\312=\243R\212\274\237\337z\274_,\267\274\273\025\004>\240b\277\271\234\n\030\276\033\330\3379 )H>\037\201\210\271\231R\037\276Eb\245\273\254D\362>4\225\236\277\317~t\272`y\347\273\247]\020>w\237\036\277Oz\206\275\004\252\266;\033\241\317=\313d(\275|\032j:y\'W>\232\320\366\271\266\3371?:\223O>\223au\276\262^\245=\327:\242\276x\002\221\276\2009^\276\353Q\265<w\r%=p\241\330=s\314\200;\262\003\025?\022BL>]\354\326<\263\231\223<\017?\316\274:(\006>\242\207.=\220\265)\277a \336>\222-\227\274#>\027\277\000\261\305\274\353\216t>6&^>[T1\276C\376\037\277\321\207\270\275\316yO<o7\214>Tf\220\272"
      }
    }
  }
}
node {
  name: "FCN/input/BiasAdd/ReadVariableOp"
  op: "Identity"
  input: "FCN/input/BiasAdd/ReadVariableOp/resource"
  attr {
    key: "T"
    value {
      type: DT_FLOAT
    }
  }
}
node {
  name: "FCN/input/BiasAdd"
  op: "BiasAdd"
  input: "FCN/input/MatMul"
  input: "FCN/input/BiasAdd/ReadVariableOp"
  attr {
    key: "T"
    value {
      type: DT_FLOAT
    }
  }
  attr {
    key: "data_format"
    value {
      s: "NHWC"
    }
  }
}
node {
  name: "FCN/input/Relu"
  op: "Relu"
  input: "FCN/input/BiasAdd"
  attr {
    key: "T"
    value {
      type: DT_FLOAT
    }
  }
}
node {
  name: "FCN/dense/MatMul/ReadVariableOp/resource"
  op: "Const"
  attr {
    key: "dtype"
    value {
      type: DT_FLOAT
    }
  }
  attr {
    key: "value"
    value {
      tensor {
        dtype: DT_FLOAT
        tensor_shape {
          dim {
            size: 64
          }
          dim {
            size: 32
          }
        }
        tensor_content: "\032\271n\276\tBm>V^N\276\301\231X<i\035L\275\022\361\003\276b\226\n\276!\306\326\275\332\367\223\276Y\272S\276d3g\276\200}R\276\231\251+\276\205\223\234>w\2442>h?:>DA%>7\376e>\331h\227=\003\245\017\2739\0374\275>\221\227\275\340\207\207>\330\300\225=\217\021\321\275\204\211\210=\010\260\264\275.3d>\"^V\276\233\374\320\275\221\224c=:bR\276\246/\274\275\260\357\004>+\273h\276\222,(\276?\240>\275\322\335o\276.&\343\2757\036\013\275\250\304\217\275H\356\303\275\342\3525=\324\0244\276\204T\025>\215\262\001=I\264V>vzu<\270l\233=\242\0261\276\304\350\356\275a\r\233\276\037R\247=#x\344\275\264u\334=\317\2727=\351\322\325<yb \276je\353\274\363\020\027\277\265A\204\275c\314\'\276\033@*\276H\002L\277\323\214$>\245Z\257\276rK(=\364/\013>{\017E>\345\177\276\274LP\202>\253\014^\276\347\364R=\275\351\245\276\250i\014\275\315!\324\275\221\221#\276\253\301->\244\324\'\276\3471\020\274;\362b?\353\363\\\276\377\315\255\276\333\336c=\3442W\276>\'\214=\032P4\276\277MR>|n\247<\371\033\321>\223\r\310\275\177\216_>\221\317\025\2757\316a=\355R\372\275\371v\357\276\261\2336\2766AB=\244]\221=\355E\267=\356( >\253\312]=\321\270\003\275\345^#>\374\213\004=\331\2779=\234\016E\276\335T\220=\373\224\036\276\370)\031\276\362W$\276\261\022\245\276v\007k>\3507\037=8\0216\276A\313s\276\365;~=\211\031$>\272J\347\272Nw\257\2755+^>B\254\201\276tB\245\276\020\001e=\260\324A\275\032T\001\276\t4r=\032\305\316=v\276\335=\377N\342\275y\354d\276\036\2253>\355g!\275gK\304>\310A\245<[\253o\276e1\001\274\301\034\236=\352a\240\275H<\010>\243\002\312\274\317q\311=\021\307m>\022\376\023>\262\214:\276\240\327\016\275\360\022\226>\313>\252\275[b\265>\245{C\276\213z\310=\312\363\223=\304\336\323\275sZ\277\275p\352\007\276\363\273\023>\253I\351\275\020\252\254=\005/\206\276m7b>\240\303O\276\n\235\010\276H\004\313=\243\2361>|\240\001\276URU\275\355k\021=\003\266\371=\276n4>%\277\006>V\375\025>FO<>\\}g\274\214\315\222=\205\002\024\276\234\271Q\272\361\274\020?\0029^\276\217f\241<\211\212\225\276R\342\021>\344\230\230=\226\275\266\276\305+\007\275\031\231\026\276\204)O>x\362\257\276\223g\237=9\010x>G\363c\276\016G\332\275\3008A=\006\255)\276\352\021_>\226#\010\275\346~\241\275N\370\237=\300\004\225\275a9\027>\364\246\312\275\271uf>\363xp=\340\016\000\276>i\343\275\327PA\276\352\3338>\306\337Y\276\243\375\241\275lwr>\262\353+\276h\322\000>\321\315U\276\033\357\372\275.\376\360=\212\017s\276\324\277\267\275\343\326}\275\335p\033>\032q\017\276\240\0037>{J\003\276\260\203\274=\377X\t=\211\266I\276\3037m\276\261\252\210\276\260\346\035\276\211-\211>\300q\275=\317\301\213=`C\364\276<,\031\277\340\004\207>\236\317e\276\025\"\336\275K\t\311>\037\225H\276|\313->\27079\276@\314\212\275Li\003>Y!f=<@\234<rh=\276)\347\227\275iT\311=]a?\275\347H\216\276\251\206\242\276\376\263\021?\216[\317\275\001\316\355\275?\323L\276xo\263==\376v\276A\"p\276\005\241\255\275e\017\255\273:\001\203=3\310\376=?\325\362<n\347\234=9T\230=\250G\267>\352b\313=\227\263\364<u\250W>H\3006\277\362\220B>\314\234\"<\205)\356\275\206-\035\276\206\222\361\276R\372\371=1^\205>?\201{\275J\202\304=0\365u\275\026<\267\275\370\331\241=\327\016\023<\342\356\016\276C\217\302\276hs\307>\004\274\210\276\317\270\365\275E\207\213\276\374@\353\275\314\346\345=\337\272l\274\002\365\326\275\234B.\276\336\314p=\000\207\t=\310,T\276\026\032?=k\322\314=\346t\241\273\244\317\325<P\302\026>\004\340\362=WW(\276<;h\275!\227\262\275\215\321h=\026\016\364\273n\t)\276\037\342V>\226\261s\276\262]C>\316`\r\276\252\2101\276\001\261\261=0-;>~\324\277\275\260|\237=\237H==\177\333N>\315Vl\275\033\354\352<\226\230H\276\352yf>\217\022u\276Ci\230\275\034J\377;\315\033\265\275\350\262+>\213kI\276\253\200\020\276u\3024<\276\r?>\276\320\220=C\372\342=e<\202\275\354|\214=s\216R<0\312\324=\266\334C>\255m\336;{n\242<\3471\024=\224Nm\276\206\367\245=\352\2347>\203\013U=\022\301\030=U)\206\273z\347\033\276\372\367\234<3\300\303\275\236S$=v\035j=\302\016\r\276\350\355\262=qM\321\2758\314\302\275I+A>\374\271\005\276 \214q\276l\2235\275\244\341\357\275j\256\344\275\366\274o>\214}\014\276-f\207>\0142\207>U\335\246=\307m\210>}v\371=}\331D\276\277\351\341>\361\261\245\274\211$\201>+\024d\276\000\t\234=\267\203u\276l\002\n\276\314^\336=W\227a\276\2063\022\2767\362\010>\220\016\366=\326\363O=\035^\210\275\334Q\361=\262\312\331>2\260\024\276M\241\326>8\263\004>\212\236\017\276@\257\007\277\323G\336\275\325\237\000\277\353\367\022\276fn\007=\222\275\335\275\0070\025>u\235\203>_Q\253=\330|\237>{:\210=\266\026d<;T\267>\223\324\304<\306\303u\275\266\330\334\275\356\364;=\244-u\275\346\202\024\277$$6=\001%1\277\262\323f\276\351\251#\275{@H\276\026\225&>\224F\331\276\024?n>\257\025s>\346\365X\2767\016[\2764KL\276\267\267J\276\3703\310<C\240(\273\213\265\246<\212\323\\\276MC\347\273{B\236\275\310\004U>9\260l\2764\365v>Z\316<<?\030J\275`\353\246\275\337\211)\276\"`Q>\300\200\263<\031\376\014\276\226[\220\275\336\037\206=\313\277y>h\261\024><\032w\275`\343\232\274\\\271\334<d_M\276\220\005,>\363\\\306\275\304A\233\275\260\254o\275e\235.>\300\037\243?O\033\343=\004\006`>\343\361\347\276C\177\227=\3649/\277\313w\335\275\027n2=\246\375R\275U\262\030>W\356\265=\336{\346=\004\\Y=\247[\020<\000\006\244\275n\n\221\276\n2\277=jr\270=\027@U>\350\234#\276i\343\026\275%\006\354=\037\250\200\276\227a\214\276\354b\235>\177\215\017\276^\265?\276f\224\323\276\306\013>>\300]\210\275)yb\276\rZL\276-\037\224=\363\213]\276\006aw\2765&\222=(\341\343\275.|\266\275uW\004>\374\222c\276\337\360\332;\205\240\362\275~\200\367==$H\276CC\212\275\307\335\344\274\234\327\002\276\353\346\025>m\337N\274\231\244Q\275\t#\371=f7M\276\311\366\300\273\307\002d\275\0142\\>\000\037\032>\274E\2118\rN(\276\340\216\"=\224ve<\274y\243=Gu\273\275\257\336\271=im\221=\352y\306>\203\252\"\276\020[\026<pJ\264>Q\016\255\275\311\t\266\274\275\037\254\276i\327\334=Yj\263\275g\343\001\276\t\2504\274&\300\025>\201\250\257;\236\244\200=\240T\274=vy\003\276\177Y+<\205\316\016>V\216F\276\227R\"\276\347^4>\340M\013>)T\245>\350I\266=Yx\240>+\373x\275\343\300~\276\177\326\323<\210\005\223\276\304\024f>\353\300\211\275\3724k\2752\240G\276\253n9>J\036X>\332\022f>\277\2256>+\227F\276\311=`>\263C\t\276iO\355\275i\000\316\275+\032C>i\203J\276>\354b>\206\270\340=\020e\270=\010\241\277=\277\204\324<\nB\373\275\242\010\020\276\247\255\017\274v\034E=C\2312>\0209:>H\'&\276\235\271\330<\005\003\003\275p\227\370\275\351\321\257\274E\271\024>\'\267$\276I|\231>\0335>\276\2410\002>\204\371%\276\350z^\276\220d\316\275\3069\362<V1\374\275\00637=6E\r\276\232\245\001>\006\306\220\275\266\336P\276\223\337{\276su$>*(.\276\3760,\276;\\]>\340\334\031\276\241\0350=%\010\251\275D3\213\275\315s\032>\321<\250\276\243\264\272\276E\353\'\276\267[\375\274g\322%>\003 \323\275T\205\224><\361\232\275\376\000B>m\200\245<B1-\276\023\236L>\003,\201;\334P\017\276H\303\355=\345\246\006>\3279\001>\366\2217\274\005GP\276?\335%=\021\374\016=\ti\032\276iL\272\275s\252\367=\304\216&>h\230\224\275\246\254Z=\355\032\030\276qd\025\2763>&\276\341\323\213=H}\312\275j\363H\276\026\371\336\2759\262\003\274\260\245\374=\222\250m>\270\211?\276\370\244\334=C\374I>$\242\303<.\243\346\275EI\000>N!\326\276\301\001\022\275_C\235>\323\310\237\275\250$D>\371\252\220>!\375\362\274\331\326O\276\374\205B>\313t\366\274&\343\222\276\213\227v\276\n\355\216<{`\252\276piX\276\3104\357<_y\230\276\274\236]\276\2415\003\276\272Zx<\254\305\212\275\307\213\377\275\207\n\225\276a\251\262=\357Zy>A\262\323=\036Dl=R\244\230>\260\247\">F\032,>\247\202w\276\213\235\217\275\002\360\331=\341\332)\276c \265\276@\225\335\275\2034\222\275vZ\030\277\310\206\250\273>\225\t\275\204>\334\276@\347:\2760\237\260<6\246\203\275\330\252{>\257\272]>u\274\004>\2565.\274m\n\210\276\237\211\352=\352\212\001=\303\260e=\221=&\276\207(P\274{\217x\276\266\243\300\276\322<\267\276\2440q\276\312\330^\276\241\235\365\275\325U\255>,\327~\276B^\300=[\364\001>\300\245\304=\356\221\224\275\036KE>\334\362\006>\t\256X>\006eL>\r\353\340=\227@T=\026`E>y\025v\276\220\321\'=N\2074\275}\252~\275\220\353A\275,\377\225\275\027\032\013\276\263\350\024\276\364\350\255=\346\003<=\260\367\326=\2431z\275\270\253\262<o\313B>\242\\\307=\3234<\276+\373\301:`=7>\371;->\307\035\302<\220\323\230=\365\362;>q$\353\274B\314\202>\244\355\252\275\320\333>\276\2302a>\273\215\014\276aog>!\246z\276\307$3>R\336\201>\035\302\021=\360fQ\276\303\356R\275\2774\260=\"\037\020>J\246-\275\232R\344\275\0170\376=\t]\373=\363u\245\275!\346c=\356*\352\273\315\277p=\023\213\016>8\350}\276\274\206\211\276-\215^>#\245\337=\023n\214=\374\337\366\275\366\350\332=\350\334y>,\207?=B\330\200>\321\342\004>\200\332I>\0020/\276\265w\363\275\010\"\346\276\213\253\025>\332\371\000=\023\311\204\276\001\241\025>\350\024:\276\230\263H=\\!e>Es\316>\327\200\177\276V\\ >j\214\307=\"\030\035>\1771\005\2750\035\005>\2146\242\274\332\276\001\276\\\353_\274\316\017\326\276\337s\214>\372\320\266<]hJ>\311}\224<\336\000\267\275\313X\300<\270`:>\242\t\336=y\204\351\275a\226\352<\373\250\377=`\244\204=7h\266\276\302s\323=\177\350\244=\377.!\276\000\177H\276\320\201\'\276\207\335~=\277\0203\276\246\367 <W_\177>\237b\217=\254\"\020\274??\031\276\202\2264>g\265\004>\3429\206\276\231Q\004\275\224s\360\275\314D\024=\366\260%\276\347/\255\275\371\304\350\275u\313\377=+\206\251\275\3329\037\277te \276\256\002G=!\335\004>\013)\244>\213m\010=*\375}\276\324.H\274\'\323M<\205\315\000>\241\"\352<\227\263\256;8\320\255=\367\227\254\274\364\352\037\276\305^\245\276a\256}=\306\270L\276\301\304}\276\321\242\225=qq\355\275~\006P\276\204c\004>\326\031\000<\363$\330=zsX>\277\372\204\276\321\226\273\275X\305%>R\016\342<\347\037S\276\030\320<>\3428\265=\224\330\000>)\211n=\323\346\361\275\334\306~=^\310\033=\013>t>\323gt=n\347\204>\237\251\336\274\252f==U\256n\276\253N\241>\356\346\030>f\'\025<c\353\t>\200^s>\006\370\207\276\307\254\024\275$\205\275\275\023X\035>\331\235\226=+\001V\276\261&\244=\027\223_>%\225\257=\367\320\324=\314\365\231>X\333:\2744\273\024\276\270?\253=3\366x=\274\241r\274\2102\335=+\231\243=\\Q\026>\341\305#=\037\254\n>i\270\243>\017\3272\276\256\234\r\276\316\356x\276\206\353\246>\215\013\001\276{)\321\274\345\211\222>0\026\274\275\241\224n>\004\237;>*\260{>\301\244\027\276\014\324~>\232J\300\272\376\200\227=r`\204>\025(`=_\362\211>\243(\323\275\224\267h\275Et\200\276\257\351\240>`q\001>\2378&\274>V\232\276\332\330,>\262M\205=\357\035\314\275\025t\212=\336M\031\276\306\260\215\275\356U\265;`\341\035>\214\031\206\276XQr=\2311\350<\0034\035>H\236\254=\037\307j\276\333l\304<)\002D>\253\250\014\276K{\234\276\236\373\367=\221y\363<\332\372\241=\2604\021\276\362\255\"\276\006b\320\275\261{\230=\311\216E\276\373\356:=\\\277P=!?\n>\342Y\\\276M\255\215\273\277D\344\275\307\302l>c\306d>F,\344=\002h\002:\354G\025\275\335\256\006>\024\n\025>\3542G\276\216\246\303\274\\R\205\275\321\2638>z2\365<\306|9\275\225\334$>\353\310k>}]\356\274\240\022A\276\031\262\000>[\025\031>\2744\224=\013\210\331<c\270f>@\247t>\316<{\2749\252\'>!B\317=\021@J\276\035\242\213\275B\007\"\276hu\263=H\267~>\336\306\016>\352\304R\276\3772T\276G\216&\276\'\027\036=\352\\\214\276\205\372\300\2757\027\370=\"\204\352>\321\3251\276\266\367\200\276A\3127\276\025\342?\276\222fq\275\300\373\340\275\315\033\341\275\177\334z=u\245\350=\036$\211\275\327U\014<\321^\027>\010\250F\276\326\252\356\274\225)&\276\230Z\263\274\305D\342\276\355\333I\2759\271h\276\302[{=\304\327\204\275\203\271\021\276u\013J\276\331.(\275%\303\355\274I\356)>\273w_>\000\223\016\276\ro\277\273YvP>MHA>+\331\014>*)*\275\350\034\235\274\250l\255=Lbj>\354m\221=\236w\004>\276yo\276\373\025\006>\277\003\033>U3\226\275<Id>\373\352\">\323\236\007\275&\365\326=o\247\225=\3304+\274RH\025>t\337K\275\024\312\265\274\273b<>tk\333\275\315\004\022\275T\212)\276\307\320B=\201\375\205>ZD9\276\314\336\310>j:G\276>\177\232\276\302\317\243\276\255_\022\277j\203\315=P\224\305=\267\214G>\227\221\332\275\365D\231\276/\223\205>\217\225y\276\245\224\036\277\306|\305\276\225o1\2773\234\333=\203>\232\276.\255\341\276\007\233\217=9^\311\276|\177M\276\322U\370\275\272T\t=t\302T>\207W<>`\256\252>\"\256E\276\377cL>\362\017_\276\034Q|\274\024\330\267>\257Y\320=\207\\\230\276\341W\004\276\2633\241>\"\231\177\276\247\255\336=\375\0362\276\024\373O\276\037\275\245\275\037\3414<\013\207\312\275\346Ul\275\366Af\276vw&;M6*\276\241VY\275#\242\227\274\'\375\010>\306Mr>\272\205\245\276\357\332\t>V\346\346=\372\227\271\275\210\315\t\276Qc\254<KI\010\276F_{=d}\237\275\321\177\353=\374\214\217=\036\316}>\340\206\210=Rr\237\274\276\361Q\276\350c\210\276^\365V\275\311N5\276\331\260*\275fdA\274d\3504\276P \260\273;\275\244=\010\006\302\274y.4\275`\242\302\275\227\325\032>f\031\365\274\322\255\257=\223u\307>jg\004>\2343w\274h\t\211=\373Q\026>\345\221\023>U\305\215\276\237JL\274\257\326\207\275H\225h>{\215\273\275\007\373U;\346\324W\273\325\t\253=\227\343\036\274T\364Z\276\231\235\353\275\254\217\204\276\253\362.\275\377-\217\275&o\202\275(\335f\276m\024>=\177\373\027<\231\357\236=\273\237\203\276\017\321\205\276\003\307\373\275\310\000\334\275C\240Q\276\220\340{\276\025Z<\276\344\260,\276gTP\276\310\026\030\276\312J\023\275rK\342\276\344\r\321\274\334\353m\275[\256D\2747\212\313:Rl\204\276\2165%>C/\246<,y\211\276\264\346<\2766\314Z>\212\021\305=\352%D>\364\033\205\276\r+\225\276xF\304\276\204\317\203\276\300\327\324=\237\216l\276\211\232\352>\314\337%>$\222\216\276\345\331\256\276\351\331\317>\305\364\r>\343\003\273\276\\a\261\276\261[L\276\277\346\346\277\r!\354\274\375\204$>\241\250\276<wco\276r\243\216\276\240\333\314\275\374\267G?\346\264`\2766\304\255>\206\"\017?\250<\377\274)\t\305\275F`\005\275{\352\033\276\n\322\244\276\234\344\225\275\023\002\251>~~j=\275\311\246\275\371\254\227\275\341\256N>\027\r\020\276n\351\233:F\303[=\255\375\020\274\2100^\276\234\264 =\nuI\276\220\306\n\276\356\n\202<\372c\035\276~r\272\273-\206\355=\235\276Y>km\225=I\246\245\275a\352\036\276sp\250>\021\013\256>\3424\217\276\031\'P=\366\211\264\274\210Sr>\256\202\222=q\\\301=\324Z\203\275\360\004\013\276V\343e\276r\230\211\275Go&>T\3460>H\261\310=\031\330\004\276Lb\215=\373\257h\2761\361\204\276\031l \276\020\361~>\350\305\357\275\310_T\276\261\220j\276\261-\226=_\331M\276\213\235\006=_\204\032>\315\257\210>\345\310\267\275\330\231\253<V?\356\275\230\361#=[\3413>_\310V\276a\277W>\221C\337\275(K\304\274\232\322U\276\250\235H\276)\367\r\276\317\346s\276s\302\013>!\265p=\331\341b>I\'f>\267Q&\276K\363\020\276d=\017>\347\263g\276Y\345\024\276`\324y\276?\342\250=\304\240\355=\227\204\t\276|\211\217=\255\233\360\2756\031\034>\370\257G>l\313\025\276\314\314\373=\003\227V>\034\212\265\275\233\256\305\275\207\231\024=\371,\307\275\230\253\035>\230\217k\274\327+\233<\021T\352\274?\262J\275b\222\005>\302\227\204\276\r\370<=jP\223\275\'\367\000\277[\231\363<S`\226=-y\221\276c\374$\276L\364\200=\222l&=^\007\243>\017\013#\276\310\325\203\274\211\321+>M9&>(\375\214=g\235 \2764\374\212\274\033i\341\276\225u\313\274{\013\217>\257\332\014>\222\362\355\275\210\"\276\275\020\353$>\336\306\261\276l\317\317<\355\330\216\276/\213\200>\003\242C=\251i\244\275\275X\343=\344U\306\275\031a\237=\210\370\210;\363\375\227\276/bL\274\255W\223>\271\212m\276\327\203\235\275\212\036r\276\222\301\255\275\332\344p\276\230\314\220\274\000\241s>*\014\356\276\032\r\025\271\n2\315\275\337\300*>\016\2143\275\364w\243>+\351\225\274\366\241\265=/\366c\276\257\345$>sIB>\2428\033>\300\310Q\275H\366n>\303\220Z\276vD\354\276@\017C\276!\337\233=};\252\275U\025\327<\342\373\013\276I\316t\276|\215\007>w\003\350=<\036\266\275\017\365\344\275Vf\207>\303h4\276h\230\025>7>\013\276-IE>\263\026\302=J>\263\275\340mQ>0\333z>*\263O\276\0059\376\275\210\210\233= \254\207\274\t\345\024\276\206\375\007\276\301\301o\275\344\244s\276E\002\032\276\020\343\212<\327\357K9\231\256\252<%\244\217=\313\234\360\275\310&\232<B\335T=KK|\276\214 c\276\327\'\215\276P;\210\272\376\017\257\275\317\362k\275\311G\325\275<\261\232>t\317\204=\253\374\217>\264\203\275\275h\342+\274\335?Z\276[Q\210>\327\344\333\275\337\r0\275X-?\275A\201\225>A--\276W\373\014=9bE?\267H%\275f\312P>S\'\003>QM-\276q\376\313=d=\037>`\307\032\275\363h\314\276tbA\276i\270\024\276B%\204\276\221\347\036?2\211e>5\254\222\275A7\311\275\2762\307=*\271|>f\333\\=1u-\276\"\201\251\276\336\237=>\271\022\233=\213\0001\276%^\231\274\n\355\003>\214\017\036\276\260$\003>=\266\006>\2015\356=aoh\276)\326o\275W\240\340=\314dW\276\237r\247=\200\343j\276&\333@\276\034Zg;\306\300\032\277+#\365=\234+\201\276\336\346\203=\265\307\353\2748\251\260\275\267\240\205\276\362\r\027\276\324\002p=zk\333\275-K6\273%w\003?-%-\276\201[\277>\312Z=\276\276\307\231\276\2039\346\275\214\000\">\361\331\310=\233I\260\276cD\377=\030\036\\>\373\0064>\032+u\275f-\020?\275\301-\276\020#\n?\254\202x\276\270\323\247>x\3133\276\267\031/\276Y\005+\276<\341\335\275&\021\355=\263{\373\276o\250\273>6\345 \273\313_q=tNo\276\004\033=\276\366,\222\275\301\022]\275;\311\207=g\367.>(\267\033\276\013\1770>\005\0226>\335\314\367\275(v\355=7\004\022\275s\242p>\343)\001>\226\356u\275\375XL>\177\036\226=\210\'$\276G\027\034\276\307\344 \276\037]\226\274|{\360<.~\025\276\253!D>\035#\014\276\0168\342\275\204\035->1D\021>\306A\230\276\212\353\354\275|r<>\037\233~\276\341\031c\276\242\036\004\276`\017\370;\362\312E>g\353I>\371\376n<X2f\275\230ms>4\275A\276\017\340\237\275WP\t>\347\262\215\2748\361{\270\222\326%=|\224b>+\330\255\275\204-1>\332<h\274L\212\252=b\"\310=MNl\274\201&\211\275\367\355\260=O\027A>~c;\276m\025S>\247\013\215\276\222Sj\276\354\326\034>E\313\356\274\034 \256=\020\264\361\275?\204\315=LXb\274k\026\270\275!\207\250\275u\n\004>\342i\361\276g\344\004=f Y\276\021\345\273\276\326\300\017?\375\316\032?dx\027>v\352U\275\303\014\340>G\226d\276\255L\306\274yy\315<\246\n;\276\340_\236\275/\221\201\276\3522\020<\363\276=\276\356p\355=\232\330\366\275\264\374\334\275\354mv>\350\'{\275~\314\001\2771\251\031>\325o5\276\351?\305>\364\213L\276\201\321@\276\t\031\005\275\002p\207>\204\254e?[G\241=e\227i=;\221\253\274t\340|\276\213\326\234\276xH\"\277\301m_\277\347\265m\276\320\345\336=J[\200\277B4]\276\026\037\">=\3027>\001\374Z;\022\264l?\216Z\376\275\204\317\202>\004\005\357\275\262\3056>\004\306\037=q\345u\275]O\212\277*R\024?i\253\271=>S\241\276P\\@\276xOl?y\241\211\275\353\300?>>q\014\276|.M\276^\027\022\2769\310\242\276[8-\277\351\373\357<,\223?\275\215(\004\277<S$?\220\332\374>\357\301\220;S;#\276\373\211\302>\314_e\276\037\215r=\032\236\207\276\245\350\022\274\270\304\211\277\235\'\200\276\263c\312>\177\212\212\276\324\374\244\276Z\264\005\276\370}\211\276K\365(\276\253\024E\277\002\253\370\276\344\264\363=\201\350W>/\347\313<\'s\205\276/z\313>\017\210\341=\276\021\322=\t\226\251=\243\370O\2724\347\'?\306\232\005\275\300\341\332\275\255\242\333=e6W=\0008t\276Z\3458>\245\310\330\275_2\367\276k\231:\275S\nN\276\256\326\001<\334v\006>s\207\001?\206\212f\276\311\017\257=^\214\024<8\023N>\032\350\305<\257\204W=pC:\276\2414\301>j\324\216\275\372k\244\276\333\247\037?\235o\355\275i\215\n<,S9\2763\237d\276\321a0>lz\205>0\t3>-\227\327\276\374_*>\322\r\027\2763\023\177>6\356B<rU\005\276\2002H=!zQ>\213\365\220<\2170\265=\345\241\275=&\264\205\274(8\314=\021\361\375\276\332V\303=\342\305]\272\352\230\026>\005|\322\275\373]L\275\344\237D>\031qu\274wA]>\3536$\276\347\265\240=\203j\002>\266\253\253=@\212\"<AM\031\276\227\353\201\276\"\016\222\276\367\245\024\276\325\365\240\275mwy\275\036J.\274^\273\273;\207?\003\276\265\254@\274\366\216z<c\037\221\275\005l\371\275g\345\221\275\227.\211\275\202o\007>\203\213A=\365`\020\275[\204\242>Z\310\n\276XU\010\276_\351\370\275\025P9>\275t\003>\036\024\022\276\372\346\020\276\303y\300=\377\\\020\2777n\242\275\006m\253\276v\273\205\276\036\3216\276%\314)\275E\036\331=\356\301\357=\367d$\276-\016\320\274\235d\233\276J+\360\274\277\357d=\244\325T>\r\005@\276\267\023m\275u\231\213;\221\240|\276\203q\262<{\244c\276NH\250=\235\177(==\\\222\273N\342s\2763\0058>\003\335\t<\022(\205\276E\247\273=\336\334_\276\0305\227=\200\237\024=\000\034i\276 /\204=R\245\210=\345\231\335<}r\010\276\212\216\247\275\262FY\275M\366\037\275l\022\016>\337!\r\2769\212%\276dL\320>\246\007;=\364D@=1\335\210=E\372\204\275\322\t\025\276\313\001\345==\342.>]\232\204\275O\312\027>\035\026j\276Xj\334\274\271\353h\276\231b\277>L,\023=B]B<\220\310(\276\311i\214\276-CC<\341T\362\275\252\021\261>P\027g<\232\344\354\276\216\344\372\2758\364\241>\205(y=\001^\215\275\374H\025=J\014\251<\344\310\022>\314\330\354\275\270\211,=\270\371[>\001x7\274\265\370\177>D\365\016>\273\353\362\270\334C\210\276\216G\302\275_1G>OuT\276\222;\225\275XS\016\276\260\006\006\276\271V\257<\256J\325>:\335\270\274\027L\306>N\321p\2763r\222\276N\210P\276\027\354\210>!\004\037\276\311\006u\274\250\221\260=Q\013\315<\234O\341\275r\200\330=Y5\002>\310^\210=,\274\206\274\217\017\006>\335\021a> Bi\274e<{\275\370\366H=p\037\362=\031\t\357=r\014U\276\375Q\326=\364\033\340=\337S!<\263\276\211\274hj\375\274\317\326\004>$\252\246<:\373\346=j\007\'>>\007\r\276\253ez\2751\336\374=\027\351\344\275\347O\002\276\271\326B=\316\344\003>\370\306\342\275L\320#= \362\014\273b\304\">s\002\230\275V\206~\276\360l-\274_@\216\276\325`)\274\21332=\tj:\275Yv\356\274Tx\217\276\344\324\240\275\2347S\275\330\362!\275\371\214\223<\004mS\276}b\">\251\265\212\275J\251\221\274\255\321\'=\254\\l\276\365~@>\032\004\232\276\361\n\232:\324\353\">c\354\227\273\224\217\261\276u\231#\275\002\315*\276\335\260U=\264\016(\276\232\373\245\276\200\032\256:\220K\177\275\020\312q\275\203\025\t=q8\354=R\257\320=\360#\000>\302 \252=E\346M\276\307\303j>\177\367\003>X\024\225>\275\347\304<\305FS\276D2\177=TB\300=\202\350\357\274`\227\304=\232\245\\>\227]\202>\000\256\375\274\036\341\314\274\257\373\205>\035\211\014=\222j\203\275n\363\215\275\226w\033;\352\3104=\nP\376\275\233,\365\275uJM\276\253\027\320=\302}0=\340\237\346<t\234\327\275\331[\010\276\303\360\301\275\266\213\207\276Sdb>\210\315\300=\215\337x>o\004\234\275\206\002\213=\327\262l>V.>\274y\360\030>#\242\314<\300a\n>@x\303\2744\211<>{\347_\275\t:\034\276\244k\347=\371\037G\276\023\363_\276/\242z=\033\".>\030\217\266=\221\331A\276\223\371\n>\333b\212\2753~\364=_\235\256\275OD\023\2763\367\336=\206\3117>\007yq=y\335\\=\312\365y>\336\344\250>\325\276K\276\002\217\235\276\275\276\036\276g\314\024\276\2064\027=\341\037\341=\321\222\016\2765D0\275\356\374I\275\311\227\256=3j`=\3315\211<\234\213$\275Q\020\364\275.R\342=N\367\003\275D\310\267\276#\262\204\276\313\361\002>\355?\222\276\272\277\254\276\221g+\276%?\356=\313\025b\276\"\230\031\274\214\000\000\2763&\222=\360\024\246\276\214\327v=\240\346\260\275\264sY>YP\245<)\027\243\275\206Y\316=8\262\030\276\3512t\276b\217\345=\332\223\003>\315\010\253\275\023~=>\354w\010>\220\013b>\t\032\032\276\030^\331\275\204\372x>\235\320I\276\367\215\265=\342Nm\275 f\027>\310\263a\276\346\030\023\276=Q\251\273\320\023\215=L\370\030\276M\243\253=\2135\201\276\220d\301=\005\\8>\305YT\275\220\257\n>`\004\201\276\000\234\376\273\270\327\332=7r\t\276"
      }
    }
  }
}
node {
  name: "FCN/dense/MatMul/ReadVariableOp"
  op: "Identity"
  input: "FCN/dense/MatMul/ReadVariableOp/resource"
  attr {
    key: "T"
    value {
      type: DT_FLOAT
    }
  }
}
node {
  name: "FCN/dense/MatMul"
  op: "MatMul"
  input: "FCN/input/Relu"
  input: "FCN/dense/MatMul/ReadVariableOp"
  attr {
    key: "T"
    value {
      type: DT_FLOAT
    }
  }
  attr {
    key: "transpose_a"
    value {
      b: false
    }
  }
  attr {
    key: "transpose_b"
    value {
      b: false
    }
  }
}
node {
  name: "FCN/dense/BiasAdd/ReadVariableOp/resource"
  op: "Const"
  attr {
    key: "dtype"
    value {
      type: DT_FLOAT
    }
  }
  attr {
    key: "value"
    value {
      tensor {
        dtype: DT_FLOAT
        tensor_shape {
          dim {
            size: 32
          }
        }
        tensor_content: "\030\254G\275!\333\367\275BX\340\274\323\030\331>\036\357\373\275\320\212\327\274\305\3316>\024\341}?\261\302\325=\262\013\372\274d-O\275\257\211\006?\200\032Q\274\305\365j\276\023\372\371<\026\270\233\275$T\241>/\262i\274\227]\025\277/\027\264<\216\330\207\276\360(\246<\007L%>E\351&\277\315\267E?\306A\017>s%\363>J!P>\\*\000?\036\362\344\271\377\037\001\276j]\030\275"
      }
    }
  }
}
node {
  name: "FCN/dense/BiasAdd/ReadVariableOp"
  op: "Identity"
  input: "FCN/dense/BiasAdd/ReadVariableOp/resource"
  attr {
    key: "T"
    value {
      type: DT_FLOAT
    }
  }
}
node {
  name: "FCN/dense/BiasAdd"
  op: "BiasAdd"
  input: "FCN/dense/MatMul"
  input: "FCN/dense/BiasAdd/ReadVariableOp"
  attr {
    key: "T"
    value {
      type: DT_FLOAT
    }
  }
  attr {
    key: "data_format"
    value {
      s: "NHWC"
    }
  }
}
node {
  name: "FCN/dense/Relu"
  op: "Relu"
  input: "FCN/dense/BiasAdd"
  attr {
    key: "T"
    value {
      type: DT_FLOAT
    }
  }
}
node {
  name: "FCN/dense_1/MatMul/ReadVariableOp/resource"
  op: "Const"
  attr {
    key: "dtype"
    value {
      type: DT_FLOAT
    }
  }
  attr {
    key: "value"
    value {
      tensor {
        dtype: DT_FLOAT
        tensor_shape {
          dim {
            size: 32
          }
          dim {
            size: 16
          }
        }
        tensor_content: "#v\236>\221\354\'>\177z,=8\302m>\257\317j\2767;\2669+\351\010\275\350\026\206>\311\302\346;\031\2005>\305\260\224>\332\273\206\276\361\3414\274\231\357R\276}\035\030=cQA>\377\324\373\275{\307\316\274wt\304\275#\306\270=hN1>\3241t=\373\227\241\276)\021\351\275v\3232>\356\003\306>}\275\332=$\234t\275\355\234\254\275=F\n=\302\376\334\275s\037\245\276\376@K\276\206\377\241\276F\376\224\276\206\355\033\275\3307\231\276\360\277\200\276\321V\031\276\037k\315<\341\316{\276\337\221\212>\214\t\200>\0221\001>5\344\322<\265\353\216\276\365\303)\276/f\217>&#\021\275\357\031\245\276\224\274\030\276\001)\n\276\341\242\344>\276o\037?7\266\206\276z\235:\276>rl>\254\354\000\276|.\375\275\344\231\343\275\010\345O>\350\354\217\273J\374D=l\235\205\276\374\234\213\276e5\236\276}\036\243\275\020\275\214=\201\373{\2765\337\205\275P\352\301\275\202}\314\275M\213$\276\020\352\213=S\346\225>\350\323\014=\262\247\234\276P0\372=xp\306=\367\333\212\276l\007y>/<\021\275\237\327\"\276O\206T<4\344\250\276\001\331\306>U\341\331\275\271g\264=e\346->\366-\237\275-?\350>\205\347J\276\354\0338\276\2709^>\257|(>F\324\210\276\\\373\232>vF\021=\022\263\266\275\247w(\276\2025\234\274;E\255=\240\337\257>\201B\253\276\005\217\262\275\030=\330\276;\263\341\275c-\231\276<\352C\276QI\037<\033c:>>\232\210\275\022Y\250<\221\326m=!\353\t=\'\265\200\276\230\212\t=[\0005>S\005\002\275g\350\377\274\033K\316\276%x\311=/\'\"\275EM3\276\271i\262\276\317\0027\276_]\302>t\254i>&.\377\275x\205\320=\017:\366<\037h\r\276\345\256n\276%5\231\276\013\312m>\301\255\253\2768\263\264\276\311\271G\276c\200\013>\252l\263=\265\224\337\276~\221\320\276\3125\'\275\307\037\344=\346CH>0\001n\275l>\267>v\025\275<h\364\354\275\370\257M\276\363\221Z>\367!/\274\257\206}\276\337k*\276&d\252>\214\022q=\263\254\227\275\252\326\217\276\236\311\206\275\224\026\253>\352[\215>\225\306\243\275\333.\250>\242\362(>\377o}>\363s\222>e\345\257\276?\252o\275\264\243<\275\244\355\021=b\251\360\275Dn\033>=\220\213\276\000A\214\276U\304\352=F\312\033\276\321\367/>\353\345\221>6\207z>\370{\272\276\333U\362\275\234`\220>\205\016\014\276\312\274%=\r\375\035\274k\035\006=GZI>\3745\212=\341\310=<7\265A>\353\026\330>\232\202@\276f\242[>\001\360d\276wy2\276\207^\342\274m\0257>li\300\274\311Ra\276\271jY\276\007u\240>\341b\"\276lFf\275\366\274F=\222\334%\275\341:\227\274\320#\337\275\323\204Q\276\367\036\265>\346\310\215\276\216\361\206>\273\242h>\033H\236\276S\261\255>\'n\">\nL]\276-l\035>SX\206>\027l\312>\306\016\237\276Q\322\207\276t\213\261\275\227%/>\007\004\261>*9\220>\346\350p\276\212\027\210\276\356-r>\304\2530=M\274\211\275\037\327G=\314X\226\276=\343\223=F\363.>\342\360\200=\254\321\312\276X\014\253\274}R \276\277k\203=\264\210\265>\326\005,>\226\206\025\276\001\235O>I\014v\274[{\246=\325z\001>\343\033\343\275\315\026\351=\357\303\342>\231I\331\274\014P\264=\030\357L<c\374\247>P\200\223\276\345\2404\276\003cR\276\2565\336\275o\261`<\325dU\275\333f\031\276o\324\254\275}\356X>f\257\262=x\262\221\275\224\346\323\276\223\362\331>\322\250p>H\206\230\276:\212$\277\361\325\246\2758\250\232\276\311\306\036\275\020\023\223\275\355L\261\276\253\305*\275\001\307\227>\221a\035\276WKN\276\243\023\207=\200\207\207>]Wn>XG\202\276.\305{\276\343-\006=\262A\227=\203\007X>\264\343x>+Tt>\216\'J=`\241\262;\372l\262\275)\203\207\276\275\2132\276\323\244\206\275\277d\266\2762\r\330\276\334\301\234>\021\357(\276\277\353\243\2740\220z\276\313\213*\276\335\201\363\276\2507\035>\213\236\223\275\230\030\023>&@\'>\227\323,\276\310a&\2738\253\201\276\373\321*>\313b6>(\206\006=\202U?\276\246S\274=\200}^=W^\305\273\225\201\372=\034L\305\275EP\300\275O\362/\275\225\036\006=\270\314p\276U\325\002\274Im\202\276\242\n3<\356\214\r?\023\300\323=9\236:>\036\200\305>\375\203\254>\317\355\231>\240\215\345=}+~>\3262\225\275,P\314\274\224ba\276\363\202\362\275\233\350\200=\020\307G\275!K&\276\006oF\276\016\375\241>\322\353\235\276\375SH>\001\310\016>8@\177=\365\317F\276P\216\306=&\324\246\276T.\305\276\374 ,\274m\335]>\2651Q\276#\351\253\273\312z\000\2760\217\'\276\252v\307\276U 1>m\376G\276\231b;>|\302\014\276\005\224(>\246C+\274\343Q\016>\231p}\276\r\t\255\275\347\330\236\276\252V\265=\356d\036\274k2\362=\2668G>.\005\371=\270B3>W?\246\275\245o\371<\2147\262<\272\272w\273\303\371\t\276\272\200\005?q\215\200>\216D-\276t7\342\276Sq\253>\2105\265\275\323SY\276D\006\226>\242(\n>\346\205L\276\312\335N>\344\210\200\2750y`>\213\024q;\320\245r>\270@\014?\276\371Y>\260\212\304>SJ\330=\220\251\331\276}F\360\276\376~\221\276n\013\221>\313\277\225=x\247A>r\242\256=\010\323H\276;\251\350<\273\262\231=\242\0079\275\257\023\'\276\255&\030\277\352\264\n=\3256Q=~\014\364>/\265v\276\"(\227\276R\332\362=\002\255;>\207ay\274\371M{>\345\266\271\276\246\035\226=E\363\324\276\3446\371=\240\331\255\276@\207r\276\261W|\276\207\307/\275vt\353=\313E%\276=5\\\276\312\250\245\275\016\346Q=\030\232\245\2746\n\270\276$\307C=\305\264\216\276\006\247\216\274)\207\"?j\371\006\276c\257\252;\017j[\275\200\216@>\231SZ=\265d\351\275\316\224\226\274z\212X=\353!\372\276xg\242=\352\370\007\275PG\247\275\234\315i<\264W\314<\207\247\221>\266\273\207\2767\036\257={=\254\276rwT\275\033\234\351>\306fB=\252\365{=\020X]\276\254;\365\275ns\253\276\003a\302;\341\313\375\274j\023\330=\337\304\237\276\357\205\002\276[\026B=\205\346|\276\216_\263<\"\034|>\257\030=>\204\347\206\276\212\351\346=\236\242Z\276\007:y>\325\330\365\275m;\254>\367\340\007\276\20636>\355\256\255\275\301\247!\276\223\372\225\275\037`\305\276m\275\234\276\215\017\t\276\345l\213\274\3174\307=\234g\266\275\357W\363\274\316-B\276\325!\335\275\231\020\304\273\324\t\255\276Cz\032>\004\261U\276\364$\n>\273\320p>L\014\224=O|\242=\212\013\000\277\352\033\210>\360.\030\276\205\324\033>c\200\010\277\3770\277<cS\370\275\302\214\342=\"\220\221\275\306\333i>w\235\270<"
      }
    }
  }
}
node {
  name: "FCN/dense_1/MatMul/ReadVariableOp"
  op: "Identity"
  input: "FCN/dense_1/MatMul/ReadVariableOp/resource"
  attr {
    key: "T"
    value {
      type: DT_FLOAT
    }
  }
}
node {
  name: "FCN/dense_1/MatMul"
  op: "MatMul"
  input: "FCN/dense/Relu"
  input: "FCN/dense_1/MatMul/ReadVariableOp"
  attr {
    key: "T"
    value {
      type: DT_FLOAT
    }
  }
  attr {
    key: "transpose_a"
    value {
      b: false
    }
  }
  attr {
    key: "transpose_b"
    value {
      b: false
    }
  }
}
node {
  name: "FCN/dense_1/BiasAdd/ReadVariableOp/resource"
  op: "Const"
  attr {
    key: "dtype"
    value {
      type: DT_FLOAT
    }
  }
  attr {
    key: "value"
    value {
      tensor {
        dtype: DT_FLOAT
        tensor_shape {
          dim {
            size: 16
          }
        }
        tensor_content: "\334\270=\277a\360\362?\2501\t\277\344]\200\276\206s\223?\320I\367\275?\003\322?\3135\017\275\261:\342\275\333\277(?t\271\003\300\201\254Q?\235\240\246\275:\024\307<\306\265\016;\247\231\333\275"
      }
    }
  }
}
node {
  name: "FCN/dense_1/BiasAdd/ReadVariableOp"
  op: "Identity"
  input: "FCN/dense_1/BiasAdd/ReadVariableOp/resource"
  attr {
    key: "T"
    value {
      type: DT_FLOAT
    }
  }
}
node {
  name: "FCN/dense_1/BiasAdd"
  op: "BiasAdd"
  input: "FCN/dense_1/MatMul"
  input: "FCN/dense_1/BiasAdd/ReadVariableOp"
  attr {
    key: "T"
    value {
      type: DT_FLOAT
    }
  }
  attr {
    key: "data_format"
    value {
      s: "NHWC"
    }
  }
}
node {
  name: "FCN/dense_1/Relu"
  op: "Relu"
  input: "FCN/dense_1/BiasAdd"
  attr {
    key: "T"
    value {
      type: DT_FLOAT
    }
  }
}
node {
  name: "FCN/dense_2/MatMul/ReadVariableOp/resource"
  op: "Const"
  attr {
    key: "dtype"
    value {
      type: DT_FLOAT
    }
  }
  attr {
    key: "value"
    value {
      tensor {
        dtype: DT_FLOAT
        tensor_shape {
          dim {
            size: 16
          }
          dim {
            size: 8
          }
        }
        tensor_content: "3S\314\274\232\360\024\277\356\241\347\276+\026^\277\005%\001>\377!o\2766M\320;\177V\326\276\271\373\223\276\027\217\345>\221)\336\275\327\"\332=\312\000\221>\222y\201\275c\343<>\276\213\351\276.k#\276$Q\260\276\360Pf\274\246l\217\276\265\332#=\375\031\374\276\240\3631=\260>\213;*\262v\275\210#\177\276\220\221\002\276\333\364\036\276=\307\222>\210,\235\276^G\245\276\337Jt=Z6\345\275fB\017\275\376\361\340\275\367Q\202> <\247>@^\035?\243\377j>Qu\322\275TK\033\277\230\237\000\276\205\347*>\341bd>\223\221p\275\'\354.\276[\220\264\276\037\017\003\2776\202:\276 \372x\275\005\271\254<\336o-\276\355\350\">\201}\027?\347\224->\330\3320>\242\013\224=\257\307\006=\241L\346>\270\213o\276\257}\274>\352\326\246\276\320\003\241\276t\341\242\276\034y\277\276\t!\216\275\362\307\265=/\016\264\276\313\372{\276M\"\320;j?\305\275\332#\204\275s\355S>}\3606\276}i\350\276\310\257E>p6\312\276:\2769>\245\007\202\273\371\035\352=\037[;\276{\316\315\276fo\016\277pB#\277\307O\303\276\220fb\277\\\275?\275\226\033\036\277\315\005h>@\257\313\275r\321\264\2756\3268?\322g1=\016\336\334=<\245D=Il\206=\272\235L>8e\177>\355\267\337\276\203\244\017\277!M\023\277!\300\231\276^\240\034\276\007\354l\275\316\016%>\362\r\t>\215*\\>\331\275q>\243\211\243=*\353\035>(\275\027>\005\333B\273\315\263/>\014\320\361>\r\023\271\276\004-R=m\r-\276\351\253s\276\273Y\256>\303\370\\\275w~\247<\310\211\t\277\303\205W;\333\341\317\274W\217M\276]\266\027\275\254\013\340<\213\001\000\277"
      }
    }
  }
}
node {
  name: "FCN/dense_2/MatMul/ReadVariableOp"
  op: "Identity"
  input: "FCN/dense_2/MatMul/ReadVariableOp/resource"
  attr {
    key: "T"
    value {
      type: DT_FLOAT
    }
  }
}
node {
  name: "FCN/dense_2/MatMul"
  op: "MatMul"
  input: "FCN/dense_1/Relu"
  input: "FCN/dense_2/MatMul/ReadVariableOp"
  attr {
    key: "T"
    value {
      type: DT_FLOAT
    }
  }
  attr {
    key: "transpose_a"
    value {
      b: false
    }
  }
  attr {
    key: "transpose_b"
    value {
      b: false
    }
  }
}
node {
  name: "FCN/dense_2/BiasAdd/ReadVariableOp/resource"
  op: "Const"
  attr {
    key: "dtype"
    value {
      type: DT_FLOAT
    }
  }
  attr {
    key: "value"
    value {
      tensor {
        dtype: DT_FLOAT
        tensor_shape {
          dim {
            size: 8
          }
        }
        tensor_content: "N\000\225\273U\217U>\233V\343\274Y\013)?P\253*@\253X^?s\004K@\020Q\367\274"
      }
    }
  }
}
node {
  name: "FCN/dense_2/BiasAdd/ReadVariableOp"
  op: "Identity"
  input: "FCN/dense_2/BiasAdd/ReadVariableOp/resource"
  attr {
    key: "T"
    value {
      type: DT_FLOAT
    }
  }
}
node {
  name: "FCN/dense_2/BiasAdd"
  op: "BiasAdd"
  input: "FCN/dense_2/MatMul"
  input: "FCN/dense_2/BiasAdd/ReadVariableOp"
  attr {
    key: "T"
    value {
      type: DT_FLOAT
    }
  }
  attr {
    key: "data_format"
    value {
      s: "NHWC"
    }
  }
}
node {
  name: "FCN/dense_2/Relu"
  op: "Relu"
  input: "FCN/dense_2/BiasAdd"
  attr {
    key: "T"
    value {
      type: DT_FLOAT
    }
  }
}
node {
  name: "FCN/output/MatMul/ReadVariableOp/resource"
  op: "Const"
  attr {
    key: "dtype"
    value {
      type: DT_FLOAT
    }
  }
  attr {
    key: "value"
    value {
      tensor {
        dtype: DT_FLOAT
        tensor_shape {
          dim {
            size: 8
          }
          dim {
            size: 2
          }
        }
        tensor_content: "\255\n\231\275G\014\005\276\365Y\222>\201C\354\276\006\215\263\276M\002s>\301\020\241\276S\206\010?\201R\212?X\002Y>\276\373s=M!W?\213S\220>_\371\020\277d\030\r?I<s>"
      }
    }
  }
}
node {
  name: "FCN/output/MatMul/ReadVariableOp"
  op: "Identity"
  input: "FCN/output/MatMul/ReadVariableOp/resource"
  attr {
    key: "T"
    value {
      type: DT_FLOAT
    }
  }
}
node {
  name: "FCN/output/MatMul"
  op: "MatMul"
  input: "FCN/dense_2/Relu"
  input: "FCN/output/MatMul/ReadVariableOp"
  attr {
    key: "T"
    value {
      type: DT_FLOAT
    }
  }
  attr {
    key: "transpose_a"
    value {
      b: false
    }
  }
  attr {
    key: "transpose_b"
    value {
      b: false
    }
  }
}
node {
  name: "FCN/output/BiasAdd/ReadVariableOp/resource"
  op: "Const"
  attr {
    key: "dtype"
    value {
      type: DT_FLOAT
    }
  }
  attr {
    key: "value"
    value {
      tensor {
        dtype: DT_FLOAT
        tensor_shape {
          dim {
            size: 2
          }
        }
        tensor_content: "\346\364\'\300)\365\'@"
      }
    }
  }
}
node {
  name: "FCN/output/BiasAdd/ReadVariableOp"
  op: "Identity"
  input: "FCN/output/BiasAdd/ReadVariableOp/resource"
  attr {
    key: "T"
    value {
      type: DT_FLOAT
    }
  }
}
node {
  name: "FCN/output/BiasAdd"
  op: "BiasAdd"
  input: "FCN/output/MatMul"
  input: "FCN/output/BiasAdd/ReadVariableOp"
  attr {
    key: "T"
    value {
      type: DT_FLOAT
    }
  }
  attr {
    key: "data_format"
    value {
      s: "NHWC"
    }
  }
}
node {
  name: "FCN/output/Softmax"
  op: "Softmax"
  input: "FCN/output/BiasAdd"
  attr {
    key: "T"
    value {
      type: DT_FLOAT
    }
  }
}
node {
  name: "Identity"
  op: "Identity"
  input: "FCN/output/Softmax"
  input: "^FCN/dense/BiasAdd/ReadVariableOp"
  input: "^FCN/dense/MatMul/ReadVariableOp"
  input: "^FCN/dense_1/BiasAdd/ReadVariableOp"
  input: "^FCN/dense_1/MatMul/ReadVariableOp"
  input: "^FCN/dense_2/BiasAdd/ReadVariableOp"
  input: "^FCN/dense_2/MatMul/ReadVariableOp"
  input: "^FCN/input/BiasAdd/ReadVariableOp"
  input: "^FCN/input/MatMul/ReadVariableOp"
  input: "^FCN/output/BiasAdd/ReadVariableOp"
  input: "^FCN/output/MatMul/ReadVariableOp"
  attr {
    key: "T"
    value {
      type: DT_FLOAT
    }
  }
}
versions {
  producer: 175
}
