node {
  name: "input_input"
  op: "Placeholder"
  attr {
    key: "dtype"
    value {
      type: DT_FLOAT
    }
  }
  attr {
    key: "shape"
    value {
      shape {
        dim {
          size: -1
        }
        dim {
          size: 22
        }
      }
    }
  }
}
node {
  name: "FCN/input/MatMul/ReadVariableOp/resource"
  op: "Const"
  attr {
    key: "dtype"
    value {
      type: DT_FLOAT
    }
  }
  attr {
    key: "value"
    value {
      tensor {
        dtype: DT_FLOAT
        tensor_shape {
          dim {
            size: 22
          }
          dim {
            size: 64
          }
        }
        tensor_content: "G\211\220>\307\2057=\026\216\200=\367r|\276\205\"V>\275\353P=\253>*>\313-1>\035\227i\275\270\256\236>\341>\271\274\343\203\037\276\210y\t>^7\350=\350h\270\274\341G%=\267\350e\276z\207\t>@#\271<\350u\312=m~\255\274\032r\000\276\003\316\205>\235\315\271=\353\246\002>[\363t\276\254\004f>\025_?\276&\026\207\275\033h\371<r,\021>p\265\031\276\345B\246\276\000\274\350=\311\346O\276(@\210\275\221\206\323>=P\030>3\204\200\276_\252}\276\036\313\300\275\243\276{\276\nU\032>\236\340\305=B<t\276kp\031\275O\374\244\276\2662 =\236\031\264>}\341\302\276B\2335>Pw\000\276\225\372x>:\365\252>UvH>Y\242\213\276D\231\310<-8\306\275\003e\234>\030\362\036>\210\376\250==\343\201\276\241\253\213\276\250\362z<\250\343\"\277F\375#\276\377\003U\276U\020O\273\321\\\201\276\2319%>55\211=\276y7\276\215\244\343\275G\332\033\2768U\002?\327\327\002>t>.=z\252\004?\262\247\273>\343D\362\275\242\266\332\276v\036\366\276\270W\275\270\331\252E\275\177\250\360=\205\337p\276+\246M=r\"Y=>\2511>Z\034\023\276\352{5\276\3173\227\274\370\360)=\367\327\221\276\023^>>\227\364c\276}\333\234>\353\345\240>\000\201\217=q\313;\276\0067\204=\317\277/\277\202\203m\275Aa%=\237^\310=\250\203\377=!o\025>\004YU>L\247Z\276\252\361\233=T\030B\276B\3356\275\364\352k\277np\305<\221\361\275\275\206\270\315=\357\340\305<\2064\371\275\345\030\215\276\322\345;\275\326\337B\275F\r\312>YMP\276\"v\210\276\277\232\207>\202V\027>-iR\276\030\355\210\276\300V\336>\241\224\355\275\365\374=\276g.\203>\213^\027=\367\256\331<z6\377>Wz\032>\247N\004\276\203\232v>\3048\021>\241\231\221>\242\357$\275g6\216>\026\321w\275^\016\222:\324\263\032\277\273\302F=h\313\376\277X\276\337\276\275-\315\277\035t\251<\314.Q>\372\r\272>\022\262\253\276\001\254\002\276W\247\303>J:b?\006~\r\276\331\334,>\265\235\363>m\277\203\276\252\230\246\276\270\037\241\276\020\375!>\342\307X\276\273\265\236\276w\341\237\2763\361\217\276\354Cy\276XSR>\n\214r>\266\252\332\275\244\303\262\275\t\030\272=c6\314>yH\257<<w\360\274\202\244\312>P\341\356\274C\001}\275\017\316\264>\217(\001\277\027\032\225>\301?Z\276K\340\242=#\310\007?p:1\276.)\265=zo`\276\033\3744\2771\253\207=\366b;>\225}L\276\204\367\203\276\255\204\010>]\2732>\257\"O\276\275\344\204>\026\377N\276\325Fy\276t\202\262>\347<Y\276i\311y\276\356M\252<\346\240\210>&hG>3\365\022>\013\337\276=\227\223\351=l\301\n>\303W~\2761<h>u6\207\276Y\035;\277R\325\356<\266\255=>\224k\373\274$\022o\276\364\364\202\276`[\266>=\255=>\234\271\373\275\276\240\030>\306~\370\275R\373\002\276\\\316\320\2755\005\314=J\202y>\020?.\276\255\355Q<\314\314\335\275\002#\270=\322\273P\274(\232\002\276\337#\204>\315\375\351=\245\361f\276\252c\026>\353\204\025\274\274ou\2769\007\252\275\353O\305=\024\003v=~\304\t?\327b\244>\317\372l=\364|\303=\315m\000>\313\365\027>\265S\353>\030\347h\2753\232F\276C\3457>\361\344\\=\232kO>T\333\013\275R\257Y\276IV\001>\\@R>\001\033W>6t\207\276h;\251</\226\301\275}\t\263=2\\\264=\335\353\346\276i \202\276G\033I=\235\323(>\276!\322\272\315\263\317=\007\353\265\274\231\324\026>\376B\214=\320)\200\275\177]\"<|\036q>(\014[=\203\216v\276\275\3344;K\242\037=\374\324\332<\214~h\276zE\367\274{\257\244>\246\353\030\276\363\342\336\275\362\237\206\2751\320\233\275\264\365L\273^Ej\274\202v\250\274\302\035\317\274B\357\220\275d\305\007\275(\3648>\221X\221\275\367\264j\277s\213:=\307\2451=\366\267\"\276\346\216]=\372\311\210=\223\217\205=p\355<=J\320_=\257\010\373\276i\256\234\274m\330\t>\226\373\241<\2126\275\276\032\244\353=\034G\264\276\372U\035\275\334~\251\275\3412\270\276d\032\240\274#]\026=\237\220-\276{\275\270=\"eG>\037\334B\275\2070{\275\3666B\276\033`2\276X\217V\276\0022\227\276f\240\233=\'\250\024>U\026\333=8\240l=\177\215\344:z\276~\276\333\242D>\201l0>\252\367/\2755S\224\276{R\216\276\3447\037>-\235\007\277VY\352<\264\257\310\273\301\0222>\016\031F>\004\261\022\276xa\216\275B\207$>x\345\310\275 \021\023=e\312\202>\346 \262=\250n\014\276:\342\'>\257V\376\275=\033>\276?\021Z>\021\231v\276\023\265\265=\004\323\326\274&\373\032=\275\337g\275\035\227\223=\026\271O\276\317\017\261\276\302o\254=B\231}=u\252\227;z\357\203\275\252\327\">\345\0162;[0o\276\223\013N;t|i>\375\037I>\307\246c\276!&\215\276\034\004\340=\322\033)\276\032|\021>\000@\033=\325[\316=\344\024:\276u\211U\276\341\037\177\276\222\000\200>\024~,\275L\224\201\276\023\006\264=\206\271:\276\033\007#\274_#\222\275\240]\231\275\226\021\204>\302\212C>O\270\035\276\241/\376\275gJ9\276\203\"(\276\355\347\r\275\225\342/>\177\237\320=#\305U\276]\022|>\272\202g\276\271&~=\322\250;\2752%Y\276\020\364\232>\355\341\207\276\262\r\237=S3_>\372,{\275h\347\222\276c\245p>\021\364\305=\031&\227\275\r)\215\275\027\260\243\276\253\2346=T~\323\275\320\375r\276\r\2165\276r\305H\276\330\374c\276\334\311 \276Rp\271\275!u\324<\271*\340\2752:\316\275\027\247\271=[fO>B\377H\275\341 \025\276\004\351W\276]\206\206\275\334\321\235\2757\331\017=a\261,>x\034\367=\275\353\000\276-2\220=\313\353\341\271\252\262->\223\321\200=\365\010\334\275\034\325\277=K\312\246=\363g\375\274\204+A\276a\340\357=\354.\213>\306\2627>\230d\345< \363\233\276\367\212\t>5\363/\276\325\007&\276\223_\335=GW\226\275\277\273\251\276\363\373\232>\013I\346>w_t<M-\223\276F\274\310\276=\355\256>\275\337;\276L\3566>\352\344\\\276\251\312\004?\004\252c>\017\315\245=\317\257>\275\342\270\010>\224\034/\275xt\330\275\007\275\254\276<\345\n\276hg\311\275\275\031\301\276\320\271\222<\304\210\366\275\363\n_\275\007\246v\276@&\020=p\265r=\0000\"\276*\027\035>@\317-=\030\372\274=\355?\177\275g\261\251>\362R\000=KY(\272\tc_>\326\214\323\274\027\007\251\275\372\205\000\276\201i\371=\'\013\">r\024B\276\037:h>F\314\276<\017\3043=%\020\305\275\014C5\276\306X\243<eg\">\203\236O\275 \256\201>\304^\n>1s)\276\271%\363\274Vum\276\326\360\353\275\245Q\t?\266\001/\2765\022\371\275\310\345\337=\006\327\363\276\335\322z>G/\266=\001Of\2769~\017\277\026\306\263\275\322\025z=\216\300J\274y#\205\277\303\335\230\277<2\343>R\025&\276\350\220\205>\374?\202>\'\370h?\275\260R\275\005\337\017\277\340\314<>\032\255j\275c\361V>\310\223\016\277\204O\035\277&A\352=\364r\204=m\017%?\256\252\002\276\321;#\274g$\231?7\365\371\275\016\230\327\273\203?\246\276`Us>\366\262\327=\031\367\016\2763\027\n\276\374$X>\036\366\234\2740\353\330<\370=c\274\026\331\270:(.\333=P\334\223\276\014\221\026\276\225\325p>6\324\330>]S1\276\264\200\370=t\3035>3\347\346>JM\265<\347\333\323\275w\233\216=\343W\201\276\005\024\010\276^y\237>s\021\204>\337\360+\276[\366h\276\346)\314>?\275K\275\260<N\275\325\224W>\3279.\276)\316\266\275\263M>?\360\311\344;\336\335\255=\224#h\276\335\014w>\005X\211=.Z\016;\016\250\224\275M\205i?X M?\275\343<=@\271\200\275\224\346\300\277Bs\205\276Q\260I\277\002M\244\275>\240\322>\010\322%\275nF\372> \270J\274\307t&?\331\332\r?q\223.>\321\2108\275\315\322\312\276^\375[\276;\003\201>\354\007\223\277\n\260e\276}\322\377\274\362\240\303\275\214Z\307>\331Oo\276\333E\256\276,\037\256\275\334\216\243\275\206q*>\240\023\036\276\263z)\276w\376\t?\350\212\276=\243\253\256\275\206\353\001?\312\351+>\240WG\276\3245\307<\027\022\270\275}\252\202\276\346\275\226<mdI>\260\361\006>\274(\'>\002O\244\275`\302\203>\t!x\276\322\320\236<j \204>v\303<>\365\373\327\276\254rn=V\214\003\276\235\311x\274\004\306\t=\270\006S\276\250h\225\276n\216\343<\276\315s>}\017\240\275jH\337=/\334;>kv\350\275\341\177\246>\274\366\271\276D\3505\277\306\333\027>\365\023~\276SXo?\211\0105\275\366\256]?\224\364A\276\264\340\250\276V\332\213>v\272\237=\3640/\276\240\274+\277\353S\247\276\330nF>\335\251\n\275\340 \310>\207\264v\276\224N?\276q\326Y?\262\313\332\274%\226)\276\337H\336\275\263\327\226\276b\215M\276\301\026\037>\273b\355<\026\342[\276\'\356\306\275\261p|\276\010\2063>\024\021\212=1\002\000>\024\221^\275@\266\311\275\220\020+\276\347\333k>\364\262^=\271 \203>\221g\256\275=\377\222>\013\202^>\205\030<;\022\215<\276\264\311\364=\273\226\360\275\365N\244>.\006\035\274F\252\372=\301\251\324=4L\271\275\023#\272=\262\257b>\274DA\276\337\354\212>+\023\210>\214\302r\276\213\334\227>\227\204W\276\350\206<\276\316\327\260<5\2536>H\376\307=\320\337\330<\244B\247>i_\203>\2632[>\025\371d\275\2115\242=\263\356\215\276\010B\205\276\272\233 \276\225\033\330>\277d\357\275\264\304\333\274v\025V=~\214\326>\363\024\323>\266Mq\276\203k(=\354\302\000\277,\213\362=`zq>\221\302.\277h\215\\\276,J\305\275\271\260J=\340!\032>bP\335=\326\237}\276\360]\377=\212\222\320=\211\3244>Y\244\202\276`=O\276f\261*>\"G+>C]\n>]\267 =>$U\276\203\365@>F\2301\276\324\263c\276w\342.>\257r\201\276\237\025#=\303\237Y\275\363\226\335=\207k\301\275{\262\223\275\336\375)>\2756\335=X\341\367\275\203\231Y\275\033\217\";\301)\231\276P\366\264\275e\303H\274\371G\272\275\007\007\311\275h\355\t\273N5\014\274-fB\273U\216\220\276\376\\c\276\202\321\001=O\352\340=\243)\030\274\270&v\274&\333\030=\037\322\274<\236\274\207\274\251\334\352;\266\367\233\274\376t\257<\355\322\275\272\373\226;<\310+w;>\013\203\276\306\340m\274\357:\214<\002C\006<\316\014.\2761\336\000\274\351\263\333<\254Z_\276\351\345\203<\023t(=\267\351\272\275\360\177\035\276\232\263i;c\230\235=\365K\253\274\217\201\220\273\276\244\300<Fn\344\275c\261d<\342\355B\275\032\265\363\275M\177\235\276\357\205T\275\327\313>\276\276\262m<\t\213\232\275\221\251v\275\301\264S;\200\303\264<wH\003\275\316\362t<)&\247\274\273\215\270<E\001\001\276:[\210<\364\026_\276f\225$\274\037\n\025\276Q\223\215\276`\016\220\276\224H\211\276O\206^\276\023\300\240=\310\242\324\275\2104\016>\316\014\355=\300&\364:FM\315\276|$6\276P\320\337=\036\355`>\211m\020\275\377\360\344\276_\025\337\276\007\360\014=\245\241\310;\344\311\005>\374\377\242\276\272nl\273\342\206\267\275+\005\356\274L\363\243\276^\352N\275\215\017\317\274\335m\337=X\"\211\274K\246p;\311:\310\274\264\265\204\275n\032,\276\271E\002=\2720]\276\351\337\251\275\273eB\273\304\266\213\276\204]\204\274\351\223\314\274\026\223\230\276\300!\254\276+\227g\275\361\n\312=\332\0368\276\201\206D=#5~\276\320A\177=\037b!=\013\257\263\276O\332E>\271\321\362\276-*\216=&\375\340==\234X=\241\277\027=\350\022\302\276\036\300\203=7N\200\276\242\325\275=\3545R>[\036n\275\204\272\314;cu\214<*\225\355\275\260\267\225<H\324\352\275\001\256\244\274A\0174\273\270\236\031?\350\323\230\275\365\033\207=\034\333\273>/\277\305\275v\257\016\276\362\200\036=\374Or>-\003\240\276\310o\321\274\341a{\276\355{}\276\013{\236\276\031\347Q\277\016\360\230>Y\033\234\274\005S\327>JL2>\177\207I?\360\344\016\276\360\236u\276\221\034\240>x\004\241>\003\220*\276\205\010\r\277)\370\353\276\277\212=>M7b\276\231!Z=\353\347\004>:`\033\276\325J9?A\326a>\024\234\207\276a\331\261\276\347\250R>P\006g>Ff6>\242\230\235>\037\360\014=\244Y\271=\356\177\017\276!n.\273Z\014,>\010p\007>\367W\237=\316\224_>\005\010}>\273\354>>\234|\372=\211\244\001?.\020A=S\235\334>\353\274\024\275\225R\261>>d\277\275\266\331\223\276\316/\222\275S\275\316>\216\0345\276W\342\225\275C\221\224\275c\312z:\364\212\007\276F\233\026>\021!\023\276fH\216<\377@y\274\022\212\201\276\007G\026=\342-&>\007\216F\276\215 \247\276\276\241$>0\013(\276;\202=<\316\031\313\276d\206\217\276\231v\263=n\\\023>%\017N>)\006\373\271_\2738>\377\340\250\275/\211\314\275x\244D\276\220\324\233\275\363H\021\275Qb\030=\313\326\302\276\021\005\205>\252\366\"\276c\260\343\275\n\325\214=\035\322k\276Fnm>Q~\200\274\264\325\214\275\'2\005\276M\tZ\276/\214m>\3209\210\275\276~0\276\354*\025\276j\343\201>F\024\231\275\314\242y\276y\237N>\303*=\276\366\026:\276\3461\365;T\250\317\275%\200]\276\365\270\233\274\301d\330\274\300,\260=\242z\333=HJE>\374\346(>\034\265X\276M\350?\276\301T\242\275\322\255\276>\001\307J\276\223m\217\274h\326!=E\256\025>xvT\276<a\232\276\265\362#=\037K\021>\257A%\275\303y\023\274s4\257=\243R\245\274g\235\013\275\2518;<\225\177\336\274\325\337W>\206\214\320\275^\372.\272t\254->\242\310\204\2765\334\005\276\nW\004>\242cd>\336\023\276<Y\251\227\272p\307O<O\374\340\275@P\"=1\t{=a\336^>_\235\273\275\001\201g\276\366z\037>\007\033\315<\315\247\202>\337\276\006>\353\207\367\276\224i\023=J\265R\276)\2331\273\003\277+>\030#\352=-K@>\227\334U<f\222Y>?\324\273=\317\366Q=;\237~>_\366I\274\266#\273\275\367\\W>\224\276\200\276\244\0068>n]U\276\375O\257=Td\002\275\204\272\243<\346\254\027\276I\325=\276\270\3044>!\324\212>N\023_>}v\212=*\326\021\276et\013\276\267Kd:\311\335\277=\262\304|>BF\220<\004\315<\276[\242*\276\000\n\262=\3150\030\276D\321\014?\305\236u\276>\n%=\336\037\n>\n\007\320<\267\250&=Y\207\202>\344<\267\273\0023>=\026\262\256>\033\'\210\276pF/\276\242\354\010\277T\362\332\276@\366\323\274\t\375\214\276(/k>\t\241d\276\372\240\231>A\200\205\276c\323r=\367f\341=\234z\232\275\004L\206\276\203K1>`m\005>v~\271\276\204\242\247>\003\315\335=\'<\225>\311\213@\276IS\374\275p\354\005\276C\276\037\275\0134\'>\345\214\305\275>A\226>~\310\233\276\220\267*=\036i\020\276\244\246*\276\332o\240;\235X\335<\266t\031>,\262\264\276\270i \276\316\367\201>\\\224\322<{\232\027\276T\274\235>\357I(\275\221\220;>\\{A\276\351\317=>\273\t\367=\177&8\276\346\334\036><\343v\276\262|\305<\031_e\276\262\225\327=u\324#\274\006\007z>[\014]>\rg;=\370%\364=\027s\201\276\235\217\217\275\372aA>\rj \275\322\213\223\275\007\312n\276\\v\214\275\347\345\226=\312\242Z\274IP&\276\311jj>\327p`>za\266\276H/+=q\002\304\2751\366\243\276\204\017h>rEi>K\234\241\275\214p\322<\242\006/\276\224\347\224\275\341\242\265:]\206\310=\303\224\013\276\217\350\'>\036\rk>6&-\276\362\323L=\373\313\'\2762\275\230\276i\251\233>;\364\370=^R\210\274\374\210\230\276w\223i\276=\345\212>\352Q3\276\274\266\031\276\364\300]\275\222\306d\2747\233\337<\255\\\250\276z\211\247=>\364S<\357\373\313=\372:!\276q\323A\276a\341\207\276\345s\210\275\r\017\212={\213\306:~Am>&4h\275uZ\317\274\001I\200\2762\232\252=\356\023O\276\274\266\215>\"\336\r=\322\374\374\275\344IK=\235\262S\275C%\035>t\256O>\034\002E<\254\214\206\276\255Wm\276\001\361A>\030\361\206\276\275\2250\276\201\274\037\276gZ\020\2768\333\252<\020Y\210=>*A\276\232:#?\2072M\276W\261\305\275\206\0130\274\017\020\036\276i\034\033\276D\330\013\276\266\333\000\277\033\r\367=_C\300\275\013\033\227>;j?>\325C\266={h\341>\017f\"=P\316H>\347\371>=B\273\200\276xE:>7\230n>\302\223\261\274\003\367\263;\320g\\\276\202}d\276\311b^\276\003\335\254=\313\366;\275ph\332\275\243\003I>)\213:\276\363\017\327\275HK&=\242\243\'=\372\331Y<*E$>\346\014A\276\2008U>Y\264\325\275\200:\326\275\335[k\276\227\036\250\273\364\013!>\371\264\231=As:\273\332\027b>\3410\356\275\365\323E>\005\222[\275C\377\033\276\r\225b\276\032T\224<-P\256\275\r\362\204<\314\271y\276\264 \205<t\027\371;\3458\355\275B7\014>5\035\032?\321\247\364>\307\330\026\275\211\246\254=~X\315\276u\037o\276wN\\\2778\376@>\250\324\366>\306%\371\275\225\202(>\311\3342\276\205#\203>\017\'\205=\200\000\267\274>\301*\276\337\320\210\275\260\004<\276_2\352=\230Z\361\276\261\335(>\220\203\270\275*\013\307=n\333\375<\325\200,>\243\265o\275F\203\206=s\326&\276\n\326B\276_\252A\276k\315V>\010\364`>\264\337\343<V\351S>\341lY\275)1{>\235&\026\275&D\2759\033\346\206<-]\021\276\351K\216\276\236\000\022>\014c\036>\226\372[=)[p\275\313\362)=\341&\270\276#V1\276\257\336\177>a\227\367\272X\267\205\275\000\016\035\276\274\343\222\276S\031\032>2\206\223\276\212\350k=j\360\273\275\025}\355=\203W*>\201Qf\276D \314\275\261g\251;\302\'\010\276\245H\226<\345p\363=\212\361\236>\226\316\200\276E\222k\276>\200p=2%\200\276\265\033\233\276\3152n>\013\251A=\262\263\027<\237\005\300=.\305\353\275\310\024!\275\332+\305=\261\326=>:\232\252=Q[$\276\364\225#\275\247\037a\275\322\323\334\276\034~\317\275\315\301\212=\224\342\003\276\203CX\275\224\002\354=d\\\201=\207%\271\275\301\253}\276\213*\215\275\364\344r\276\025d\004\275\0202/\276\34157\276\341\226\350</\224\366\273\340\264\007<\004\027\333:\212\237\010>\335\342\362=B^3>\253\177l>%\n\013\275\222%\032>~\016\020>[\3608>\204pL\276+\370\210\276\222rs\275\271\035\307\275\346{\303\275"
      }
    }
  }
}
node {
  name: "FCN/input/MatMul/ReadVariableOp"
  op: "Identity"
  input: "FCN/input/MatMul/ReadVariableOp/resource"
  attr {
    key: "T"
    value {
      type: DT_FLOAT
    }
  }
}
node {
  name: "FCN/input/MatMul"
  op: "MatMul"
  input: "input_input"
  input: "FCN/input/MatMul/ReadVariableOp"
  attr {
    key: "T"
    value {
      type: DT_FLOAT
    }
  }
  attr {
    key: "transpose_a"
    value {
      b: false
    }
  }
  attr {
    key: "transpose_b"
    value {
      b: false
    }
  }
}
node {
  name: "FCN/input/BiasAdd/ReadVariableOp/resource"
  op: "Const"
  attr {
    key: "dtype"
    value {
      type: DT_FLOAT
    }
  }
  attr {
    key: "value"
    value {
      tensor {
        dtype: DT_FLOAT
        tensor_shape {
          dim {
            size: 64
          }
        }
        tensor_content: "\300\225E>\307\370\037=\022\263\232>\255\374\2638c\007\261\274T\360\215=\307q\202\275\374{H=\001\276\232\274\232\222\211<g\006V\276\210\0032=\332\353\253=3\315\305\274\346!8\276[\017+\276\203{\311=\304L\335<\r\271\243<s\010\346\273\310\240G>\333E\251\274\351\203\300<\202\225\237\275\347\222;>\034\256A\272V\255\013\276\320\303\202\276\215\202\303:A?\333<\227j\230\275\220s\2727\356\355\305=\262<k>\013\20199@\032M\273w\264\3338b\'P>\337\363\262\274\265\004\317\275^[\304<\275\276\345\273q\t\216=[\001{<\242`[< j/>\010$\357<\004\217\202\274i\373%>\302t\004\275\023\240\020>)\270\371\275\220\234\267>I\303\356;\261U(<\2673\272\274\365\026B=\312:\252\275\035\257[=\250\036\267\272J\257\215>r\256[9\240\312\007\2732\244\010="
      }
    }
  }
}
node {
  name: "FCN/input/BiasAdd/ReadVariableOp"
  op: "Identity"
  input: "FCN/input/BiasAdd/ReadVariableOp/resource"
  attr {
    key: "T"
    value {
      type: DT_FLOAT
    }
  }
}
node {
  name: "FCN/input/BiasAdd"
  op: "BiasAdd"
  input: "FCN/input/MatMul"
  input: "FCN/input/BiasAdd/ReadVariableOp"
  attr {
    key: "T"
    value {
      type: DT_FLOAT
    }
  }
  attr {
    key: "data_format"
    value {
      s: "NHWC"
    }
  }
}
node {
  name: "FCN/input/Relu"
  op: "Relu"
  input: "FCN/input/BiasAdd"
  attr {
    key: "T"
    value {
      type: DT_FLOAT
    }
  }
}
node {
  name: "FCN/dense/MatMul/ReadVariableOp/resource"
  op: "Const"
  attr {
    key: "dtype"
    value {
      type: DT_FLOAT
    }
  }
  attr {
    key: "value"
    value {
      tensor {
        dtype: DT_FLOAT
        tensor_shape {
          dim {
            size: 64
          }
          dim {
            size: 32
          }
        }
        tensor_content: "\342\317\201=\326f\301\275lX\257\275\216\341V\276y\034[\276\271)\023\276\365D[\2766\230z>\343\212\240>\222j\277=\234\357\222=wV\225\2762\316t\276Ag\233\276\002\2311\274\310\tF\274\210\352X>\310$\205>\236ha<\235#\201>~X\317\275g\0147>*\273\303;zs\251=\024$\336;a\264M=\215pL>\207\364\356\275w\323\333\275hG3\276Q\362x<6&\345\275\217/g>\331\n6>\246\370\214>L\376X\276\224\373T=\355\367?=\020\007\364=\303\356\367=l\230\262\275N\267w=\036H\325=\313\363S>\206c\024>K\361r\2768\020\206\275\257\302\020=K\r\"\276iL\264\275\256\230v\276\362\302\006>\340\3003\276\262;\207\275\242\346\275=.?\325=\336\240\020>\003\322\305=\351\224~=\000\311)>u\241R\275A\222#\276\312\327\375\274\"\023\227>\2438S\276_\257\243\275\247S%=I\007h>\230\005};\301\013\221=\304\261X>SL?=\270\3471\276\346\226\307\275\263&;>\351\222\343>_\026E=\210\320\025\276\013\0234>30\034\276+R!=\324?\302=\027\316\221\274\353&\022>\236\n&>Z\327\361<`\242`\276\200h\252\275\224&2>\323\230\305\274\201\350\230=\2129p>\224\212^=|\240[=\267j\374\274\257S \275\332*_\276\373\004\203\274\020f\365\274\217\306\342=6\017+>\000\302\323\275\243-\265=.m\200\276Hl\245=X\363i>\314\337\006\276\333\256\230<\301\373\025>\035\361Z\276\311\024T\276\rnS>\353JM;g\301 >\224\005_\275\277S\314=\254`Y\276\206\224\016\2768\027\255\275ipa=\241\313\376=\276\300\273<8\360\031>\247\344\232\272\010w]>\305\224\244\275\333\322\006>\014\344x\276{>1\276\211\n\260<\246\217\224=\267\235Q>\265j0>\365\375o>\337G\375=\360\216\200\276\325\345\216\275\305\362\010\276UB\243\276b\256$\276^\326\334\274\311\351\373=r\216\344=\207\000R>\036\257\022\276$\225\337\275|\340\023\276\346<\205\275\02393>\361\030\014>\311\205~\276\250\020\204<\303\024\213\2747\313\227= \343\216\275Q4\n\276f\273r>z\370J\276\265\227\312\275\316\305~>{m\341\274\352\357\232\276\234\t\331=\215}\031\275\324\023\275=\251\314\200<\006g@\275X\213\036<\253\252\036>3\355Q\275\212j\017=_#o>\323\273_;\037\375b>DL\006\276\253\272\032>\342\230\272=\250\244\244=\330\353\216\275wt\274<\365\270\016>\356\344\205\275@\216\335\274\321\357\031<\022\342d<1\205\246=\0017\275=\004aG>\322\317\017\276\313\215)\276,\302\210>\013\216\341=\327J\306=U\013\233=\333\204\354\271\347\260\205\275\005\211<\275\024#\212\276Z\372\372\275\250\017P=i&\202=\035&J\276*J\201=\327\313\240\275ik\253\276j\362s=YT\201\273\300\026K>[\007\300>\216\352_\276\33426=1\031\240=\276\346S\276\237\035l>\367\362\005\276\264\203\013>#\233\213=\326\323\023=\007\201}=W\205\302\275\037+}\2767\013 >\377\210\370=\tV\371=<r\360=\324\217\231\275\264\221_\276-\025\240\275\220\345\027=\007\206\341=#\373\221>\242\324S>\276<\261=\267\3203\276\260\016\216\275\226\312\\=K\262\212=\200\266\260=\254\222\356\274\\\352W\2763\206j\276\221\271\267\275/\273s>\350\352\307;G\243.>\304\321:\276\305\271\002>=\261?>1\207\367\275\337#:>\025\263s\276ZR:\276\\o{>\377\010@>\260q\004\274S)\000>\007\n\354\274j\245S=\305\027\021\276,\003\331=\026\255\360=\214\215C\275z\332b>\206\355\320\275\253\010\007>Y\351^\276\225\252j>(gi\276\327\332\362=b\017\221>\004\216\230>-hp>,\266N>k2\233<\304\211\017=1\216{\276\346\302.=\307b]\276/\003B\274r\300r\276\203\017g<\001\202\221=\241Qm>\0233h\276O\244\005\276\215\227f>\203\'\211\276\2221o\276\366\222\224>\364\2114>\245\204?<\327\035.\276\274\340i\275s\237_=\336\255F>\220\3272>\222L\336\274\360\352\034<Ok\030>2\000\222={\205[\276eq\t=\221\363?\276\016\273\330\275.v\267\275\223\277\002\2762\307P\276\3734\251>U\000=>\300`\024\276I\334{;iI<\276\343\351\275\275\337\346\014>\207\300\346\275\0243\327<i\\\212=.\027)\276+\260\230\276lh\232\273\024\372\213>\315\220\024\276\261\241<>\216S\033\276\360\377\370\275\223^\307=0kM\276\277$\000>\203\341\237<\355I\004\276\220\223\230<\375\241\003=\200\257\006>R\276\234\275\322\200\352\274\346\2121>\237\253\322\275\255\"\375=o\241\023\275\302\212d=\373\222\365\275{\343\311>\334\260\324\275\227\2770\275e\231\030<B\2606\275\007/;>(J?\276\261t\263=|X\032>\237@ =R\3374\2768H)\276\2746\260\275\r\312\300;\331\302\207>\372\263\261\275\224\013\206\276\304\300\335\274\252\001\377\275\004\273*\276\247E\213\275e\246\333\2751\204\223\275\014+?;\302\026\016\2761\321$>^\226r\276\002\007\352\2751\256\256\276\n\030Q\276\033o(\2765\252\034\2766\350\246;-\352\326\275\001\2640\276\302\030K>\"\345\006\272\275\251\367<\254\302~<\211Z#\276Uc3\276\036v\032>\253\334\221<\237)\263=\240\302\325\274\3150\032\276\326^\271\276-\n8\276\330\230\206\2751t\033>\352$;\276TI\352\273\266`\216\276\370G\344\275\373\032\004\276\340\272\221\276\301o\350\275\305&\262>\256\0055\276V\267\344\276uR5>\347@\354<\333\273\\\276\014\302\203>\007#^\275\374\031(\276-\321\'>\226f\272>\305U\"\276\376\221\023>G\231\322\275\007\027\333<W\321w\275\355\273\n>\367RF<\224\312\360<\007\312\330=\004\027\034\276\326\260\204=\217%-=\206\325\332=\024s\211\276\301\000o\276\315O\215\276\033\353F\276\207c8\276\177x\207=\244\024u=\321\274\220\276?rt<\343\"[\276\350v,=)\000\376\275\333ec=\373o7\276\312\r\316=3R\356\275U\307F\276\354\026Q>\207a\205=\354s\205\274\323\252\245\273[\310\226<\344\301\223>\355<8\276\210C\344=\017KN>d\\\376=\263\227h\275\307@\340\2758\302^\274N2\r\275vW\202\276\240\214U\276\016c\006>\037\025]=\220\377\310\275\302\3452\272\\\310\241\2751\203\335=\213\016\214\275`I\021<\317\314\037\276#\316\250\275\336X,\276\026\016|=/\322\270;g\350!\2765\300\220>\036\017\t\276#5\212\274F\373_\276au,\276[\026R\276\377\224\'\275\211\350\311=\241\205\300=\3341\257>\357NQ\276_\204\243\274\025[?>\376\365\210=\331\236k\276\000\265\221=q\276,\276\235T\230\276[\214\336\275\313\0072=\311\362\213>\251\302\354<\027\346\313\276Zj\224\2763\244\261=\207\227@\274\324\370A=Z\251\002\276[\023\317\275I\316\224\275b6\024\276:\243Y\276\231\244\217>nc$\276\026\226[\275\233P\221\276\311\231\263\275\023\362\032>\273\3561>\230!m\275}\345\346=\361l\237>\316\334\034\276\224H\261\275\376\372O\276\213!S\273\215\210\365=\215m@>.\312]\276\316\014\227\276\026\322\026\276\241\240\203\276tF\350\274\222\246\203=\272\013\350=F-e\275\226j\330\275\227B\215=\340aj>j\025\005\275\345\352\221>\257Yj\276N~\035>&\370\347=\023cX\276=\362\217=\334;.=j\371K=\177]<>\2031\264\275\253=w>\330\332\315\267\352R\210\275\210\274\245\274\357\030\033\275\205\306\'>\373!:\276\374\206v\275\357\337K\276\033*\001>^\211\206>)&&\273>)8>\350\'\235>\010\220~\270\314\272\202>\330\311\210=.\267\302=,\322\247=SZ}>x\263c=j\005_\274\270\332<\276\233\265\n>\361f\323=qo+;z\003\355=.\264g=7EO=7\336n>\240\3560\275\376o\022>\207\353I\276U\031F\276\363\2670>\221\307w\275n\034,\274(>\206\276C\300l>\236S=>\211\355\014\276\213\245\235=\360\204\341=\377>\246:k\233\241\275\350k\035>U\244\265\275\246_\224>\036a\212>\240v\213>\253\340\022\276G\300z>1\205\344=e\027e\276\222\204\224\275\355\002$=\022/<\275\226\334\306>\367!0\277\347\223\313\274\337\350\215\275\334\332\005?\336\201\333>\274\336\020\277\242:\227=\035\202\236<G\216\246\275~\304\"\277\333\202\245\275~LB>\264\377e\275\270/1=\265\256\n>\372\177(=\375\342\003>\240\020\200=\306I\205=\206JK=\0340\'\276\322h\204>vbL\276\260\356\330=\321P\247=\251z\212\275\363\'B\276g\373x=X\242\357\274\225\372\221\274>\r\256\275\350\315;>\027e\257\275<\333\000=\214B.\275`i\001>\003\334\n>\2274\021=\354\260\241\275\347,i=\253\261\005:VB\202\276\263{\332\274d\3659\276\314\t\201>h\325g>\236\255V\276\321U\275<[U\243\273u_\001>\223\343!\276\226*M=\016\023\304\275\235O\022?&,\037=\272Q\345\274]|\374\275o\215s>;\225\360=\311\345X>\1776Z\276\376\021\232\276\375\300\001\276-\340\227<\372\t\357\276\343*\025<\231\335%\276U\355\232>\217]\266>\344Zr\276\212\274\010>d\253\005\276\366&8=j[6\277\000\343\223\276H\316\364=\001#\215\276\001\355\331\275n2==hL\017\274\2244S>\004\363>=6\304\251=\224\344A<\255JU\276\231\2467>\3533;\276KRi>O\203f\274\025\241{>\276#\'=\\\212\337=V\227<=\250_1\275j\033J\276\366?\332\273\255\022\306\275\333\005\036\275S/R\276\275\'\">-_\220=^\237\013\276\222/\021=\350]\006=q\331\245=\260\306\213\276\354;E>\010\000\232=\374\313$\276\244)\271=\321H\362\274r\353\225\274v9\200\276\271_\200\276\353\323\006\276\315\316\000\276\031\243\021;\034\346F\274\365@\024\276\323&c\275k@\204\274_\227z=\224\371\004\276\345\375\242\276\211iE\273){\026>\306\266\032\276\273\245M\275\312\3015>^\205\261=\326\003\321=\344\301,\276ZD\037\276\032\250~\275qM\345<L\n\240\274\016y\225\275\241\253\307<\304G\'>i\026M=\213*b=\010\022L\275\207Z\214>\034\273[\276\310\300B<\356\177\230\275\222\345\033=\223\037\256\274!\365\267=\250cH\276\303\370\343=Vj\244\276\307F\027\276F\330\244=\021g\014\276\221\3446>\226\000\205\276\262\314S=8\305\274=\351\3545>\343\026\220\275\223\210\023\275\360\316\207>\"TI=3\030\312=\243\177\235=B\350\024=\217\207D=\376\277\325\274u#\007>\363\266&\276[\021\313\275+\\\201\276\324Dr>\003\274\\\276\336\200\005=\256\367e>;\260.>\343\203\250\275\264)\275=0\213E\275>\207\351<\207\001?\275P\226\252\275B~h\276\261\n\220\276\034\306\313\275!\226\322=F*r\276\301\347\367=H\212\'>\024\307\237<$d\312>\360\271\251;\"\225*=K\367H\276\003\337\025>\336\306\353\275\371d\266>\343Kt\275\300\017:\276\275\2010>7\026\312=\004\357\252\275\304\263D>\030\316\250\275\244F\211>/\202<>*r.\276\205\305\020>\241\337M>\327X\350\275(H\346\275\034\224!\276\327\331\276=\005\021S=kx\001>\211\321\232=\001_\220\275\266\302\000\27537A>\316\335R>\253\200<\275\203\246\312=\210\004G\276\310\272=\276\303g\337=\004\342\264\275\355\275]>\301\363\215<u\366\336\275f\372}\276\210\275t>4)^\275\345\000s\276\215[K\274\367)\345=\331\312\213=\337M\335=,$(\275\263c\255=#4\232\275K\366\314\275~\327\007=^q\001>\307\271\005\276z\354\260\275\263\024*\276_\020g>\224u\225>\333I^<Un.\276|UV>\002\001`\275\363mF\276\273\246h\276\353\372\017>\263ON>\212\025\207=\373\341\236\275E\326\017\276\204l+>\313\245\211<I\0021\276\205\202\225\275\242\321{>\337\340\006\276\273\304\204=N\275\334\275Ep#\276\r5\007>U\202\212=\250[:>o\020C\276\304-\005=\352\343\024\276\216\242f>:\016\261\276M1\\<F}\254;7\345(\275\231\206\031\276\277l\343\273\0351\007\276;\205s<\207\302\020>\343\326=\274/\016\243=C\362q>E\222\214\275\024\264\343\273\034+r\276\334\023\252=o:5>__\326\275\263\007\025=\202\201m>E\033#>l\330\210=\361P@><\337O>\027\311\\=\355T`\276\271\305a>\235\247#=\200\255\005\274Z=O\275\257\326B\2763\201I\276\254\302\227\275N\313r>\267\037\236<\033\310\020\276R\030\023>w\034\204>\225\344{=@\302]> \364}\276%#{\276\270p\033=\352w9\276\200&\210\275\020Y\017=\213jn\276?\234g>\177\300\317\275\037\311\276=\320\324\256\275\337\360k>\027f@\274\330\357\211\275\364\276\307=\356A\204\276G\002\351\275j\367,>\234\234R=6E\213=\350vr=\275S\333\275\265\234\032>\2452\243=C+\253<\313\376\020\276\203\024\212\275\341\322\014<7f\000>6\330C>\013c\323\275\270b\023\276J\304\034\276\204\357\247=\n)\362\275\330\264\001\276k\")\276\211\256\354=*b$\276\262\235%\276Tl&>\223*G>\323\275\337<\322\031\371=d\025F\275\303II\275\303\021\204>\212\216o=\223\215\236=\250\247C>\233s\374\274\317\227\032\276l\032C\2764\334\200\275\203I^\275>\313p\275\215\036\217\275VQ\231<H=\311\275\022\220\001>4\256\267\276\324\036\002= \000\217>\357\372\023\276\031\301\024\276\246\356u>\273\252;\276\267\267\001\276\224R6\274\3617\225>\225Y\340\275\306\313\365\275\265\252C=Q\346A\276\233*\271<\317u\034>\347\306\260\275}\000\027=\313]_\275O\222D\275e\302\027\276\321\317\326<\245\021f=\020\252\376=\371\206\220=\2543\005\276\364N\031\274M\034\201\275\305\372\303\275Q\361W\276D\2341\276\335\350\t\276rH\2636\224tl=\002\3131=\262\253\324=\260pm>`\017\001>y4$>\360(\207=\013`_>t\n\\\27642;\276\325\225(>\004X\000>6\357\317=PF*<\030\347C\276\234HY\276\316\2655\276\305&\014\275,)\345=41d<\027\3069>\301vj>\237\273\037;\017\021o=\'.\007>\216\262t>\376T\017\276\001n\255>\3270\256\276r\0049>\003\241\n\276\233\221\320=\357S{=Z\312\'\276<?~=\361\234/\276;\032g>\342\324.<b\357\202>\227\022]\274L\301\332=\232(\026<\027b\t\275\264\241\334=\232\204\237>\3760\'\276\027O2>\237\342\004\276\322\323\326\2751y/>\356\021\210>\337~\014>)4L\276}\220\035>&\\R\276\315P\224<\326\r\377;\322\332\005\275\200\344\363\275\334\"\177\2761R\321>\326\312$>\252\310\002>d\217\\\276e\250\005\276\307\2406>\031CK\2761\311\262\275\371B\022=\375\245!<\344<\355\276\213\032r\276\265\223\332\275wv\020>\320f\004>\236\213\023\276\333Nz\276\206\342b\276\233\242V\275\202T\224\276v\016u\275\373D\201\275\365\207\241=M\nj\273\267\241\021\275\216\365\245=\336\247:=\367\345.\276\311ef>]T;>n\007\010>\274\265O>mB\275=Apu>\340\245H>UH#>%\303->\262\220$\276\212\3543>[\237\225=t\236]\276\021\010\307=\3735t<,\321\000>\307\023:=}*t\276\334\347x\276\316^\206=\022\2077\276\245G#\276:\376\014>\256\372\272\275\202\217\245=\264p;\276^\355\251=x\002k\276\245\003>\276\231\230J\275\323` >\304\021,>\320\252\\\276\327\246^>\306KF\276\327\326y\276\001\333Y\276p\333\222\275\n\363\255=\241\234t>w\325\350<p\024E<\223\036a>\030\244\232=\035\020\215>\344\245\201>\\\251\242=\220\334\246;\373\000\322\275m2\266=\225\'\017>tk^>\202\243&\276B\266\351=z\3074\276\005^\304\275\315\243\217\275\234\001\364=\262\343\030\276\206^\233\276\272\216\020>\222\"\304\275L\263_\276\016)\301=n^\000\276\277\375\205=\373\235f=\333#\272=\360e\260\275\t\006\005\275;\317\013\276\342\305\220=\026\036L>\223\2536\276\353\010\014\276\221\327x\276\310&h>\366\371M=\203-\317=\215\251\251=\350\314\205\276t\374\037>\362*Y\275\264~\315\275\215\000\326<S\0103>>\023\235=g\035\026>REd=z4\222\275\n\363s\276\207\221\203\276\365\304\354\275\022\261Y>\342\020\033\275\216U\330\275\342\017Y=\370\006\353=r+Y\276\002\307,>\001Z\320=\371J\016\276\216\304\202\276\255\242\215>\033{K\274\327V\212\276(i\262\275\006C\t>\320\003\235\275o\025\036\276\272(\202>\350\273\322<\326cW\276\242\026~\275\037\0216\275\262#U=2\327\255=\341\337\000>V\001\032<\024oi\276y\325E=\245\332\005\276e\177g=\225\375\366\275\226N\231\276\023\257\366=s\307\376\275\370\003\027\275\374\233\031>\022\303\034\276\222aa\276s\034l\275Fb\234\275M\275\202\273O\257\210\275g\331Y\276\030\t\002>\322+\014>\313\364j\275@a\316=\352\310D\276\340\351o\275\'\tS\274\004\377(>+!|\276\374\000G\276\313\0332>F\331b\276\237\256@>_[G\276\016\252\307=\216\275\366<,\3579\275Z\376\r\276\365Ua=\031I&<\263\272\255\275\235\332\020\276.5\027>`\362\252\275\3010\213\276f\370=\275Sl\n>H\205r;\223\377\r=\t]\276\275%\213\213\275\375V5>\260\007l\276\370\363\200\276\036\3630\275\344N\031\276\236f\223=\036\267;=9\026\207\276\351\321?>\3406/\274\257\345\272<\"v\314\275`12=}\214\263\275\277W\226=\332\272\204\276EXY\273\305L\214\275\267h\302\275\352\374\211\275\277\241\211>\365\336\222\276\307\364\344=\224T\325\275\030y\254\275\366A\\>\330e\373=\322\n&\276\330\373\262;\316A\312\274\212\243\323=,h\322=\356\377\223>\316{N=\247F{\276\354F\337>O\266\347=i4-\275\023\243{\275\275*\213\276\222\267U\275u,W>8\356\203>\273\014\010=T\'\247\276\266\233\204=\221\020U=\352\277\250<\232\374\352=t\007\206\276\305\261:\276\032T\226\275g\026\005>WpN\276\275\205\364\275\316\353b><*\222\273\215\206X>$\025a\276V\366\\>\333\336\006\276\r\010\242=\332\010-\274?\275p\276\334$e\276\334\006s=U\031B>\37345>\310JX\276\010s&\276\347~\333\275H\0348\276\3511\237=d\031T>hN\224\274\'m+\276e4\225\275GQ\200=L\253C\276g\376y\274Vg\220>\266\r\035=xK\024\276\234\036i>t\337\006\276\203\000\303<\232m\035\276>T\225\276yn;>t@\014\276\313\326\002=|Nq=\013n\220\275\373v\026\276\220\3439\276U\207o\274\022\227\032\275\031\\\317\2754\277\230=\232\276r\276\361\336}\275\027|\327\275\001\251\230\276\247n\363\274\301\225p\276 %\203\2766\265+\275\207\263->B\3428=\212l\023>\273T\007>k\374\033;\031\035\003>\346\216\226\274\352\353V\276y7p\276\275J\202\276\353\357\026>\025\r\000>K\233[=\022\033N>A\302\377<\277\222#>\033\360e\276\230\310\350\275\366\214\363=(\324e>\377\242d>/.?>h\336\356\275FKE>\357}\355<\3027\267\275%&5=\362}\253\275e8\370<A\220E\274\253\000p\276\375\216\217\276<\2011\276\031Op\276l\2134>\361\204\003\276\256\257V>\035\t\253<\232r1\276\004MU=\327\016\317=\351\260g\273\261\212\026\276\213a\316\274^M\222\274\\\320\327=x\357m>^Zr>\2439@=\221\201e>]\037.\276o\014;\276\341\270#=\265i\232\275\313\3661=\213Yp>\237)#>\377\204e=O\006\227\275\220vC\276]\265\000\276\310\301n\276\344\375?>*\340l\275$j\034>\2150,>\266\202_=>\334R=2\225]\276\0372_>\273I\021\275 (\031>\241R\301=\377{\226\275dB \276\350z*>\256\267\352\275\010@\342=&(r>\325DH>MT\016\275\225*\202\272K\354V\275\246\324\265\275\025Ne\276\030=\322=<\265E>\323\036\306:\021\375\251=f13\274\257p\337=\323+\001=[\025\343>\010\rQ>\036\003d\276\257\264\235\275f\001\345=\017\237\241>\376\205m=~X\230\276{0V\276\310\034\213>\317\271\206\276\242\207n\276\246\246\203\276[\261D\276V4\032\276\240M\362=\215\375\200>t\021\305;\025N2><\320w\275\2618C>pW\270=\275\010W\276 :<\276.\217\212\275*\307)\276[\026D\276d\007W=\024\332f\276\r\332\t>C\3739\276\001\250\201=\217ik>\353{\200\275\357\022|\275v:L\276\221\017\300=\326\313-\276(\255D=\230\343\005\275\215\0160>\245x\024>\024\371^\276\207\024\013\276\3060\243=\277\220\024>d\002.>P\035\t\276\032\345\255\275\000K\303<\227\317K=/\363\337<S3\006>\177M\256=\337\250-\275Mi\367\275g]Z>\273\243[>\254\265y\276)\367V\276\344\243\212=\001m\322\275\213\335<>y\327A\276\247\016\000\276\266\361\322\275\225\010g>?s\337\275G\nb\276}vu>\001^\372\274\367%b\275\006\217\016>\262p\334=;41\276rN\215\276P\252\223\276l\215\240=\230\270\335\275Yg\263\275\035\350\363=\267;\203>\026t->\370B\270>\235V\014\276@\355!\275\336w\265\276JcI=#-\221\276\rj\031=\321\013\377<\373\243 >\333\017\222>\273&z\276_(&>\252\270\036>\354\346M<\032:\254=ucB\276\003\351\017>A\352e\274\220\217\273>\035\244)<\311\"\363\274-\276\370\275\374w\202=V\216\320\275\267\317\334=\316ab\275\204\030\213>\355\331\303\274\373$ \276\370\377Q\276\337ay\276\327wT\276\3603\355=\346j\034>\204\230\374\274Yt7\275&\r\031\2758\272{=x\307\356=\235Kf\276\227\214\031>\270\to>R\210\364\275\352k\r\274\360\2118\276_\202\211\276\214n\230;\230%\205=\240\266 >L\252\247\275\250\222\035\276\361\231m>wSj>\177\350\260=<k{<\007\226X\276#\326\023\276\302io=HX\264<(bD>_\202E>\321\377\262\275\235\371#>\304M\336=\037\003d\276\347\253J>\343\037v\276H`&\276\361\221\231>jV \276\2574E>\3260\032\276f{\273\275\302*\356\275\014\326\222\2758\016\027\276\003XC=z\240e\276\r\273\363=:Q\027\276t\245\231>\036\206f>\373\370\236=s\276:\276.\243\005>\006\311\356=n\264&>\014\007\t>\366g\364\275\367X\034<\323\231\216><\374\203>\257\252\373\275\330`,>\264FO\276k\032\200\275\240G\361\274\246L;>`\354O\276\334\252z\275\022\205Z\276~\1773\276\215%x==R\005\276\304\256\254\275\237\271\"\276\334\272\033\276k:U\276H\220\361=X\263[\2756\351x\276*qz\275V\3264>90\203\271\335.\025>\232\365=\276\300\200\t>\334\252\030\276\021#O>\235\240,>\367\254`\276\374\257\334=\342\275\321\273aD\030\2769b\017\276\n\t\027\276\\GH>oc_>\010\344\237=\261\270\r\276**%>\244\273\215>\\J\205>I\222\006>\313&\210\276\257\373\224\275\023y\373<x\234\315=H\327#\275lp1\276e\205O\2750Q\204>E\236\027\275h!6\276\317,\323\274y\335\234<`\263\234\275\232]\271\272&\326\367=\310\t \276\2267\253\276\310\032\376=\215\210\016\276\037\373\200\276\336\300j=\206\240g>\371\\\000\275n\001z>\374\252\272={\273\200\276\232\367\023<\0246\326\275+\266$>\312\030\237=\274\305\017\276\356\207\267=\234\224*\274W\343\212=\374\345t\274k\340\265\275!\227\034\276\314\312\017>\n\033$>\031(}\276\024\367\371\275\341\304@>\345=\004<\260a\206\276]\204\\\275X\177\215\276f\3548\276\207\216W>\016\230\321\275\262\345\024\276$\276o\276%rV>\212\344[=\332\003J>\264aA\276i\355\205\276\367r\353\275\376B\373\274\267\236I\275\251Q\026>\202\341\247=\027\372\216\275\331M4>\023\305F=\035\366\357\275\244L6=F@[>R\220\030>\316y \276\013-\354\275RIl=N\013\241=#6A\275Q\023`\275-\241M>\234\216e>\210JA>\355\217\337:\321\330~\275@s\221\276\254\235\234\275{6\'>OJ4>1\216\033;\006\020\027\276X\363#\276W\355\246\274\273J=>\024^r\275C\\f\274\001\244\003\276\023\321\225\275\274\320\030\275Z\004,>\212\251\302=\233E\231\275:\374\257\275l\316\200>\001\250\267=\027U\351\275\224$\220\274\353v\306\274\312+\000=\254\221f\275\233A\362=\244\265G\276$\256\001>\023\"K=\224)\235=\247\314\325\271!\202(\276\252\t\372\275$.g\276\240f\021\276\372\363\375\273;_\001=/\304[\274:m\210>\371X\017\276\356\355=>uZ\177=Q\311t<\231\322\204\275\333f\204>\300\n\257\276\023\216\">\206\232\014\275G\224\332\274R0%\276\241\334\000>X/\226<\373gv>\242\367=>\333?\007>\035N\253\275V~$=\332\346J>/\235J\272>^\025\275h\375d<\245c\0149\230b\r=\\\310\333\275\311\333f=\241\247\">\245\247\030>9\3418>\004\233-\275\261&\231>\214\004\305==\357\265\275\315\321\262\274c\213\301=\322\325\266=\243rx=\264\204%>\214\221\202\274\030\255\004\276\022v\201>\232\341\023\276Q\023\004\276\203\0018\2755\013\356<$}\017\276\017XK\276g\322 \276D3:>\230\264o>^\230>\276\366\316\007\276\220\303\271=\210O\224\275|H\253\276\243\307b\275P~~\275m\325\007\276|\023[\274$\250\010\276\236\2109\276&\333\366=\234\206\022>\345\223\016>\013\356\205\276t-\200>\377d\363\275^\214[=\232\242v>\312MP\276\3037\">i\244\037=l\303\014\276\r\344\335\275p\240\214\275\3433\337\275u\305!\27601\361\275\204\240i\274S^\227>a\363\327=\370<M=\304\241\217\276\330\315\'\275\2141\002>\0009\367\275(\376q\275^\357|\274\323\252c=\"\025\377=\225;1=A\243\004\276\310\261\263=\201\345\262\275\177yY<\343f\321\275q\253?\276\247\221M=t\347d\276\252\341*\276A\3463>\023\010r=l\322X>\252\010\n\276}TM\276al\226=\316\254@>\0272\230=\277\325\363;tfp\275)\2740\276\247h\200=w;o>l\377\272\275\213\246w=wJ\206=\177\rG>\311Y=\276\007\'p\276\233\320\013=\327FW>\303\3615>ny\345=F\202;=LM$\276h\200\214=\001\230\'>\23640\276\314\215\214\276R\252\343\275\325\3145>&A$\276\036N\250==W\034\276\213i\320=\202\037\204>\277\244\244=\312\367S\276+\177\264=c\264\232\276\241\363\331\275\272\3242\2765x\341\274qh\212\276\271\314\233>jn7>\277K\224\2754\"\224=\016L\207=\246s\221=\331\240Q\276\027\220\177>\035\345\203>p\036\225\275{\013\023\276\273L\212=\320\216\017\276\302|X\276$\253\215=\307\204R>\0071b=7%\355\275\256\322l\275\311tr>\253\224\315\275\235^\244\273\313\313\000>\025$J;\361\301\021\276a\251.\27617\271;\310jv>~\034#=2#\321\274\031\224\235\275\251\030\237<\036\2319\275\212\215\006>z\364\010>\366VX=(\240\236\2756\236\006\276\315\266\240\275\254\372&\276\'1?\276\301\016\243\275\3453\347=y\235\303=\356GH\276\226\242\262=\275\303}\276\177\006,>\034\267\257=\r#\001=\265_*\276\217y\007\276m|f\276\306\376R=\264l\331=H\177\017>\303\372/\275\235\345\351\275\r\251\251=>L\034\275\355\027\223\275\010\212\352=\027.\013>\265\355\037>\364\316\033=\025\031\322<\026b9>\227V\340\275cDH\2769U\362\275\030\3316\276\013U >z\371\025\276#\372D>!\220\345\275\000Rd\2761U\203=/H\210>)\254\020\276/C>\276\032`0>\265\336\361\275\307\215\257=^\343\265=\214\002\t=\016\3272\276;\037}\274\262\327\332\274\302_\373\275\036\006\311=gf\316\275 4\216=Gx\'\276\274\240\020>4\030\201=\027do\276Z\340\027\276\317\335\'>\0021K>H\311\343\275\362\324%\275\341\344\315=&\'r=\022@S=\337\262\342\275{a(=\317p(\276(\372\002\274"
      }
    }
  }
}
node {
  name: "FCN/dense/MatMul/ReadVariableOp"
  op: "Identity"
  input: "FCN/dense/MatMul/ReadVariableOp/resource"
  attr {
    key: "T"
    value {
      type: DT_FLOAT
    }
  }
}
node {
  name: "FCN/dense/MatMul"
  op: "MatMul"
  input: "FCN/input/Relu"
  input: "FCN/dense/MatMul/ReadVariableOp"
  attr {
    key: "T"
    value {
      type: DT_FLOAT
    }
  }
  attr {
    key: "transpose_a"
    value {
      b: false
    }
  }
  attr {
    key: "transpose_b"
    value {
      b: false
    }
  }
}
node {
  name: "FCN/dense/BiasAdd/ReadVariableOp/resource"
  op: "Const"
  attr {
    key: "dtype"
    value {
      type: DT_FLOAT
    }
  }
  attr {
    key: "value"
    value {
      tensor {
        dtype: DT_FLOAT
        tensor_shape {
          dim {
            size: 32
          }
        }
        tensor_content: "h\341\200:%0$>\321\372\221<\345\345\217;,\265\276:\320\225*\275\213\270\361<s\036\233\273\355P\235<\306\014\202\276\236\351\225>B\023\364>7\010\225;\026\351\243<\263\334\334\275\363\301\316\273d. \276\324\207\274\273\202\031O\274\265C\246\275\r\275\r\276\214a\307=\030\353s\273\370\357S\276\271\337\234=_6C>i\227\213\274]\276\345>\316\024\216=\235U \274X\306\235<\260J\022>"
      }
    }
  }
}
node {
  name: "FCN/dense/BiasAdd/ReadVariableOp"
  op: "Identity"
  input: "FCN/dense/BiasAdd/ReadVariableOp/resource"
  attr {
    key: "T"
    value {
      type: DT_FLOAT
    }
  }
}
node {
  name: "FCN/dense/BiasAdd"
  op: "BiasAdd"
  input: "FCN/dense/MatMul"
  input: "FCN/dense/BiasAdd/ReadVariableOp"
  attr {
    key: "T"
    value {
      type: DT_FLOAT
    }
  }
  attr {
    key: "data_format"
    value {
      s: "NHWC"
    }
  }
}
node {
  name: "FCN/dense/Relu"
  op: "Relu"
  input: "FCN/dense/BiasAdd"
  attr {
    key: "T"
    value {
      type: DT_FLOAT
    }
  }
}
node {
  name: "FCN/dense_1/MatMul/ReadVariableOp/resource"
  op: "Const"
  attr {
    key: "dtype"
    value {
      type: DT_FLOAT
    }
  }
  attr {
    key: "value"
    value {
      tensor {
        dtype: DT_FLOAT
        tensor_shape {
          dim {
            size: 32
          }
          dim {
            size: 16
          }
        }
        tensor_content: "\014\001.>\304F\252\276\325\307\r\276\343c\230>vU\321\273\002(\333\275\270\334\247>2\360u>1b\005>`\305\234\276\'\322\217=I\253(>\252\224\313\276\2267\207>\034\013\323=\226o\030\275\036\307a>3\301\232\276X\363\200>X_j=\177\nm>\326\252\262\276(f\236>\241\370\204\275\035\226\215>\214\203^=\023\354i\276\274;\332;+s\265<3F!>d\324\230>\007c\247=\310+\243<)~\255=\326[\r>\311\3615\276\224\t\266>J\257\202\276\036\265/\276_\216Y\276\353\261\004>6\225\032\276\371\0131\276\215C\215\275\231\341i\273\000\243J\276\315\371|>^\364\254\276\2323\013\275,v\003\276\370\216\357\275\300<k\274}\037\353>\224)\243>R\005\032>\001t\201>k\264R;\243\324s>\327m\211>N!e=X\261 >\264\300\202>jhe=$\220\261\276\346\335w\276a_\210>\321\271%\276\234\'\025\276\270\256\231\276\365\237n\276\\\003\241=\025\'\024\275\303B\304\275u\\\'\275\362\034\310\276\301S\222>\277\201X>l|\005>t\317D\276\010\273p>:\213g\276$\261I\276\347q\233\2760\244\006\275\032\032\270>b\335\222\276\370V\316\274.u\213>\351>I\275D\353\251\276\021\314\265\275\275t\251>r\254\215=\217\177,\276T\365\217\276\202\357\216=5Vg\276\177\020M\275\220\205\205>\330\343\237\275\241\345\311=\273\352\242\276\2718\244>\2365\237>\350}\300\276\027\303\224>\023<M>\027HN>\366\024\032>\\x\255\276\221B\257<\327\"\216\275&C\212=\251\325\210\276\210\226P\276\314\030g\276\027E;>\255\320u\276Q\243\225>\350d\273>\325\314\212>\321\203[\276\245\216\271<\222\360\344\275?\255\232>6:\021>\371\315L>us\201>\301\313\324<\254V\014\275?>\225\276h~\305\275\347\006\024\276_\3329=\330\206s\276\304W\271=.\010\200>a\311\212\273\351\247\201\2766\030\302\274>\327\266>}C\362\275\255<r\276\225\267q:\357\227\240>\004[\220>\374\202/>m\324\212>\342\024\250>\224\204\300=\032\202\257<\3601\262\275\243(o=\343\004\204>\356(\232\276\271\006\220\276m\032\232\274*Z\375\275=/\253=\232\324C=u\210b\276X\221\237>\307\225\202>\225\370\211>\234\225\n\276\352Wk>\266\266%\277\247\226\004=\221pG>(\333\246;\200\340\242\276\252\014\262\276\005q\010?\363\356\033>C^\266\275\2654\375\275\036y\373=Y\024\253\276\366\235\253>Hc\177\275\316\207\346>\316\234\225\276\231\303#>\207\313\n\276Qf\362\275\364\327C\276q\351\320>O\336(\276:\244\223>\234\020\245>\371\241\234><\223\032>\025\375\232\276`1v\276\033?\277\275&\336D>\252,4>g\031D>/+\214>\036\021%>n\206\034\276j\031\311\275\327\032\263>\263g\261\275\353\272\021>~\360\357\275$\307\337=f\006\255<\350\375\243=~t\212\276\313\275\261\276/.\263\2766\020\207>\206[\272\275\213A\206\276\262=4\276\373L >\253c\210>5SG>\357\317\322\275\177\037}\276-(\035>M\304:>Y\214\031\276b\366\203\276\027\247\347\274\311\030\024\276a\022%\276\207\263\020<Q\227\274==\250\326\275@\250\272\276F\340~\276\312\002\266\276l\226\035\276\242\006\003\276\000\002\027\276l\356\252\276\264h\335=vlh\2760\324a<\370\314\017>N\223u=X\361W=\364\020<>\266\251\001>Ad\235>\276>\367\275\023\362\230\276\351y\255\276\213s.>\302e\231=B\376\001\276\002)\370=\240\344\014\276%\317\235>\245\364x\276\201\325\034\276\246\253\223>(\340\300\275`\266\335>\243\022\210\276=\263\203>\350\257\216\276 :\255>\251\021\273=y))>n\026\255>\202\'(\2768W\347\275\361c\257\276;\2314>-\354\374=\235\005\202\275\333\337\031\276dM\245\276 -\025>\276\375\007>\200bn\276\201\267v>J\217\352=\351Be\2767\026p=\271\230\n>\252\265\"\276\356\023Z\276Th\254\276\377\226\030\276fS\221\276\304\211w>\335\311\266=\354\000\210=\373D\307\275\373U\223\276\200Z.\276\240\365-\276\021_\177\275>2T>\276\376\272>\330\266\367\275\246\277\216\276\366A\247\275[\014\021>%\315\207>\035\360\212\276T\326y>C\003\271\275\240\277\303<P\275p;Op\221>\375\030z>K#\227<\3158\263=\264\211\236\276L\323\310>p\364?>\224L\266\276\315_\356=%\372&\275gp\'=`N\317\274\3040\220\276<K!\276\244DQ\27600\213=+\030b\275GF.>\336\033\035>(\375\344<\327\302\236\276\200\351\262>u\024\260>\230\035\266\275\372\356\005=\216\253\225\276\006\026_\276b\010\276\276\233\231j<(x\242>\260}\344\275\3346\343\275\370\2625>3\314=\274<Ra>mx\321<\300\316\037>L,I\276-\255\304=\222\345 >\364S\315>\210D\226\276\257\211\023>zg\034>\223\276f\276\017\177\355=\276\365\353\275\275\210K>\363A\243\276\033\205\223\276\210\007\332=\353x\220>\234\356\322=\005\220\227>6k\255>\257^\230\276~\351\253\276>]8>\010\351M>\273*^>\330:+=\234\216\212\275H\t\013\276j\231\264>6\245L\276\030>\231>\334[\353>\376#\243\275_\021>=\255\263\026>\366\220\363=jR\271\276\211\362R\276s-|>`\267\202\276\014\301\204\2762\237\027\276:\270S\276\272>\252\276\024\020\271<\314\366c\276\241C=>\"w{\276\311\236U\276v\235D\276\227\340\247=n\031\251\276Q\374X\276*\243q\275\243\222\031\275(\313\n=\255\036#\276\260x\177\276\241]w\276C\341\033\276\330\307\200=\264\306\263=\376\374\253>\266\2039\276\177\300N\276\264Y\300<-\t\325\2743\033]>\036\351\215\275n\004\260>\240d\002>2q\332\275\313C:>\337\226\351>\232Z\215>\030\342o\275\245\361\237=\215L\230\276j\375\212\276.\300\225>\305\001\310\276\023\034\006\276\"m\031\276tt]\276\210\210-\276\023R\246>\234\275_\276\007\333,>s\352\031>g\374\261\275\211\031\307\276\220\274\005\276\t\365\203\276\351\372)\276\035\033\365\2756ti\276\356!+\275\002i\274\276a\342\243\276\325\360\215\276G\313\242\274G]\005>\352\313\316<>],\276\316\307\210>I\371=\276\373U\232\276\270#z\276\370\313\355\275$\367\006>.\255\267\272N\231\037\2767\242\323\2766\342K>\264\220\\=FG\231=\214\"\241\276>\220\306=\372\343P\276\313fa>GAG>\247\215&<\264/\212>\000\327\021;\332\250\240>\341\"\034=\272\030\322>\225\021\231<\236\367\355\275\030\312\200\276n5\322=\220\322{\274\221\235\364=\3542\\\275\224\224f>\036\255g\276\232xR\276\301u\022\276\217\305\345=\254\213\030\276\3358\207\276\'\351\212\276\346\3639\276\020\377\206>\244\235\242>t\260\372\274\317\372\205\275\2167\246\276j?\255>\236\027\320=\273k\333\276\007\336\314=hH\215>\356\013@>\262\1778>\004zy\276\351 N\276\242\333\245\276/\214C>k\216\203=>t\223\275\003\227\257=*R&>\240\010\252\276D\315\'\275\001\217\367\2753\023r\274Vj \276"
      }
    }
  }
}
node {
  name: "FCN/dense_1/MatMul/ReadVariableOp"
  op: "Identity"
  input: "FCN/dense_1/MatMul/ReadVariableOp/resource"
  attr {
    key: "T"
    value {
      type: DT_FLOAT
    }
  }
}
node {
  name: "FCN/dense_1/MatMul"
  op: "MatMul"
  input: "FCN/dense/Relu"
  input: "FCN/dense_1/MatMul/ReadVariableOp"
  attr {
    key: "T"
    value {
      type: DT_FLOAT
    }
  }
  attr {
    key: "transpose_a"
    value {
      b: false
    }
  }
  attr {
    key: "transpose_b"
    value {
      b: false
    }
  }
}
node {
  name: "FCN/dense_1/BiasAdd/ReadVariableOp/resource"
  op: "Const"
  attr {
    key: "dtype"
    value {
      type: DT_FLOAT
    }
  }
  attr {
    key: "value"
    value {
      tensor {
        dtype: DT_FLOAT
        tensor_shape {
          dim {
            size: 16
          }
        }
        tensor_content: "\337\036*>\233x*=\027\350\366\275\000\000\000\000\343\017\315\276C\"v\275\027\263\220\276\241#\205\2767\344\241=M\360\022\277\302\346\215>\207\266\324\275\034\361\036>\362\341/?\016\242\371>\331S*\274"
      }
    }
  }
}
node {
  name: "FCN/dense_1/BiasAdd/ReadVariableOp"
  op: "Identity"
  input: "FCN/dense_1/BiasAdd/ReadVariableOp/resource"
  attr {
    key: "T"
    value {
      type: DT_FLOAT
    }
  }
}
node {
  name: "FCN/dense_1/BiasAdd"
  op: "BiasAdd"
  input: "FCN/dense_1/MatMul"
  input: "FCN/dense_1/BiasAdd/ReadVariableOp"
  attr {
    key: "T"
    value {
      type: DT_FLOAT
    }
  }
  attr {
    key: "data_format"
    value {
      s: "NHWC"
    }
  }
}
node {
  name: "FCN/dense_1/Relu"
  op: "Relu"
  input: "FCN/dense_1/BiasAdd"
  attr {
    key: "T"
    value {
      type: DT_FLOAT
    }
  }
}
node {
  name: "FCN/dense_2/MatMul/ReadVariableOp/resource"
  op: "Const"
  attr {
    key: "dtype"
    value {
      type: DT_FLOAT
    }
  }
  attr {
    key: "value"
    value {
      tensor {
        dtype: DT_FLOAT
        tensor_shape {
          dim {
            size: 16
          }
          dim {
            size: 8
          }
        }
        tensor_content: "*$\314=0\340\222>\211\325\346\276\256k\260\275x\272\031>y\210\341<\3519\206=\256u\007\275\201\262\255>\273\321\347<\'\372t\2769Z\364=\353&\264\276;\213\333\276>6|\276\367\003\243\276\n\005\235\276bU\353>\356\333+<\341\264\223>\314d4\276e\311\264\276\245\304\264>_B\242>\274\225\201\276L\241\371>h\311\207>\000\263\344\275$\030\345\276\234\000\371>\240\264\334\276\304\026\251\276\"2\267\276\230 \347\276.\325B\276\370W~\276q\3246\276\372\311\346\276\370\272\336\276\226U\331\276\315\235\220\276\211\332J\276\273\233\235>\356\"\317\273\275\026\365>#\031\321\275\263_\327\276D\300e\276M\027\374\276uV\263\276\376\370\314\275q\033a>%=\t>E\354&\276\035\364U\276\214\254P>.\234\021>\346\310\215\276\221\222\220\276$\372\263\274\235\037?\277\240\360\303>\310\310M\276>\000,\276x\325\025\276\032\006E\275|\350\326\276N5\275\276\\\311\273>\372?h>\364W\020>\255C->\337Yt=gB!<\330\376\241>~%\232>\300\010\024\277\356Q\253>\216\246\355>\026w]>q\300\201\276\026\n\376\2762<\205>\332\030\364\276#<Z>\266\202\215\2768j\024>jx\222\275\204p\331\276\306,\360\276r>\245>\321\261\222>l\364\337>,\262\272\275\3106\334>\331`\250>\316##>\333\351#>\032\370Z=~AM>\032\017\322\276UW\251>_\212\275\274\266\207\210>\377\276\201>*\222\035?\021P\371\276\275\326\206>\236\271\346>\0162\323\276\214\001\257\276\336:\022>\244\016\261>X\221\222\274\376\274R\276\014C\346\276t\354\t?\300(\255>\025\023\256\275\306\027\304>Y(A>2\220\000\276M\035\335>\230\371\260>\\\205\271>Y\307\277>\016x\360>]\241\014\276"
      }
    }
  }
}
node {
  name: "FCN/dense_2/MatMul/ReadVariableOp"
  op: "Identity"
  input: "FCN/dense_2/MatMul/ReadVariableOp/resource"
  attr {
    key: "T"
    value {
      type: DT_FLOAT
    }
  }
}
node {
  name: "FCN/dense_2/MatMul"
  op: "MatMul"
  input: "FCN/dense_1/Relu"
  input: "FCN/dense_2/MatMul/ReadVariableOp"
  attr {
    key: "T"
    value {
      type: DT_FLOAT
    }
  }
  attr {
    key: "transpose_a"
    value {
      b: false
    }
  }
  attr {
    key: "transpose_b"
    value {
      b: false
    }
  }
}
node {
  name: "FCN/dense_2/BiasAdd/ReadVariableOp/resource"
  op: "Const"
  attr {
    key: "dtype"
    value {
      type: DT_FLOAT
    }
  }
  attr {
    key: "value"
    value {
      tensor {
        dtype: DT_FLOAT
        tensor_shape {
          dim {
            size: 8
          }
        }
        tensor_content: "0\034\227?\346g\024?\014\337+\270\020P\314\274\331\344*?S\343\200\2757\264\017\275\335\322Y\276"
      }
    }
  }
}
node {
  name: "FCN/dense_2/BiasAdd/ReadVariableOp"
  op: "Identity"
  input: "FCN/dense_2/BiasAdd/ReadVariableOp/resource"
  attr {
    key: "T"
    value {
      type: DT_FLOAT
    }
  }
}
node {
  name: "FCN/dense_2/BiasAdd"
  op: "BiasAdd"
  input: "FCN/dense_2/MatMul"
  input: "FCN/dense_2/BiasAdd/ReadVariableOp"
  attr {
    key: "T"
    value {
      type: DT_FLOAT
    }
  }
  attr {
    key: "data_format"
    value {
      s: "NHWC"
    }
  }
}
node {
  name: "FCN/dense_2/Relu"
  op: "Relu"
  input: "FCN/dense_2/BiasAdd"
  attr {
    key: "T"
    value {
      type: DT_FLOAT
    }
  }
}
node {
  name: "FCN/output/MatMul/ReadVariableOp/resource"
  op: "Const"
  attr {
    key: "dtype"
    value {
      type: DT_FLOAT
    }
  }
  attr {
    key: "value"
    value {
      tensor {
        dtype: DT_FLOAT
        tensor_shape {
          dim {
            size: 8
          }
          dim {
            size: 2
          }
        }
        tensor_content: "\265_t\277\305wA?\263\264A\277\020\344=>\322\017\030\277\266\006!?\310\345\022\277\315R\265\276\355\352K?\226<B\276H\206\313>\225d\323=\013u\213>\255\357\000\277\334U\345=\267\253\344>"
      }
    }
  }
}
node {
  name: "FCN/output/MatMul/ReadVariableOp"
  op: "Identity"
  input: "FCN/output/MatMul/ReadVariableOp/resource"
  attr {
    key: "T"
    value {
      type: DT_FLOAT
    }
  }
}
node {
  name: "FCN/output/MatMul"
  op: "MatMul"
  input: "FCN/dense_2/Relu"
  input: "FCN/output/MatMul/ReadVariableOp"
  attr {
    key: "T"
    value {
      type: DT_FLOAT
    }
  }
  attr {
    key: "transpose_a"
    value {
      b: false
    }
  }
  attr {
    key: "transpose_b"
    value {
      b: false
    }
  }
}
node {
  name: "FCN/output/BiasAdd/ReadVariableOp/resource"
  op: "Const"
  attr {
    key: "dtype"
    value {
      type: DT_FLOAT
    }
  }
  attr {
    key: "value"
    value {
      tensor {
        dtype: DT_FLOAT
        tensor_shape {
          dim {
            size: 2
          }
        }
        tensor_content: "W\361\241>\026\361\241\276"
      }
    }
  }
}
node {
  name: "FCN/output/BiasAdd/ReadVariableOp"
  op: "Identity"
  input: "FCN/output/BiasAdd/ReadVariableOp/resource"
  attr {
    key: "T"
    value {
      type: DT_FLOAT
    }
  }
}
node {
  name: "FCN/output/BiasAdd"
  op: "BiasAdd"
  input: "FCN/output/MatMul"
  input: "FCN/output/BiasAdd/ReadVariableOp"
  attr {
    key: "T"
    value {
      type: DT_FLOAT
    }
  }
  attr {
    key: "data_format"
    value {
      s: "NHWC"
    }
  }
}
node {
  name: "FCN/output/Softmax"
  op: "Softmax"
  input: "FCN/output/BiasAdd"
  attr {
    key: "T"
    value {
      type: DT_FLOAT
    }
  }
}
node {
  name: "Identity"
  op: "Identity"
  input: "FCN/output/Softmax"
  input: "^FCN/dense/BiasAdd/ReadVariableOp"
  input: "^FCN/dense/MatMul/ReadVariableOp"
  input: "^FCN/dense_1/BiasAdd/ReadVariableOp"
  input: "^FCN/dense_1/MatMul/ReadVariableOp"
  input: "^FCN/dense_2/BiasAdd/ReadVariableOp"
  input: "^FCN/dense_2/MatMul/ReadVariableOp"
  input: "^FCN/input/BiasAdd/ReadVariableOp"
  input: "^FCN/input/MatMul/ReadVariableOp"
  input: "^FCN/output/BiasAdd/ReadVariableOp"
  input: "^FCN/output/MatMul/ReadVariableOp"
  attr {
    key: "T"
    value {
      type: DT_FLOAT
    }
  }
}
versions {
  producer: 175
}
