node {
  name: "input_input"
  op: "Placeholder"
  attr {
    key: "dtype"
    value {
      type: DT_FLOAT
    }
  }
  attr {
    key: "shape"
    value {
      shape {
        dim {
          size: -1
        }
        dim {
          size: 22
        }
      }
    }
  }
}
node {
  name: "FCN/input/MatMul/ReadVariableOp/resource"
  op: "Const"
  attr {
    key: "dtype"
    value {
      type: DT_FLOAT
    }
  }
  attr {
    key: "value"
    value {
      tensor {
        dtype: DT_FLOAT
        tensor_shape {
          dim {
            size: 22
          }
          dim {
            size: 64
          }
        }
        tensor_content: "\204\333c\276\212#\204\276V\301\226\275\2221\321\276\034\031\372\275U\261o>|\244x>\265Ak=zJ+\272L\207)\276\001\335>\276\250\337\331\275C\201\202\276\242\213`\2765&\302\274\362\231\374>\325\013\233\274\326\327L\276\020\236\210>\231\343\251\275\314X\006=\375\203\004>S\271\010?\273\243P\274\223\223\266\275\025\306\323\276\367\202\003\275W\370R>\251\303\027>\230\335\006?\372\244\020\275+.5\276\206e\205\276\223\223o>\206\000\305;\374@\005<\227m\227>\016cU=Z\233u\276\370\347\362=\370\332\r>\255m\340\274^!\232\275U\203\313\275e=\005\276\236\362\r\276\352\014>\276du\363= \216\271\275P5\004<,m.\277\201\357=\276Tq\320=\237\246\005?\013b\305\275\020*o>s\020\016>\331P\340\276]2+\276K\264G>\254$\302>\223\270\034\276\nL&\276z\255\032\276\000\303G>\216\203\201>\244\250\200\276KQl\277\203+\006>\203\231\333>\360\251\250\276\213y\222\276\272\240\351\276F\3377\275lvs\2761\031I\276kXm<\205#\271\276\352\033\270=\"\212\002?\200\003\271=G\325\260=\035\004\374\277\\ht\276\311\r\331\275r\375\233>\320+Z>\211\332\230\276\327\246\315;\336\3458>@\231\034\27783\306=y\016\215\274\016\304:?\213\374;>\360\2320?Cy\317\275\341\247V<h_!\276\030\366B>\202sq\274\304\034\347\275`\\\216=#\316i>*\375\202=r\341\217\276\224\306p\276\363\0266=7\334M=\031\272\222\276\271@\376\274\242c\035?^\371\233>\2620\200>\207\316\014\277\224\035\241==&w=)F\340>\320\346`>QT\020=\25329\276&\032\277>\0347\033>\024M\265\275\337g\036\276$\212\324\275\204_B>j\303\035\276!\304F\276\0249\021>4\330>>\270\251\036\277\365y\005>\262\345u\277\377\315\035\277\226s\204>\235v\016>B\031Q\276t\005\200=6R\031\276\023v\034>\256\352\236=%\001\217\275\274\004i>5\363\016?l\242\360\275\222\322\266>\314\336\345=-\017\327=9M\026<c\024R\276\367f9\276Zef>\017\030#=Sz\t?\"\340\221\274\177q\300=\362b$>\335\302\374\274f\310\203\276sM\336=T\363G?M6\003>\021TQ\277\263%\240>\345I(=!a!>\215\321\221>\0378\246>c\277\366\275\254\021)\276Ld\201=\237l\302>P\313\370\275P\276?>\233Y\242\275\354#\277\274\310}/\300\340%\354\275\',\032>K,}?\021\024\203?\212\210/\276\030^\230>\370\241\">7\341\335=\221\026\337\276\316\2164\276\t\010S\2779VX>C\241\201>\254\2312\276\300\246R\276\227_\373<\253\325\200>$S\025>\220\346\225\275\237\037\301=l\016\242;d\262\233=\301\347^\276\370x+\2764\337\264\275\362^f>\002\027\304=\372F\003>\216k\">\267\351\312\275=\354\002=J9X\274\025\254\035>,%b>\221\362H<n\010\013\276&\303\027;Q\227\252\274k\271*\276\334\317?\276\330t\240\2756\317D\276]\036\376<I\032\353\274M)\212=|\350\257=\215kC>\233(\356<\213\241\216\275=o.=r\010\r\276;\207&>k3\266\275\213\336\272\275\014W\346\275uc\301=\273\031$>\206V\203>{\324*\276\234p\201\276\265P\020\276\311\245T>\2255s>?\216X?\221\354\200\275~\n\210\275\233\332\204\276m\371\010\276<\222#>+\000\024\275\365\'\357=q3B\274\265\n\230\2755\263\n\275\3143\241\275\362\326x>\341H\204\276P\204\202=N\302I\275\352\366\240<\366\034\261;\360\r\000?\345\314\225\276\247\023g\276\241\347S>M\034\026\275>XV>95\033>US\276\274\365\206I>\323g\301\275\263\017\t\275\305\244f\276S\321\307\27631\326>\302I\032\275\2327\023?\005\2570\276\201N\035?\337\210\246\277\022\321}>o\215d<\276?\265\274Z\255\251\276\200\256\025>\177/\256\276\\8\215\276P\360b\277\251P\022=J\241\205\277Q\353\236\276\311\034\205>Z\276j\275T\'\271\276\363{\222\276Duy\275\203_f\275\177g4\276\t\353R>\264\033)>\254\305;\276y\2172>j\274\312=M\t!>\242\016:\2727KB\277\353\024)\277\017t\355\272^kx>\251\234/\277p\326\034>\336Y\351>\205Q\205=\236\213\202\276\006R\034\275H1\215\277\254\356\243\276\266\007\346\274\023\215[\276\236\343\235=|\260H\276\250\330\002\276\t\310\034<?\304w;1\264\251=]\315\014\276\'\227c>\334\301,>\242\270\241\276\350\303\241=\341\251\033>6\306\313=`\207\226<agF\276\2510\000>i`\344=\262\004\002\275y,u=_\302\326;\320\374&>\371ZN\275\235\rA>\037f_\276\331\013\033>\026\312{\275\350\372\334\275\nf\222=\320\373\206>\227f\252<0\017y>?\007\002=\354\000\030\276\262t\355\274\243a/\276\276\265\023=\204\313j>F|\241:g\314|\276N\233\035\276\\u\021=;\314\331=\313T\033>\214\026\232=7\2503>\031Z7\276\030\026\034>2\277G<\233}S>q4i>\022K\n>w\033\006=\371\210H\276\205@\016\274\031%Q=\366Uj=D\266M>\246\020\250\275\364lM>+\204\017\276\251~W=\225\244\206\276\200\367\337<d\360\345<\253\347\017\275\'\037\027=\366\326\005=0\273\022>\222G\377=\353\244I\276c\257\031\276\251\227S\276\244\204\214=\261\260\303=\273\271\031><\324t=\314n$>\010\272\356\275\226O\206=.nr\276\353\264)>;\177~\276r\007\302\275@\307\315\273\364\340\372=\362\224%>\351\304\310\275\221A\315\276\263\374+\276\026v*=f\030B\276w\r\247=\343\r\376= _\177\275\032I\026\276r\246\213\276\254|\327<\177\306\002=^\203\262>\215\207C=\264\026L\276(\353\027>\366r \276q\213\232\272\255\"*=mLA>\006YU>\363\203\023>\rh\321\275p\'A\276Z\2463>u\216\025>\343\032\364=l\333\021\276\020\355\327\274d\316_>\277\313\235>\215\316c\276\276&D>$~\331\276\250\320\006=i\257Q\276\205\342I>;\220\307\2754m>;5\267\'\276(\221r=\266\247U\276\203\330\360\274\3740(><W8\276\314\036\035\276\314\207\025\276f]\250\275.I\"\2764mX\275:\346\235>\207\311\023>RH\372\275\353\004K\276\370\2675>\333y6>\220\010\023\2768<\334\274M\006\361<X\236\353\275\301n\235>\374\277\243\275\223\334\337=0%\237=k\264G=\024\313E=\327P\206\276\270\236\261\274\r\"\334\273Sz\362=\346=l\276%H\303>\200\005F>.QA=\306fO=9;1\276dJ\317={&V>\266\357T>Y\361\237<\3347\256>a\333\005<N2l>\202\013\273\275v\357\026>N0\233>\313\305\013\276\274\221\323<l\252\016>\325C$<8@*>\210\351r\276\207\305\364=\200`\333=\2141q?\363bl=0%\013\275\t\264\341=\002\007\240>\347\316\344=go\236>g\253\010>\343\225\207=\006\006\010\276A\361\006>\177\006!\276\030\242\376=o7\215>\212cg>Aw\213\275\020\300\036=\216I_\276\032\333w>\\\276\330=\330-\247\276\234\\\323>\263\326R>\\<\r>\342=\"\276\342\201\"\276gT\026\276\251z\016=\307[\t>Y\230\010>\027n\300>\304\013I;\213\013\'>\251h\020>\317\353\342<k\322\304\276*\t\353=\254JP>\205D]>\350Gg>;\340\003>\366\343\312;\362q\355\274[\340\346=\344\021\'>J\333\026=\201\304j>T\240t\276\177\253R\276\036\257V>F\303\244\276\336k\261>\233C\035\276T]\201\276\322B\035\276_\203\205<u\374F=\017-\275\274\013;\273\2759\252\204=\036\307\302\274&\326%>\215\371N\275\035B\274>\032\203\314?\344\334\035>\017r3\276\324\365.\277\252o\224\276\230\254k>}\302Z>)\026.\276\353\375)\276?x6\276\277\361r\275\214\376\353<\3404C>\374\r\n\276}w\003\276M\021\037>\226\377\367\275?\302\177\276\r(\021\275\3421L\276\343\253\357>\003\266\344\276SC0\276\241]$\276\305!\373<\234\"\">\t\034 \276\246V\276\275P\253\'\276\"\337\030\275\343\311\026\277i\313y=\315\246>>\373Z\005?\204\222\022\276U*\231?\252\204@\276\234\013\310\276\3456o>\326\341\177>\210\346!\275S\213\002?\006\275k\276\001\247\210>\260\320<\276\350\362a\276xaE\277\315\357\200\276\327\220=?}\236\367\275\234\261\r?Fn3\276\227\312\317=X\223\001>N \275\275\3170\326<*\226\213\276\305\372\247=\370\006\031>\t(\373=1t|\275]tG>\236\340\336;3\243g\277\371\243\"\300\315\000\272=\353c\327\276V\232\274?\273v/?\357\206\000\276\272\354\037\276\365\3678>\231>\026\276\276~l\276\241\260\204>\301\"\017>\200u\332\27594\004>\344\t\233=\352\234\n>\2128b\275\264#2\276\375V\345=u\260\336:8F\016<\\\022\344<\036H/\276\355\266u>H\353\325\275\256\335\017\276\036\rS\276p-\356\275\037N\266\275J\033\351\2752\333\022>\257m\013>*\367\374\274\027\356f\273\005\211\205\276\362\177\205\276\264\321\364\2755M0>\352\214/>(H_\2751:\276;\005\032\275=[\037\200\276e\">>\334\022\270\275\272\250q>\211\372|=\363\345\007>\003g\203\276\017\243\004\275\307\n+=\022\304P>\370Z,\276\366`J>e\322w\276\33181\276:\276\351=\307R{>^}*>t\271/\276\016\263\016\276\334\345T=~NO\276\352L\"\276\260\236\001?\357]\345=\304\334=\276SNT=\223\310\201\275\314e\335=7\250\r\275\340\025\305\274\362%p\276\227\001N>\361j\370=P\266_\276Ur\314=\232\363\200\276\237\000\206<\241\t\033\275\337\267\204>\312\364\340<5\237\203\276^\003\300\275[\272\002\276\312\334\236>\361\316T\276+\357\371=\260\030V\276M\332\026>\236\025\023>`\253\222;u\271\016>\363\335\017>;J\222>\252\332\371\271lP\206\276\362{d>\231\346x\276\036\tf\274\315 \004\275H2\204\276u\251s=b\331\022\276\204&\262<Dp\017<\266\232G\275\306\335D>`k1\276\001\0327\276\245_2>{\237\205\276TQT>\031\004\177=g\244\002>\206.\024=\240X\013>\316\330O>\375\312X>\251&\273\275\016\373?=Or\370\274X\206a>\325\341.>\303\222\352=\270\212N\276\014\267\'\276!\314\220>\327\374\036>\252D\241=\312rz>f\265\216\276G\234t>Y\r\370\275\326J\205\275\331\206\206\275\302M/\276\333\256E\2764!\t\276\375hd\276\323>t\276\325\236\002\276\223_D>\262_c\276\210w\017\2763\307?\276\303pk\275\343\212\027\276sE\233\274\335\314Q\276@\365\343\273\324\237\223\274?\246L\276u@e\276\341\227\n\276k\271\002\276\236t\323\271\200G\355\2754\306\255\275$\250*\276t\263\364\275\305\357\255=9E\312\273\r\264\247\276\334v+>\242\000\005\276\314\014v\274\013\315\267\274\014v\205\274\261\274\021<w1g\275\007\374\231\276q\360T\275\223\356\033\276\237c\343\274\333M\225\274\310d\320=\214\005J\273P1\022\275D\204>\276A\004\301\275\"TT\275\007]\240\274\305\321\265<?\273\037\275 \272\003\276\3105\251=?\240\216\276\304\031f\276\375\225Z\276\231\270m\276\204\310\010>\273\025\034=\010\034\265=\036\356o\276\223m\233\276\262d\350\275&\355\224\276A\345\263\275\256\302\365\273\003{\254\273\010S\206\275\373\311Q\2761s2=vp\200\276=/\220\275I\202\032\275\373\2001=WS\241\275H\320\006>\377q\003=_5\031>\342X\355<_\265\177>$\261i\276\202f\212\2775\325\255\274P\222\246<t\0334\276\204=#\276AT\204\277\304b\236\275\341\350\002>\310\232\001\274aH(=\233\302\307\277\236)\232\275\375\"\336=j~W>\347\330\202\276!l\202\276w\013u\276\016\204\244\276<\250\230\275G\273\256=9X\002>\313C5>K\336\201\276L\340\316>\255\344\021\277\354\024\327\276.X\030\274\010\271\035>e>J>O\243\205\276\352\001\177\276\353\361;\276\316\333\233\277\375\030\033\275a\025\036\276\205\373\033\2773\222i>u\342\321<\375f@>\233\356\315>\003\226\000>\r\271\\\275\t\332\006\275\345|\242>\022\322\206>h\345a\275\247\213e\276\322F\234=?\223\010\276\317h\364>K\212\316=4\002*>\210Y\221<Y\246\302\274& \n=\032\016z=A\365\341\275\306\216\265=\017\250:;E(\337=\212\024\204:\223:\354\275\325\346q>l\300J\275\316\207\313\274\306H\260\275\373g\220<[BG\276\245\236F>\352\265\371\275\245|~>\331\277\316>\311\342F<\237\014+>Z\253\353\275\030\227?>\320\213\336<\253\375$\276E+\264>\361\314\377\275CLA<\370g8\274%Nc\276:\242\200\276\017\326h\2759\306H>W::=\256\311$\276D\276\225=8\203\350\275XeD\275\374\354\253=\340\253\202\275\025P}\276\271^\312=\367>\021\276Az\355\275\364\355\353\272 \337\205\2769n\373<\253\241i\276\334+0\276\331\333x>\276\376\204>\030S\002>\355\221k?\263<)\276\302\274\030\276X9\334\276\300,\">^Pm>\262\2472\276\354\017`\275\307.\206=\261\036D\275uA/>(\2553>\030\354I>K\274\231=\234@\007>C\353,>B\023G>\335O\022\276\304\335\344=Is=\276v\212,\276\241\231\235>\272\306\351\275K\355^>n9\264<\204\020\224\275F\303\306=\033p\245<\231\035}>\216\362|>\372T\237>\334\376{\276\214\336\000\276\363&\326<\035\343\r\276D\332\227\275\t\007m>\315b\224=\320\310b>\301\000g\276\362<\247=\317\301Z=\027:f=IA,\276\332*\220>`\3555\276\353\226\257\274\200\355\204>\337\0130\276#\330\236=[\361\352\275.I\333\275\261\311@\276\251B\021\276\315s6\276p\262Q\276;\010\033>G1<\276;+7\276\177\361\331\275R\344\242\275\254\322\232\275\001A\037>^\031\224>\225:M?\273\231\201>\247\251!\276\311q\204\276\311\322\217\276\257\021\034\275\363\214\321\275\002r>>[(\262\275\005v\001>\000C\276\275g\266\255\276L\236$>\324,7>\353?x\276,\326L>\253k\\>\2720t\276nBg\275\360\371D\275\200\335\214=Tm\220>\242\323\202\275l\265\225=a\013D=bL\220\275\237\030X>\341{j\276\006\230x=\324\215\364=\343\353\200>\025\345J\276\206\032I\276^\265\006\275\244*D\276\220h\315\276\331\310\016\276\300\342b\276\0340\353=\200@{\275\005\347i\276=\224\'=.\365\212\275^\032Z=vX\371=[V\006\276\\@\205=\340\333\247\275\300\302\263=\276\203f>\304v\312=\316Kj>\364\2422>\331\306\014>8\0136>\211\326v>\237\"_>[\3177>\325\200#>E\003\t\276+1q\276^6Z=\344\242\355\275\261\242\327;`\0232?\206\000S\275\227\010#\276\204C\333\276e\223^>\3605\005\276\343!\000\273\305\010@>\342f\270\275Kgc>\221\254v\276\324e\367\275>\366m\275\360rn\276\034\214M\276\231\376\246\275\034\034u>\034_\237=\30272>\270\352\"\276\325\177\272\275]\2232\276\202/\313=\250z\227=\250H\247=<\247\021\276\245\227\005\276\371^n\276UFs>\007\262\206<d\300\247\273\273\243*\276\323\212\357\275z\346W>H`\366=\031\177\201\275Z\267\300=\365b\014>]4\335<\033\214\220\273u\361\202\276\341\"\236=s\210w\275^\344@>,@\341<\001\243\211=;\220\211=\353)h\276=\266\017\276l\277N\276\335M\224>|\016\260=\014vF\276\343P~=\300\252\034\275\337\350\212=V:\006=*\276\276=\327\023\357\275\215zj<6\031P\276\346us>\225\3457>\341\"\207>\232\376s>8*\221\276u.b>Yg\335\275\224FW>i\271-=\373G\243\275 \2232>U\253\306\276|\002\213>\322\352\250\275\016\225\005=\243\271\226=\252~\001>q\226\257=\247m\002=VuF>\227\216->\327\244\225\276\305\020\177>f\216T\275r89>x\2155>\n\033U>V#\031\274\r`k>UQF\276\316\275\200>C\005%>Y\234\313<{\031y>l\351\274<\265%\347=\322\373F=J\214\207\275\031\350\211\276a\237`>\200\023>\276\370\275!>r`L\276{\272\312=\2569B\276\200\255\t\276\371\250\332=\212\tf\275\260\244I=\3741\262>\3523$=\240\240\366=V\203O\276\244\002\370=\372W[>\235\242F>IYg>.u\315=\327 \254\275A\355\201>\234&\351\272\001\320r>\346v\353=\272t1>\226\317\236=\266\025\006\276\311 \276>{\256\210?\000\035\247<?\022\257\275(\220\275\276\'\330\023>\354\252\000\276\226\2575>*I3>pc\252>\221\224\204\276\033=\250\275y[\263=\t-\035>n2\203\275S\020\204=T^3>\274\357\310=\241\232\003>\260\021\r\276\374\227\001>\243\337\262\276.i\017>\305t.\276\355|%\275\305\034\276=\261\200\023\276~\245u<\301\266#>u\331\225\275\304\231&\2766\267W>\356\210\362\275b\272\364\274\235\354~=\366\305\002>(\316\005\277S\217N>D\377E>\373\333X\275\364RL\276/)\205\275\324\207)\276\333Y3<\036}\212\275aT\026;\001\362.\276\316\341\307>\177GH\274\0063\r\276`\200\306=v)m\276a\377;=\377\256w\276\353\246\027\276Z\345\201>\023\275\"\276\373\233?\276\02766\2762\343\317\275\210r\376<\344\"5\276\267\'Y\276~\242^\276z\367\004?\0075\220?R\315\"=\256\267\264\274\237\210\022\277\345&\302=)\007\010\276\030\322{>\030zT>\375\272\010\276\250EC>\202\375\314\274r4P\276lL\017\276;\tp>P2\n>`\345>\276P~O\276A7f>\227L\241\276\264\331\240\273\312\323\300\275\201\257\224\276\245\320\334\275\310\323\005>\026\2420>Dq\201\276\362Nk>\223\373\t\272\365\324X>\037\3265\276\310\207\362\275bQ\217>\266%\016<^vu>\340\245->R\036\020>\321\223X\276\307\251;>\367h\224=\320fH\275\231\300\377=\366\026\212>\234\327\242\275\201\326_\276ko/\276\234j)\276<BN\276M3d>o)\244\275\274e\">\036\265\234<N\026\223\275\312\261\343=>\216\020\276\373\234\202>\'\\t\276\037:\363\275\303\341E\276\250q,>9\013h\276T\377\006>|\356\201>m\260\016\276\234\242?=\361=\003\277\177\030\004\276\035\035\2429B\001\242>\246\266\003>Np\000\276d\317\354=E\235\007\276y\001\204;\376\220w>\020HW\276\266\021\237\273\311\221\350=1r\364\275\231\376G>\265\364\203=)\255->\265d0\276\030\314\211\276\306\317\343=N\007_>G[\237\276\207\365j\276Z\020\375\275B\354v>\322\237u=\201\254\336\274G\016\027>\352\357:\276\007\\z>\236\035s>\240\003y\275\350\001U\276xN2\272\241Z\203\276\347\313\367\275\374&\304=\305N$=v\235\256=\300\033\211\275,\307\214>\327o7>6\202\005\276l\212\354=\201JT=,e\347=\364[\202\276\330H~\276\205\366y=\333\334>>\337\211\010>e\315\332\274T\300\020\276\014&\017\276\2158g\276\010\310g=\326h\222\276\207\351\312=\027I#>V\365[\275\210\376\246\275\314p!\276{\342b<w\231:\276\251>n\277A\203\350\274\025\245?>\342K\227\275\004g\336\275\241\273\240\275\177\224v\275\375\023\221>l\250\">\305\204\377\275\020\231B\276\324\306L=)X\001\276\217s\247\274\321S\035\276"
      }
    }
  }
}
node {
  name: "FCN/input/MatMul/ReadVariableOp"
  op: "Identity"
  input: "FCN/input/MatMul/ReadVariableOp/resource"
  attr {
    key: "T"
    value {
      type: DT_FLOAT
    }
  }
}
node {
  name: "FCN/input/MatMul"
  op: "MatMul"
  input: "input_input"
  input: "FCN/input/MatMul/ReadVariableOp"
  attr {
    key: "T"
    value {
      type: DT_FLOAT
    }
  }
  attr {
    key: "transpose_a"
    value {
      b: false
    }
  }
  attr {
    key: "transpose_b"
    value {
      b: false
    }
  }
}
node {
  name: "FCN/input/BiasAdd/ReadVariableOp/resource"
  op: "Const"
  attr {
    key: "dtype"
    value {
      type: DT_FLOAT
    }
  }
  attr {
    key: "value"
    value {
      tensor {
        dtype: DT_FLOAT
        tensor_shape {
          dim {
            size: 64
          }
        }
        tensor_content: "I{\252\273\"\274?\273\035\345u\272\215\207\316\273R6\352\274\027\321\356=\201xc>\237:\270:H\242\010=\247C\t=\001\013\3058\t\307Y<T\035\273\270{\305\256=3c\315\271\334\2018>\306O\223=\001\312\3639\005a\305>K\275d\274\005\344(>\243\205\007\276\304\266\007\274x^\037=\207\267\202\272&\375\244\274\302\373\213>\256r\224\275\312lQ=\262\203\017\273>qG:+I=\276\003\372U\274\265f\263>]\224\t\273\">S=\362\\\362<wO\223:\372\324\3007\177\257@<\373\033\211=\002\214\222\275\033$\375\270lfX=\017\320\007\274\266\340\003=\322\010]\274\277\010\006=\034\323\034\2766C\351\274\300\350`;\326\\\025\276\327\351q={Y\231>\267\216\006=\231#\204=\316|\252\271\3315\013\276\207\255:\275\361\033\210<\3201v=4N\006<\227-\005=f\302\356\274"
      }
    }
  }
}
node {
  name: "FCN/input/BiasAdd/ReadVariableOp"
  op: "Identity"
  input: "FCN/input/BiasAdd/ReadVariableOp/resource"
  attr {
    key: "T"
    value {
      type: DT_FLOAT
    }
  }
}
node {
  name: "FCN/input/BiasAdd"
  op: "BiasAdd"
  input: "FCN/input/MatMul"
  input: "FCN/input/BiasAdd/ReadVariableOp"
  attr {
    key: "T"
    value {
      type: DT_FLOAT
    }
  }
  attr {
    key: "data_format"
    value {
      s: "NHWC"
    }
  }
}
node {
  name: "FCN/input/Relu"
  op: "Relu"
  input: "FCN/input/BiasAdd"
  attr {
    key: "T"
    value {
      type: DT_FLOAT
    }
  }
}
node {
  name: "FCN/dense/MatMul/ReadVariableOp/resource"
  op: "Const"
  attr {
    key: "dtype"
    value {
      type: DT_FLOAT
    }
  }
  attr {
    key: "value"
    value {
      tensor {
        dtype: DT_FLOAT
        tensor_shape {
          dim {
            size: 64
          }
          dim {
            size: 32
          }
        }
        tensor_content: "\301B\025\276\036 q\276w\310q>\010Q\000\276i\202+\275\314\277\206\275\377B\003>a\202N\276*V\375=9\250\\=\202X\025>0\001\222\273cS\374\274\023\244S=\244\363k>y\201]\274\306\374\t\276g\r*\275\2501\036;=\342R>\371\354[\276\265`\374=ia\224<\253\313:>w\373\336<Ze\032\276~\210b\276\325m5>-\030\202=(\3121\276\222\037\225=\t\274R>\266Wh\275\374\036e\276\205G\366\275\201U~=,\227\251\275\271xw<\025\250\276<a\t\024\274\r\233\n>\023\213\031\2760\004\024=\217\351r=\347\274s=\315\340G\275\323\377\002>n\024\335<\255\312\230\274B\360\211\275\214-\0049E<\005\274\260\025\226=\342\347#=/\362\327\275\237\207\267=y\335`>\010\250\005\276g\2120>t\005\315=^\227\343<u\211\203>\300\345\304\275q\347l>,\360\023>:\035\\9\004`|\276r\207%>k>\346=\357\2607\276\352\\>\276\024r$>\022\263\351\275\250TL>R\016\342<*H!;\005D\212\275u7\310\274=N(\276\0070\325=\246\026(>\250\305\337=\206\254/\276\007D\254=\241#>>|\256R\276t\003\342\274\277\372%\276\022&y<GJX>\202\350\355;\346\343\316\275\377\215f\276\3155\307=:b?>\356\2406\276!\201\350>\261\363-\276\322^)\276E\216\211=\261\326\333=8*\335\275\320[\002\276\"\202\202>\367\371h\276\256CV>\341\362\203>\345\301\214<C\3420?.\032B\276\307\356\244\275.nN>0\276o\276=Nb>\267\256=\275\353,,>>\376m>\034h\317\276\026\244!>7O\374\275\025\204\021\276\305c\207\276K\224\210\276\225`\340\276\2611\202>\270\n\316\274\314\252s\276-`9=\014\220\221\275\243\340\231=d\2305\276UU?\275\252\273\350\273\027\234\026\275\312\312\272=@\246A\276]\355\021\274\2303\021>u\306\217\275\362%\020\276\236\265\273\275\016\371\261\275\352\241\036=\337\001\235\274\236OU>\307\317s>\231\271\202\276\357\371\214\275\007\255\223\2756\351B\2754\273X\276\\]\315\275\337n\243\276\021\177|=\213V\217\276\rl\313\275\2166\265\275P\225d\276\276VJ\275\020\'\021\276D\343\030\2754\010\035\276c\263\021\275w\335\324\275>\355\033>Q\t^>\206A]>J\023I<\204\227/\276\334|\341=%$\010\276H\225\350\275F\341\235\276\232\242\343\275\202\310\202\275\233(\204\275\251\2217<\360\256 \277`\031q\276\201+\343\275\n\261-=U\267\353:-K0=\236\310\227\276Q0\254<\335X\252>\245L\374\275h\023|\276i\006\345\275\301\001\252>\253n\013<\355;\214>\352\375\371:\324\324T\276\321\333g\276\207\350\027>\346\005\331\275\345\302D>\234\357\257\276c\306{=H\227l\2766\254\367=\305C\242\276q\300)=\260/G>\'\335\312\274\300\203W\276?H\014>\307\\(\276|zl>\217\353\020\276U\035\324<\327A\266>\346L\247=\006\323\222<\023\331\230=:\320_\276y\216\357\275\351\013\314=\013\250\313\275\220\247\010\276V\211\007>\377U\235<\337\243\353<O\222\"=\331\325\211\275\323!\316=Y\352\240=+[\">\224:\367=^\300\277=\224\371N>ik\025\276yG\016>\200\353:>\351\214\310=\344\343\'\275wA\342\275\353\267\"\276\343\016\016>:\336\267\274\323\222+\276\374\n\310\275\363FZ>\363\240\353\275\372\266\010\276\036\360H=\325\310G>\004\252\021>6jE=\345\333\333\275F\311J\276{Xh=d\013!=3Y\n\276\013\326\324\275\2322\300=\320\361\377=\370\222\213>\201\026U>l\220\226\276h\245G=6\nF=\357\237%=\355\027\324\274_\001\263\275,\234\270\274{\324N\276\227\360C>Rz\215\276}\203\361=\207\022\307>\365\321e\276A\334\226=\365\233\007>{\026\367\275\300\250\204>\201\316\202<s4h\276\300(\031>_\t)\276\345\375i\276,=\203\275\210D\224\275\025\362\337=\264\212\371=\227\001\022\276\366\1776\275\322\223\023\276\206\375\220=\317\346\340=\203%x=\023w\201\275D\204\243\275\367R\203\275|I\\\276[1\341=\342\316[>\372\322\025\27583%>\341&\006=\014?(>3|h\275\262\3418\2754\256\247\275\320ew\276l\0350\2764\310i\276\264\205\020>\355\334y\276N\tm\275\010\240F\276\304K\323<\277\351:=\352}\252=\000p\"\276\203\024\352;\233\014\247\2757\220\304;\353P\311=\363$\357\275\n\311\206=\314\016l=\350\241\340\275o\001\006\276\277\033\200;D\320\232=\267a\032<L\251m\2765\'D\276\375\311\001\276\213\216\353<\027\376\014>\254ej>JB\317=th\373;+)X=M\200\270=\242\353r>\333]\010\276{\234q>\232\016\203=\255\216\345<\236\215\301\274\277\337T\276\365\230H>\'Q<\276g\343(=\263c\364=\353\342\216\275\030\2423\2768O\270;?D\260=\346\374~=qJ?\275.\316\341\275ac\254\275\025\265\204>\215\'\234>.\224\020>_\230\027>b)>\275\036\363\237\275\355g\347=\252\377\235\274k\0146\276)\000\341=\236\250W>\"%5\276v)\322=\004,\025\275\275Mg>\210R;\276\216\241H\276\262\233p\275\013B\014>\273v[>\272\233\200=,\223l>\266&\214\275:\277\027>C\214\034\276\362\2719>\353\266\034=\327s\'\275\306\034z\276\300\300!\276\27760\276}\344e\275^\326\200=\306T\273=b\331\274\275\210\000a\276\017=U\276\331g\026\276\334\333&>\013\343\360=+$I>|\016#=\320)\211\275\255\000\017=}\355\244<\320\020.=h&\n>r\337w<\371w*\2766\201/>\313\344\372=\025\247\225=\327\032%>=A\017;\263hr>\016q\020<.l\345<\274I0\276\213\252\266=V\201\023\276\035\3718>\024yW>\321\320/\276T\"H\2768>j>\364r\330\274\2333\243\275\320*H\276Tc\217\274|;\223=\0354t=`K\323\273\320U\035\276\305\374\304\275\322\344\017>\310K\033>\246\r{<\322\300\201\275\r, \276\277;|\276\276\"\010\276\234\260\023\276!\207\020=\376\345\377\275\333\3124=Z\276\006\276\005\275:>\371\337\007\276\225/\033=4\254O\276\n\n\221\276\222\331\033\275\246\372F\2769\332k=\024w\005\276Ij\025>\355\033j>\365\374:\276\347\023Q\276(~L\276\215\245$>\033\324;>>\"5>I\251B>\250\246\212\275\221\260\264<8\353e>U\251\033\275\211\002\243\274I\354\\\276$\250\336=\334U\204=\264\177\301\275v\333O\275\33777=\233\306<>\006{\321\275\205\346}\276\200\213M>-\0361\276x\261\333\275 K\224<\225X\324\275\232d\342=\231b\201\276G@g\276/\252]\276\361\210\330:B\262\273=\016\342\013\276\352W\">t\241\375; r(\276N<\243\276R\017\226=\304\375w\276\361\355\313=E\317I\276\232\346\013>\207c\003\276\263W\\>2\351\376\275\366\341\263\2752\004\240\275\336x\025\275\367\"\235\275\270D\237>\325\321d;\211\276\344;&a[\276\232\200\251>H;{\276v\032\266=\324$[>\320l\236\275d\353\005\276S\257a>\236\336\204>\274\374F>\003\2712=\014x\203\276\262\305\312=\376c\033>f\224>\276\r\211\036>\330\364k\276%\214\204\275\300\223\305\275O\237e\275\346\314E>\362\014\217>\010\227\037\275^\355\216>\306\251\351\275\227k\010<{\270\245\275T\263\320=\373\t-\276\204\347\020\275\230\240\004>\305\022]>1\000\">\264\3171=\202:8>D\274f>!\334\317<C\233W\276\377Va\274\235\245 >\000\021]\276\022\243\003\276V\017b\276\270m@>[X\313=8\255\273=\335O\364\272v\304v>e\251n\275\253\\\321=tR>>\346\240#>>\2114\276\010CV>\314\333\032\275\205<\221=\023\377\265=\t+i\276)\257\201\275V\no>D\024Y>}\275\304\275s;\372=pb&>_\224\010>\340ey\276\233\202q\276>\251K\276\277\361\023>\251\213\237\272i\332\034?\375\006d>\302\216\357>_\230w\276=\203\347;\227\321\004>~1\300\275\312\227\352\274\331\017\002\277\346k\366\275\252\001\230\276\304\t\337=\025\276&>\377\361\276\276\216nh\276\261\327:?!r\304\275o\243\247\275Q\234l\275\365N+\276\253\024\255\276\203\362t<\342\034\315\276\255\221\255\275\314\234\311=O_\261\274\212\\\356\275\316\251\216\276\335\350S>n{\212\276\244\360\331=\314\034V\275\0216\306\275\234\305\255;+\r\201=x\353F\276t\250\265=JGX=\1771v\276\\?H=U\013\217=\304\265\370\275\374\370\t=:\270c\275\236O\214=\343\007\377=\022O\002\274\027G\000>\334\035_>G\353\255\273O\204\223\275\350\332r>\001\203w\276\345\004\213\275\'\256\217\276\002Cx<\241\231\212\275\223}\223\275Vt\016\276q\014\223=\302\270\272\275y>\256=\036{N>\004y)\276\2273+>\223_\314=3\031:>\202X.>7t\220\276*\246V\276\317\350\244>Y\222h>\367\202#\277\014\257\021=\224\200\274\276\242\210\023\276J\225H>\034J\225\276\275X\301=\346b\032>\241[\020\276(\007\234\2757\252\025>-\022H\275H\t\255>\336S\235\276\215\021\235\276\231\314\222=\324\222\270=c\266)>\000\372P\276L\263{<\210\216\351\271,\216\211>\231\240c\275\030*&\275\200\\\216\276\312)N\275v\245\004=\007b(\276\202_\244\276W4\'>Y\233\242\275\3126r\2767\231\377>\376\005\266\276\265v\363\275?D\255\275\001\'\343\276\034\\\032>t\2225\276\364\247\376=\037\264U>\376\227\345=\317\254\315\275\212\377@>\352c3=P=\006<\331\'\277=\007\367\321\276\334\315\033<\016\210+>\230\376\223\276\2709\220\275\204\336\300\276\365t\\\276\350\361\215\274\2326\001\276:\265\313\274\002\302\300\276\006h\036\2755F_=\361\371-=M\031\272=\205ER\276\030Y\017\2740&\364<\260o\033\276\014\303v\276\313\371|\276\374~ >j1Z\276\335\303B\276L\324\n>\001l\233=\027\022\014\276\201}F\276x\\\305\2752\245c=R\353\335=\360q8=1\230\211>\346\331\265=7\014\253\275^<\226=\'%\014\275\tBT=&\250:=Q\0375\276\003RP>{-d=\333@\300=\214\005\257=\344V\006\276\305nI=\r\255,;=\216~=\177Q1\276\t\021!\275R\332\200\276\223\226\207\276Pv\203\275\231\355\206\276\215\307z=g.a>\300\363/>\366t\n\275\302N\334\274\334\254\013>\310\345Y\276&Y/>\312L\376\274\362\255O=t\272\350\275\273o\335\275\213\345g\276+7g>I\226\003\276\362\262\321\270{\344->7\305\036>\344\003\251\275W*\343=F\335\245\272\251;V>}\031H>\032*,=Znh\276\001\020\350<|`\r\276\320\035\263\274l\2028\276\225T\373=\3736\365:\023\332H>W4\266\274\255\250\311<rX\022\276\236^j\276U\254\273\274M\317h\276S\221m\275\345\335\357=R\334Q>\010s\271<*\004\303\275\317\255)>\214\3627\276#HT>\031\021\300\275Gj\334=h\271\024\2765\223!\276\013\270\006>\267|+;\257/b>\355\266A\276\027\025=\276\201>\336\275\035G&\273\326\226A\274BH\'>\270\000\204\275\254%F\276\262\032\324\275\016\272w>\2769\323=\014\322@>\007\250M=\206\205\327\274\262\352\344=\255\2331\276\271@\226\275w\3616>\033.\035>qv+>\346-\202\276)k\217\276E\234\227\276[K\250\275g\364\250=u_W\2753\371\361<\315\362/\276\264\350$\276i\223G\275Og|=\364\306\027>\316~+>\244\352W\2769P\312=\230\005\306\274\366a\277=;\n\032\276\352<\206=z\325\236\276\262\\\224\275u\344\326=T\272\003>\256\3344>p\tu\276\246\271G=\214\354\035>\212\263\002>\327\2410\276\303\t\244\275\327\211\372=\3606\331\275\261\315;>\364Q_\276\331J\262\271\270f&>\344= \276f\223u\276\236C\270=\241\037h=\307Ll\274\326\356\001\276\323B\027=09-\276A\"=\275\376\024\211\276\220y\215\276X\273\303\275t\0002>\026)\007\276\233\024\223=\"5\211\275\276\354\025\276\302\005O\276\370) \275\217\0253\276\000qy<n\007k\276 \342\344\275\235\370\363=\227k(\276xW^\276?B\223\275>\324p<\033\221\314\273~4\000\274\017/&\276\346\345t>\314Wm\276\\\241\361\275\266\330^\276\220\026\007\276\304%\033>\215p\034\276\0345\253<\312\2664>\363\271A>\245\201(\276P\031e\275}\373\021>:\2755\2761>\027\276\034s\r\276\304-%=\205x\010=c/\'\274\325\333\225=[^\020\276]:\233\275\\\231J\276g\3505\276\354#f\276\226\022L\275R@\221=r\346\255\274\351\030=\275\020\264z\275\024\022^\276\317\027\224>!!\270=\353\322\202\276x\'8>\312)d\276\374{\177>yt\375=\250\037u;#\274\243=\n\t\006>j\247\220\275\237\273\276\275*%\266\276z\302\260\276b;\005\275>\257\016>\356\2506\275\205*\307\276\220\313x\276n\200\206\275\242\312\362\276\224]\265=m\022\212\276\004<$\276l\021\007\276m\221\212=\005C\344\275\341i\320=N9Z\276\343b\201\276s\016\257=\320\244\346=l\326\237>\177\2625=|\0057\275\007\313\214>\3546o\2765\365\020>m:\023\276\361\275\371\274\275\037\223\274\204\226\251= }s\275\332\004\023\276\235\357\r>Q\310\206\275\261\255\034>\275\032,\276\275b\241\275H\362\020\276\025+8>\264\037Y>\3347\277\275\033\307\216\275\020\367\274\275\271\323[>\013\315e>\357<R\276\353 \033\276\247\254q\276,5C>\342\353\020>$\367|>&\372\223<<\243\323\272\246\313U\276W\2152>\254:Q=\026\342c>\243\216\355<\000\240\267=\251\3012<\006\301K>!\006\252\276\260\"\225\276\232\372\016\276F~\220\276\242\267\036\276\264\356_>\001\245\210>\363\250\026>\365\235\362\275\2312T\275l\233\257\276\267\267)\277g\350\321\274\221\313\203\275\376U)>\266\372\250=\377\037l\276\216\016$=v\013\336>\001\032\233\275@Q4\276M\361\217\276Z;\220;DX\251=\337!\206\276\307)\205\274\030\304\376=\260\230\364\276\271U\001\277\341\211\205\275e\231\251\276\277\253\204=\345T\227>v\241\314\275\251\233c\276|XZ=\210\371\023>\361~1>&h\343=o\371\036\276|\0371>.% =kl\030>p\207(>\337\373$>\223\366\254<\306 2>zx\316=\354\370\220\275n\240\017>1\331\220>\324.\216\276\356\301\n\276\365,M\274h\225d<\3012\354\275F\331\300<\244\220-\2751]\274\275\370#\207\2758\335\201=A\325\212<pRr\275\232\307\026\274k}S>K5\031>|\330\335\274F \275\274}\213(\275I~\276=\360Y2\276\\1W\274\227\334\372\275\321Z\200\275\262\240J\276\356Hx\276\362c\242\274\335\302Z\276\235\201\266\275+\244\202\276\303\r\265<bL#>5\253\031\276\341y7>\244`\354=\037\346\207\276flj>\274\376p>n\357\257=\307r\006\276;WI\274lkj>\rY\215=\330X\007>5\330w\276\307<?\276\215<\214\276\270 \216\275/\341\224=\322\007^=\217\3265\276\317\3233\276\007`A\273\375x&=\003\357;>\005\241\357;u\005L\2765A\032>8\246\214\275R\325o=\347\0049\276\331\272\205\275E\242\245\275 \372,>/\013Y\276x,\031\276\327\3274\276\331e\251\275\300-3=*E\036=.\335\215\276\007\272.>1\010V>\264G\366\2753\237!\276\367\376\030>5\220\340;\347\036m\275y#\205\275\261@@\276I+A\2762\205\216\276i\273\366\274w\364v>\354\2107\275\024\225\332\275*;g\275\226\371L\276g\376&>S\242\335<\210@@\276\322Z@\275Y\346H>\314u\004>Q\267\342\276\317\037\254\274\317\271\354\275fE7=\nV@>\360\016\270\276a\354\351\275\374\253\204>{\217C>\340\234t\274\0025\203\276#\t\351\275\205\037\205>&\3372\276`JC>\\U\263><\340\033\274\254\235\001\276\347\246\016\276<\220(\276<\215\210\276E\206w\276\266v\233<u\rY\274>F\n\276~6\267\2729\301\250\275\005K\261={v\010>\377J\200\275\251\220\256=h\357\345\275O\226\255>\350R\345\274\311\320\367\275\326\222v\276\324/\r>Q}\004>I|\020>{\255X\275\335\322O=\307\227c\276M\014\024>\3713\362\275*\306\025\275$ks\276\266/\312\2754\351\372\274p\035i\275 \217\336=G\323\177\275\226Qo\276\2440\261\275|h\032\276l\313\017\276\273G\361\275`\357\355<\2428\031>\340r\002\275bY\330=\234\302 \276\373v&\275\330\013\363\275\344\343\025\276\255\177\027>\004\013|\275\357\026|\275L\272\307;K\376]\276\024\337\021\275j\273y\276A\206\000>\336aN>\230\265\007=\034\264(\276\334\370l<+{!>\20767>\251\241\r\276\304P\013>\265\004\313=D)O\276\347;E\276\275p[\276\334\347\355=\272\250\350=\300qw;\211`%\276\275P!=q/\376\274\231\032%>>\327\364\274\345MG>z\256$\27589A\276@\253\367=\243j]\275p&\344\275x\031`\276X\301\215\275Mk);\246Wc>\t\3067\275J\230\220\275\347\254=>\303?\221\27535M:6\314\265\275\026\255P\276\\\022\006>\362(T\276\310\321<>B\250~\276\321iO\275\206U5>\2245\231\274\344\203b\275\363?)\275b\001\351=\267a\255<;\236:\276\213\207\376\275:\264\005>\000\364C>m\361\r\274\352R\n=\2761z=\203\356\331\275\232I\023>\226NY\276\350\245M>\267\272\304\275\341\202Z\276\251\316\234=\207\374Y\274\335\216z\276y\207`>\346\232]\276\302\330O\276\021\220\314\273\245\n<\276\320|:\2768\264\025\276>\354\334\275\000c\347\27516\002?2PZ\276\341\200x\276\200\027\215\275\367\267\002>\237s\246\274\302\363\233\276\374\"/\2767J\246\275\262\364\250\276\375+\204\276\003b`\275\014}\321<q(\307>\220\3458\275N\240\177>\215\371\177\276_\210g\276$\313.\274\305\000\210>\024\341\032\276SH\201;\027\325\225\275f\266\320\275\200\225\371=\224n\027>\253\317P\275\034\000\021\276\001jx\276\343\204\250=O\224\367<\303\361\253;:=\276=\334\235Z>~\306=<\215\376)=e40\276\363\001\036\275\t\336\235=\370\273\001\276\362\275E=\373\274\206\275\nV\321=\347\337\200\275\022\252\247=\350\314\370=\270\324\004\276.W\242=\226\n\337=%\374\t\276B\3554=xiM\276\212\006\363=U\235\336\273Q-\335\274\205\r\267\275Qav\275\217E9\276\3155\334<H\216\337\275\200]\024>\233\304\273=\340\353c>\033\374>\2758\237\211\276|\306\177\276%\035\010\276\201 \362=\244\257\215<\225qh>,\032V=d\257T>A\365\'\275\376\314\177>\032*\002>\201\331\343\275\270\361\324=\303\\V>\243\211\024\276R\003\017>J1_\275xP=>xbT\276\340+\377<\'BR>86\037>\233\323\002>\307\321\030;eab>\260\213`\276m8R\276<\207\300\274@[b=\363\376\014\275\306^\204\275\033]V>\215R\213>Z&\021>\2279)=x\006\211>\327\314\303\274\244\'\220\276%\225\364\274\0339e\275\031\342s\275\252\203\354\274+\315c\276\347\333Y\276\251\232\036\276\215s\322\275\244\035@<\361i+\275u\337s\275@\221<=\206Ep>S\023\375\275\274\2702\275S\344O>\275\330\216=\333\257^\2768\021\026=\324\321\177\276QeN>%\213\\\276QX\270\275\216\036X\276/\253\\>\336T\316\274\030H\212\275\361\016\"\275\000NV<uLN>\334\320D>4r_>\263~\216\276%\000+\274\336\346$>q\235\273=\343\210B\276\206\004\354<g\222*>p\365\275\275\372\350\300\274N~\363;\222\034\276=_@~=\371\272\206\276\354\323\200\276\302%\036>\270gO\275\247\246+\276\200\233->\362\200$\276\336\372T\276\347l\210=\213\206!\276\177&h\276\372\021Y\276.\365W=X\000\334\275\376\027\227\275\311\257\177\275{\212$\276.\342x\275\203\347\236=\020fO\276X?\036\273\214\304\260\275\211W\362;2\237J\276\326\340-=l\267,>$\211?>\0136v\276!W\347\275\023\357\345=)\230$\276\367\024V>\302\327D>/=\267=F`\340\275\016|>>\242\216A>\200Z\201>p\017\242= \023i\276x\"\000>%\035\275\275\216\201)\276M\006\220=\231\004\351\274`\366\320=\334\330a=l\321e>\276\300~>\355\352\366\275\366n\254=:1!\275\3505B>\004\024\033\276\212\267\341<\371@\277\275\242\027\006<\253\364\002>\031\355+>J$\203\273\005P/>;\326?\2766\312*>$\334\037\276\260fa\276\264\377\364=+v#>Z\267k>P\330\325\275\343\350$\276by\014<g?\372\274\362\325\307<\361j_\276\007\264u>\346v\222\2758\336\360=Lo\205=\255\245n\275\264\223@\275\311.\336\275\370\374\340\275%!\332>\327\350\000=\205,\260\275\253\023s\276n\343~\276r\024(\276\274\263\360\276\337\201L\276\204\336\246\274\007T\240>\306\261A>\234\\\334\275\372\216\362\275\371\214s>\336\240\334=%\220\224>\257i_\276^\212\275=Qy\227>;\000 >mr\241=\302\326\034>\347\376$\276?\253\224\275}\200o\276J\337+\276\257#\023\276k\243\210\274:\330<\275\2557 >\370i`\275z\307T=\205\027\246\276q/\212\274\3005\036>\275\217A\276j\362\031=L\214\255\276N\270\354\275aA5>\315<\024\276B\312j:\0254\254=8l\210>L>^\276\224\355\023>\323\020\000\276g\017u\276\233\362$\276w\033\226\274&\234\345\275aK\214\276W\204\304\275\277\207\200=\340\216\222\275\'\204d\276\256L\002\276+e\032\276\316\201\353\276\226>T\277\330\303\206\276:*\265\276\310\361\376=\324\240\\\276\377\2316\277#\020\274=\246\3331?\366AT>\3559D=\177\216\336=\271)\341>\327F\223>\t\203\005>\340\302\032\276\376:\221\275R\234??i\254\212\275\270@\027\276\240\304\014?\222*z=\275w\344=\334!\017?\233SB\277\250H,\277\260_\016>\356@\226>W\3210\276-\332\203\275X\321!\276\255\361\006?\306G\265=\3120\265\275\341\307=\275\362\3336\276\232B\371=XX\020\275SR\204=5\202m\275\370\260 >&F\017\276\245A\217>\361=\225=\t\177\330>\243\235\333\275 \034\365<*\317\203\274\010p!\276n\364\225>%\353\"\276\301]*\276@Q]\274k\374P>\021\250`=\351I\326\275Y\246\312<\226g\211\275Se\021>\006C\352\276(\\D>\004\026\375\275\200\3116\276\265-\266\275\231\326c>b8r\276\306\266\304\276:H\332=\241\310\355\275\226\327\006\276.j$>\351\201#>v\343-\276\230\205K\275\232\274:=\365B\020\276\262\273\333\276\213NL\275\006J\010\276U\224\r>\203\355t\275\264\321j;\013\263\224\274e\256\025>bc!\276\007r5\276\034}\234\276\021\031\221\276\030\232\"\276\252Z\253\276\035\265\337<\370\255\200=\'#\224\276\334\332\200\276b\320N\276\325\335k=\375\342{>\367\330\262>P\016\024>\001\265\363\273\233\303\273\274\251\225\270=c\222@>D\367\320>\346\332^\277\374\343\236;\221\215z\274C\033k\276\0227\212>.\205\347\276\332\3212\276:\013\346\275\252B.\275\224S->,\251\350\275\351\243\316<\006Qn>5)\350\272\316\356\266\276t5\032\277\277\231\215>\326y\007?;\264\302= \202z\274\351\274\r>\031\211->\236\222\016\276F\271\277\276\255\277\005>!\022\251>-\230^>\335\315n\276\352J4>\333>\220\27606\204> \250\036<2\316Q\276-1~>\255\250\343\274C\3644=\342\210\t\275\206\006\213>\250\002R\276\253\034\347\273#\236\r\276\371\301\304>C[\006\276R\207\301\276\242\205\321<\267xM>\260:5>\342*\017>x~\247=\275\212\321<\374\"J\276\272\203\245>\376\275\242={F\345>\267\003\237\275f\213h\275\"[\276\275\211\326w>}s\021\276z\031\217=\234\224&\276\007\021~>\335\3470>f]\324\275\226\004\035\275\276!G\276\010\231\031>\334e~\276T%\264=\360y\r=\375\355\033\276*\0224>\324\361\302\275m\3142>\363Y@>b\245^>V\335\204\276\215\371R>\376)\315\275\242\2606\276\220\333/\276_\316o>\213\373[\276\270PT>\3522A\276\022\214\374=\r\330(>\226\2762=\351\2030=d\231-\2769\025$\276\374=\273=\213\204\357\274\t0:>D\020\375\275\032\217-> \351\225=\374\355p\276\026k\204\276;\321\371=\246Pc\275be\272=h\0316\276\030\361j>\036\232\224=\200\365\034<\026\300r>\226r]\274\014X%>MrH\276\374\007\">\217g\217=\005\240\355=q\177\004\274!X\314=S\370\005>\354\235\354\275\"F.=\031]\033\276\274z\250\274=\353\031>\223\360a<\007\352X>\263\2239\276\3672\361=\234\214\214=\253\223\005\276z#S\276\022\225o\276S[B>+4\014>\220(#>\3703n\276&\317\366\275\'\322\316\274\343\253\036\276\323*;\276\306\274\225<C\333\001\2749\340<\275.\353@\276\273\216\331\275\216l\203\276\246\tr\276\362\2649\276\342\001\243=\013\022l>\033\371k>\251\231T\276\255|h=\231\206z>`\007\021>\327\333\210=aRV=)\207\373\275\260\036\235\274<\250\301\276\024&\266\2746\341\363=_\036y>\n\376a>\233\r\212=\017\365`=\307v\275\275\351>\007\277Q`\310<%eT=0L\236>\335\325\265\275\264\267s\275\324\033\004>\311l\315>\2110_\276r\000\013=\363\362\230\276\212Q\332\276\266\243\202\275\246Q{\276j\362\\\276w\341h\276\243i\245\276Y1\354\276U\222c\275\210(\366\275\360\230\362\275\255\016\227\275\032\326\312\274\343\005\332=\375\257\223\276TMt\276m=\014\275b\226\377\275Q]h\276\212\262X\276\256\317Y>\263\250\'\274B\372q\276\345\225&\276\301e->u\2412\276\321\322y\276k\307\266\275\233\211R>\265\242c:\321\032F\276\266t\027\276<\010\025\275\302\322\274\276\002\232\367\275\200\202\303\276;\250\303\275\206\355\257=\255\374\215\276\033\351,=\2777S=\373\342\024>O\271Z>\356\337\005>\034\347\302\275\256@\367\274\301\370\026\274\271%\013>\316\304Q>\371\n6<\333\"\256=\331\014\302\275\366\243\\\276\'\001\331\275\376Vr\276E \226\275\267\366\316=Vg\246=\265\334)\2765\277\226<\026\244?>;\344\332=[E\245=\354\216\237=\377\353\237<\342\357s\2768\256]=e,3>\3078^\275\263\\\245\275+\327%\276Y\201\336\275\346\375l>H#\252=\247\242>=\367\031\025\274\005xP<i\346B\276@\033=>@\010S>\250:\215>\200~\020\275\355Kq\276l\235e>B\342\343<g>H\276\233W\311\275\326|\200>?\212\324\275-a\225;r}B>\276\325\261\276\300\'1=\370=\002=$\371\372=\367\274\027\276m\270\024\276*\000e\276\332\326\021=2\300\237\273%\260m\274\313\367T\274\t\225\n;\343\002\266=5\'5\276p\222\211>u\372\r\276\220\002\027>D\326a\276!\313:\275#\036>\275\350\255R>\202\0000>\002\254\023\276h\177\264;\262\367H\276\027p\036=QBV\276\224*?\276\211\362\331<7!i=\333\230I>\216\332\231\275\325\213Y\276\32696>7\212\372=\372}\013>\376yj\275\034\234\005>\357\372\021>\236\214/>\2119k\276\004=\020=6\\\032\275\347\034_>\177y\271=!\201s>\247z/\2766\350e>\034~B>\321:\225\275\005f\023\276\261\231\025>\236\346 >\242\0223\274\334N\037\276\177F\316\2758g\273=c\371\335=P\2730\275Q\315\006>x~\321\274{a\317\275|\246\204=ys\302=\366v\000=\006\025d\2764\005*=\325Q\033>?\031\244\274\231\377M>\036\007\313\275\334\020\235=u\2143>j\374\224\275.\251\364<\375\001\023\276\232\2558>Z\322x:\204q\016>TB@<\367\235\231\275`\302\320=\313n*\276taD>&\271D\275\036{\226=aM/>C\316I;t\265\r>\321\225\210\276!\220\360\275\273Ve=\317\340\207\275i\324\032>H\003\225<\300\235}\2762\202p\276\216\272I\276:\355\031\276\325\200s\274\363W\272\275\005>\r>J\314\217<\267\334\362\2743\036\\\276J\037C\276Cr\035\276\356\371\214=\254\235\024>\305\261\250=\374\333\033>"
      }
    }
  }
}
node {
  name: "FCN/dense/MatMul/ReadVariableOp"
  op: "Identity"
  input: "FCN/dense/MatMul/ReadVariableOp/resource"
  attr {
    key: "T"
    value {
      type: DT_FLOAT
    }
  }
}
node {
  name: "FCN/dense/MatMul"
  op: "MatMul"
  input: "FCN/input/Relu"
  input: "FCN/dense/MatMul/ReadVariableOp"
  attr {
    key: "T"
    value {
      type: DT_FLOAT
    }
  }
  attr {
    key: "transpose_a"
    value {
      b: false
    }
  }
  attr {
    key: "transpose_b"
    value {
      b: false
    }
  }
}
node {
  name: "FCN/dense/BiasAdd/ReadVariableOp/resource"
  op: "Const"
  attr {
    key: "dtype"
    value {
      type: DT_FLOAT
    }
  }
  attr {
    key: "value"
    value {
      tensor {
        dtype: DT_FLOAT
        tensor_shape {
          dim {
            size: 32
          }
        }
        tensor_content: "\304\353\006>g3\235>B\2464\275\313\325\301\274\232K`=8d\217\274\343\352\204>\267\017Q\275\260Iu\276\301D\220\2756\221s\274\234\375\322<v\320n=\014y\316<X\236H\274\017cu<OK \274a\326\222\276\237\310(\274\030$\016\276H\371\025\276\374\013\377\275\0138\034=\230\027\232\275vy\306>H\223\306>\371\223C\274\364\360\256=\350}\320>\031\306\232>.\316\364\273\377\312`="
      }
    }
  }
}
node {
  name: "FCN/dense/BiasAdd/ReadVariableOp"
  op: "Identity"
  input: "FCN/dense/BiasAdd/ReadVariableOp/resource"
  attr {
    key: "T"
    value {
      type: DT_FLOAT
    }
  }
}
node {
  name: "FCN/dense/BiasAdd"
  op: "BiasAdd"
  input: "FCN/dense/MatMul"
  input: "FCN/dense/BiasAdd/ReadVariableOp"
  attr {
    key: "T"
    value {
      type: DT_FLOAT
    }
  }
  attr {
    key: "data_format"
    value {
      s: "NHWC"
    }
  }
}
node {
  name: "FCN/dense/Relu"
  op: "Relu"
  input: "FCN/dense/BiasAdd"
  attr {
    key: "T"
    value {
      type: DT_FLOAT
    }
  }
}
node {
  name: "FCN/dense_1/MatMul/ReadVariableOp/resource"
  op: "Const"
  attr {
    key: "dtype"
    value {
      type: DT_FLOAT
    }
  }
  attr {
    key: "value"
    value {
      tensor {
        dtype: DT_FLOAT
        tensor_shape {
          dim {
            size: 32
          }
          dim {
            size: 16
          }
        }
        tensor_content: "\000H\221\276\266\202\236>G\006\340=L\212\010>[\200_>\237\206V\276\353_\260=\346\204\212\275,\315\375>\342_\371\274\211,d\277\334\367\213\276\312I\020\276\212t\032\276j\235>>\026Q\331=\243(m>#\360\364<\017\035\313\275[,\241\276K\375\021>\\\030_\276\224Tm\276\2762u\276u`\201>\005\350c>*P\344\276\341\336\363>\330\337\204=\001\035\242\275\037\364\373\276\234\234\026>v&\021>1\037d=\360>a>{\223\014\276\224z\264\276E\032\207\276h|~\276\302}M\277\300\216\322\276\363P\022>9jD\277\326\361\327\274\002\013\220\276\306Z\251\276*p\001\276\361\370|\2765\261\026>\311\275\204>\001\2670>\016\363b;\306\322\344\275\341\370);6\317\243>H\253`\2756\253\205\276\251\0262\276\365vX>\010\314\210>\333\211\242<\250\216=\275\3636#<\031,\001\276`\033\027\275pR\221\274\264\366\371=\375n\261\275\245\332\021=7\212$\276\234\344\362\275\377*\212>\323d\227\276A\260\306\275/\316\323>G~b=\254}\317=\2110\242<\260\360\014>*\211B;x\375\236\276<w\233\276\02610>\202/d\276\244\\&>\3219\005<)\3614>\235\330\014\276M\321\206\276\013\0146=z\302t\275\217=2\276{9\223\276wY!\275\327\254\206\276>\273\246>\031~\264\274h\022\201>C5/>_\203\020>\022\224h>\377\335\345\273\241S\037\276l\232\231\276\324\276\342<5\300n=\327>\331\276J\347\220>\322\367\025\276\253C`>@0,\275\2166\002\276@\021 \276\310\341\261\276\005\357\342<5\027n\275\375\317>\275\302\262\242=\177/!\276\007\r%>o\222P\276\'6\206\274\335\203\307\276\006T\024>\020\031\340=\363n\230\276\004\241\263>\207\215\235\276\347\343j\274\t\037\216\276/\270r\2767\302\207\274@\322\362=V\334\024>A\337B=\365\230\376>\352\223\374\275\312%\211\276\365E\'?(\2420>\233!\207\275|cN\275*G\023\276\357\377\234\275\373\200\205\275\255\243\224\276]\356\210\276]\347o>\313\307\244\276\272O\213<\352\367\004\276a$\315\274Jg\215<\'v\223\276\023X\236>\351{\200>\204p\240\2763\nu\275\301\013\000\276\253\021,>lx\034\276V\202\201<@jQ\276\246M\350\275\347\330\005>\244g\236>\304\2001\2740w\016>\301\377a\276$\300\230\276J\245\215>d\200N=O\007\013\276\006D\027\276\271\206\251\272\251G\220>\257\3163\276\250\356\255\2763\247\032=\312\376x=$\204\371\275J\310\316>\336 \221>\ro\026>P\343`>\313\215<>X\003p=\316\232H\275\3645\246\276\223\304\017=\374\272\277\275\013T\302>\014\016\227>fM\345\275,\320\316=\337L\242\2762\006\177\276W[\207>\222\215z>\320\300\303>\303\017.\276\357\353\271\275\031\256X?d#\314\275\035\341&>\262\242\007\276qp\240\275\277\242)\273\027j\000>\023\226\216\276[\351\002=\234Ak>\317\272\"\276\213T\272=\236Tz\276\316r~=C\243k>\351\177m\276+\370\350>l=%\276\344\034\244\276\250\306\231\276\346\2038\274$\264\000\276%\225\244\276\314\231\\=\300\264\220>JG\317\275?\005\276\274\201b\270=\200\236\t\276\344d6\272#;C><\230\267\276\035\002Q\273q\256\035\276\270\314#\276\304\230U>]\'\204>}\310\201>P\306\233\276\0306\220>\347\353t\276L(~\276\353\361\277\271*X\251\276#\217\227\276\005\354\027\275U2W>\360 \022\276En\017\277zn\257\276\252\355\262\276T\264\000\2763\017R\276\374CU>\275\020\216\276Ua9\275\342\223s\276\352\265$>\235\212~>#\375\021=\262\030\236=[\310\260>g\225\233\276Y\036-\276-\021\372\275nu\203<>\274\020\276\275\217y=-vK>\321\010\333\2747\273s\276\315\205.\276~\005S\276\313s\204>f\221O\276\025\310\002>\255\035y\276D1\025\276\303\330\227\276\021\365\277\275\242\233\t\276_\326\344\276Kk?\276\366\230\246\276\221\342\320>,;\227\276gK\010>\226a\222>\326~\310=\311#\233=\002\"\323<f\241\242=\351\260\202\276\231H\357=9,\227<5\351\225\276\302\035\240\276\251\323\224=\027\205\225\276\225\262?\276\206\244\205>\230_\360=\315\267\243=:\333\316<\245\223\344\276\030\317\224\275\310\317/><\242\"\276\200\001\025>>\323\260>\355\271\364>\214\326\242=\306\241\370;\025\3738>c)<>5\340\205\276\210v\202\276\335\347<\275\266\200\345\275\006\204\003\276\307\307\210\276\246\235\366>wu\342\275|b\215=\004\373Z\276\222\237#\276\\\314_\276\234\274\r\276\223z\213\275CQ\n=:&\260\276\265q\334>!y\336=\275\307\026>\307n\216>\275\'\310\276+t\376\272\347CA>\025\204\022;\003+W>\246y\236>\270\276\264<\037\324\220>\220\264\257\275\0255x\276q\313\334\275\350\365,>FY\177\2768\355\007\276\"D\221>rKM>.X\245=\026\273\337\275\365}\372\275\350\023W\275N\002\306>\022\225\002\276\004$g\276\210\305\013\276<%\247=\226\245\223>\354\332\013>\017\225{>W\000x\276NB\345>.\2506\276\004\303z\276\254\372\211\276\021\215\024=\371\202\222>b\007\200<\255M\351=QYc\276[\211<\276\377\027\030>f\000\241\276\014\373(?\002;?\276Q\304\271\275\021\020:>\366\316<>\2421\n>e\364\264\276\357>\212>\003\210\266>^&t<\2075(\276\365\233\354\276\226b\206>\246\302\346=\263c\324=\313\264\271>QvW\274;\253n>\363\370\376<\014\201G\276\rJ,>\204\354\213\276\301Z\210>\252V\202>.l\263>kD\201\276\372\360\t\276\350\253\034=\335~x>\230pn\276\326#\247\276r\031\236>\354+\013\276\225\021\265>:m\301\276\370:N\276H)\262=ta\237\276s\272d\276\0147\201\274@\203\001\275\355\201\\>\014\272\225\275\265\245/\276u\t$>\306cY>\037Sh>\000&\224=\314\224\202>\214B\243=\366\256~\275\262\225\n\276\354\r\335=$25\276:\276\350\2759\032+>\021s\300;\225\037\227>6a\370\274\346#\242>\310.E>G\271\013?G&\274=8m\250\276\214\204\346>\371\246_>\232\003\275=kdi>o5\315\275{\350\030\276\377\375I>\217\364~>y\354E>\022\377;>\372i\373\276\372\3338\276\253\211\212\276^c4>\377Oq\2762q*>%>\205>\256\223\302>\343\271y\276%\237\001\276\324\276\323\276^\347{\276\250_\251\276d\"\000\275\020t\204=j#\323\275L\260\320\275\371\331\300>\260\333\220\276\253A\325=\037\376\216=\203\t\021=F&\234>l&\320>/M\213\274@\200s>\313\021\335\276\364u\203\276O\344\211<\355\276\205>\324\"w>\r\257@>\255\241\233\276\307\235\245\276\264w\210\276\033%g>\337\266c\275\206Q\330<\270n\304\275\305\"(=\272\233\204\274\023\267\231>\347yI>\364\353{;\033d`\275Zp\252>\\\206p\276o\301>\276\013]X\276\007W\244<\317\370y\276\234\376+\275^=+\276\323k\277\2764\200\240>\3238\005?\003]q\276\345\311\307>>\354\260=o.\027\276"
      }
    }
  }
}
node {
  name: "FCN/dense_1/MatMul/ReadVariableOp"
  op: "Identity"
  input: "FCN/dense_1/MatMul/ReadVariableOp/resource"
  attr {
    key: "T"
    value {
      type: DT_FLOAT
    }
  }
}
node {
  name: "FCN/dense_1/MatMul"
  op: "MatMul"
  input: "FCN/dense/Relu"
  input: "FCN/dense_1/MatMul/ReadVariableOp"
  attr {
    key: "T"
    value {
      type: DT_FLOAT
    }
  }
  attr {
    key: "transpose_a"
    value {
      b: false
    }
  }
  attr {
    key: "transpose_b"
    value {
      b: false
    }
  }
}
node {
  name: "FCN/dense_1/BiasAdd/ReadVariableOp/resource"
  op: "Const"
  attr {
    key: "dtype"
    value {
      type: DT_FLOAT
    }
  }
  attr {
    key: "value"
    value {
      tensor {
        dtype: DT_FLOAT
        tensor_shape {
          dim {
            size: 16
          }
        }
        tensor_content: "{\000\273\275L\343\031?\353&%?\317\024\232\276m\210\316\275\013C\335=\233\227\234\274\t\022\033\276?g4\276\331N\277>D\014Q>\344\007\264>\027z\356:\261Y\225=\251 {\276j\331\303\274"
      }
    }
  }
}
node {
  name: "FCN/dense_1/BiasAdd/ReadVariableOp"
  op: "Identity"
  input: "FCN/dense_1/BiasAdd/ReadVariableOp/resource"
  attr {
    key: "T"
    value {
      type: DT_FLOAT
    }
  }
}
node {
  name: "FCN/dense_1/BiasAdd"
  op: "BiasAdd"
  input: "FCN/dense_1/MatMul"
  input: "FCN/dense_1/BiasAdd/ReadVariableOp"
  attr {
    key: "T"
    value {
      type: DT_FLOAT
    }
  }
  attr {
    key: "data_format"
    value {
      s: "NHWC"
    }
  }
}
node {
  name: "FCN/dense_1/Relu"
  op: "Relu"
  input: "FCN/dense_1/BiasAdd"
  attr {
    key: "T"
    value {
      type: DT_FLOAT
    }
  }
}
node {
  name: "FCN/dense_2/MatMul/ReadVariableOp/resource"
  op: "Const"
  attr {
    key: "dtype"
    value {
      type: DT_FLOAT
    }
  }
  attr {
    key: "value"
    value {
      tensor {
        dtype: DT_FLOAT
        tensor_shape {
          dim {
            size: 16
          }
          dim {
            size: 8
          }
        }
        tensor_content: "/\035\221=\002h\260\276j/\r\275\034\336\247\276\016\307\027\276F\201\220=\366\001\025\276a\220\321\276\326\343\327\276\334\216\017>\353\221\n\276\302\233\373=\231\320\356\275\362\334I>\037\3505>\264\017\030\276\263\370\n>J\227\327>W\316\242\276\343\310\013=\240\200\006?l\"\224>v4\227>`>\000\276\203\322_\276\024\333\013\277\311~\304\274\334/l=i\026\343\274\340\3118\276\001{\016\276\342k8\276_\227Y>\320]\306\276|\345\225>d\231D=\233; =\025\340\274\276t\035\235\276\320\r\260\276\316\242\373\274L\241\014\277\013\223\263\275\027~\245<j\336\020\276\253NU\275L\204\253\276x\354\030\277\252T{=\345\313\240>o\021\316>\031G\267\276\204}=>h \352\2744\217\327\275N\036\371\276>(\217=\356\361\335\275\371!\243\276\2703\272>\323,\027\277M3\203>B\251\354\275t\250\022\275\205a\301\276\006\r\250\276}\215\205\276\3404j\273F\245==\023\367\253\276\370\203b\276\300\330\231\276\254\270\306=\303\001\277:\204\315\275>\304\235\247\275\264\021:>\263\"\222=\331\200\225>\222\274J\275\272\262\201=S\032\017>:_\231\274\214p\037?\r)\254\276YY\232;8\304\212=$Xi\276\036J\000\276\333\0247\275\337\r\276\275l2\240\276D\\\357\276\016#\025\277\203e\254>5\005\213\274\325A\327\276<\335\302=mA\231>H\ra>\2579\327\276\025\241h>\021\314n>\335\314\2147m\213\364\275\336\274{\276\r\252.\275\370e\255\275\212\254F=\370\304\020>&\327\342>\310\006\361\276\307G\017\273\035\221\247\274\205\022\266\276\304h0\276e\261%\276\366v\021>\204\014\023\277{\333\207>u\003\360\275\333\331\377\276\023B\352\276y$\264\276\215\347\215\276\345^\326\2758\374\262\275\237\357\211>"
      }
    }
  }
}
node {
  name: "FCN/dense_2/MatMul/ReadVariableOp"
  op: "Identity"
  input: "FCN/dense_2/MatMul/ReadVariableOp/resource"
  attr {
    key: "T"
    value {
      type: DT_FLOAT
    }
  }
}
node {
  name: "FCN/dense_2/MatMul"
  op: "MatMul"
  input: "FCN/dense_1/Relu"
  input: "FCN/dense_2/MatMul/ReadVariableOp"
  attr {
    key: "T"
    value {
      type: DT_FLOAT
    }
  }
  attr {
    key: "transpose_a"
    value {
      b: false
    }
  }
  attr {
    key: "transpose_b"
    value {
      b: false
    }
  }
}
node {
  name: "FCN/dense_2/BiasAdd/ReadVariableOp/resource"
  op: "Const"
  attr {
    key: "dtype"
    value {
      type: DT_FLOAT
    }
  }
  attr {
    key: "value"
    value {
      tensor {
        dtype: DT_FLOAT
        tensor_shape {
          dim {
            size: 8
          }
        }
        tensor_content: "52\276;\001S\255>\300s\367\273\222\366\333<\223@K\277\003\272]\277\235\325\000@\235D\300\274"
      }
    }
  }
}
node {
  name: "FCN/dense_2/BiasAdd/ReadVariableOp"
  op: "Identity"
  input: "FCN/dense_2/BiasAdd/ReadVariableOp/resource"
  attr {
    key: "T"
    value {
      type: DT_FLOAT
    }
  }
}
node {
  name: "FCN/dense_2/BiasAdd"
  op: "BiasAdd"
  input: "FCN/dense_2/MatMul"
  input: "FCN/dense_2/BiasAdd/ReadVariableOp"
  attr {
    key: "T"
    value {
      type: DT_FLOAT
    }
  }
  attr {
    key: "data_format"
    value {
      s: "NHWC"
    }
  }
}
node {
  name: "FCN/dense_2/Relu"
  op: "Relu"
  input: "FCN/dense_2/BiasAdd"
  attr {
    key: "T"
    value {
      type: DT_FLOAT
    }
  }
}
node {
  name: "FCN/output/MatMul/ReadVariableOp/resource"
  op: "Const"
  attr {
    key: "dtype"
    value {
      type: DT_FLOAT
    }
  }
  attr {
    key: "value"
    value {
      tensor {
        dtype: DT_FLOAT
        tensor_shape {
          dim {
            size: 8
          }
          dim {
            size: 2
          }
        }
        tensor_content: "\022\2213>\337\317\023=\346\2679\277\002=\341\276\357i\264>k?\002=L\177\350\276}C2\277\237\002%?\365\256\306\275w\200U>\331\226;=T\230!\277\241\321\016?\307\230\247\276\355V\312\276"
      }
    }
  }
}
node {
  name: "FCN/output/MatMul/ReadVariableOp"
  op: "Identity"
  input: "FCN/output/MatMul/ReadVariableOp/resource"
  attr {
    key: "T"
    value {
      type: DT_FLOAT
    }
  }
}
node {
  name: "FCN/output/MatMul"
  op: "MatMul"
  input: "FCN/dense_2/Relu"
  input: "FCN/output/MatMul/ReadVariableOp"
  attr {
    key: "T"
    value {
      type: DT_FLOAT
    }
  }
  attr {
    key: "transpose_a"
    value {
      b: false
    }
  }
  attr {
    key: "transpose_b"
    value {
      b: false
    }
  }
}
node {
  name: "FCN/output/BiasAdd/ReadVariableOp/resource"
  op: "Const"
  attr {
    key: "dtype"
    value {
      type: DT_FLOAT
    }
  }
  attr {
    key: "value"
    value {
      tensor {
        dtype: DT_FLOAT
        tensor_shape {
          dim {
            size: 2
          }
        }
        tensor_content: "\200B\363>lB\363\276"
      }
    }
  }
}
node {
  name: "FCN/output/BiasAdd/ReadVariableOp"
  op: "Identity"
  input: "FCN/output/BiasAdd/ReadVariableOp/resource"
  attr {
    key: "T"
    value {
      type: DT_FLOAT
    }
  }
}
node {
  name: "FCN/output/BiasAdd"
  op: "BiasAdd"
  input: "FCN/output/MatMul"
  input: "FCN/output/BiasAdd/ReadVariableOp"
  attr {
    key: "T"
    value {
      type: DT_FLOAT
    }
  }
  attr {
    key: "data_format"
    value {
      s: "NHWC"
    }
  }
}
node {
  name: "FCN/output/Softmax"
  op: "Softmax"
  input: "FCN/output/BiasAdd"
  attr {
    key: "T"
    value {
      type: DT_FLOAT
    }
  }
}
node {
  name: "Identity"
  op: "Identity"
  input: "FCN/output/Softmax"
  input: "^FCN/dense/BiasAdd/ReadVariableOp"
  input: "^FCN/dense/MatMul/ReadVariableOp"
  input: "^FCN/dense_1/BiasAdd/ReadVariableOp"
  input: "^FCN/dense_1/MatMul/ReadVariableOp"
  input: "^FCN/dense_2/BiasAdd/ReadVariableOp"
  input: "^FCN/dense_2/MatMul/ReadVariableOp"
  input: "^FCN/input/BiasAdd/ReadVariableOp"
  input: "^FCN/input/MatMul/ReadVariableOp"
  input: "^FCN/output/BiasAdd/ReadVariableOp"
  input: "^FCN/output/MatMul/ReadVariableOp"
  attr {
    key: "T"
    value {
      type: DT_FLOAT
    }
  }
}
versions {
  producer: 175
}
